{
  "token2id": {
    "<pad>": 0,
    "<unk>": 1,
    "<sos>": 2,
    "<eos>": 3,
    "\"": 4,
    "S": 5,
    "a": 6,
    "v": 7,
    "e": 8,
    "i": 9,
    "t": 10,
    "w": 11,
    "h": 12,
    "C": 13,
    "r": 14,
    "l": 15,
    ",": 16,
    ".": 17,
    "▁\"": 18,
    "▁i": 19,
    "▁w": 20,
    "▁C": 21,
    "▁S": 22,
    "T": 23,
    "c": 24,
    "s": 25,
    "u": 26,
    "d": 27,
    "n": 28,
    "o": 29,
    "y": 30,
    "▁T": 31,
    "▁t": 32,
    "▁s": 33,
    "▁o": 34,
    "m": 35,
    "I": 36,
    "k": 37,
    "g": 38,
    "f": 39,
    "▁r": 40,
    "▁a": 41,
    "▁I": 42,
    "▁h": 43,
    "▁v": 44,
    "▁e": 45,
    "p": 46,
    "b": 47,
    "▁c": 48,
    "▁b": 49,
    "x": 50,
    "-": 51,
    "▁-": 52,
    "▁m": 53,
    "▁f": 54,
    "▁p": 55,
    "▁l": 56,
    "▁g": 57,
    "B": 58,
    ":": 59,
    "▁n": 60,
    "▁y": 61,
    "•": 62,
    "▁u": 63,
    "E": 64,
    "▁E": 65,
    "▁B": 66,
    "▁d": 67,
    "▁k": 68,
    "M": 69,
    "▁M": 70,
    "H": 71,
    "▁H": 72,
    "A": 73,
    "O": 74,
    "▁O": 75,
    "W": 76,
    "L": 77,
    "▁W": 78,
    "▁L": 79,
    "▁A": 80,
    "R": 81,
    "▁R": 82,
    "P": 83,
    "▁P": 84,
    "K": 85,
    "▁K": 86,
    "Y": 87,
    "▁Y": 88,
    "J": 89,
    "'": 90,
    "j": 91,
    "▁J": 92,
    "▁j": 93,
    "F": 94,
    "/": 95,
    "G": 96,
    "▁G": 97,
    "q": 98,
    "▁q": 99,
    ";": 100,
    "N": 101,
    "3": 102,
    "(": 103,
    ")": 104,
    "?": 105,
    "▁3": 106,
    "▁(": 107,
    "X": 108,
    "▁X": 109,
    "Q": 110,
    "5": 111,
    "1": 112,
    "9": 113,
    "▁5": 114,
    "6": 115,
    "▁6": 116,
    "D": 117,
    "Z": 118,
    "▁D": 119,
    "▁N": 120,
    "▁Z": 121,
    "+": 122,
    "▁'": 123,
    "▁+": 124,
    "\\": 125,
    "z": 126,
    "▁1": 127,
    "V": 128,
    "▁V": 129,
    "▁.": 130,
    "2": 131,
    "▁2": 132,
    "0": 133,
    "▁0": 134,
    "U": 135,
    "7": 136,
    "▁U": 137,
    "4": 138,
    "▁F": 139,
    "—": 140,
    "▁—": 141,
    "▁?": 142,
    "–": 143,
    "▁–": 144,
    "!": 145,
    ">": 146,
    "▁>": 147,
    "▁Q": 148,
    "{": 149,
    "}": 150,
    "▁\\": 151,
    "स": 152,
    "े": 153,
    "व": 154,
    "क": 155,
    "ः": 156,
    "ग": 157,
    "ृ": 158,
    "ह": 159,
    "ा": 160,
    "र": 161,
    "्": 162,
    "य": 163,
    "उ": 164,
    "प": 165,
    "ो": 166,
    "त": 167,
    "ि": 168,
    "।": 169,
    "▁स": 170,
    "▁ग": 171,
    "▁उ": 172,
    "▁।": 173,
    "▁7": 174,
    "*": 175,
    "▁*": 176,
    "á": 177,
    "è": 178,
    "▁ः": 179,
    "@": 180,
    "▁@": 181,
    "▁:": 182,
    "भ": 183,
    "ी": 184,
    "ष": 185,
    "म": 186,
    "न": 187,
    "ू": 188,
    "ु": 189,
    "द": 190,
    "ध": 191,
    "ं": 192,
    "▁भ": 193,
    "▁य": 194,
    "▁क": 195,
    "_": 196,
    "=": 197,
    "▁=": 198,
    "▁x": 199,
    "…": 200,
    "▁9": 201,
    "%": 202,
    "▁%": 203,
    "<": 204,
    "▁!": 205,
    "▁,": 206,
    "8": 207,
    "▁4": 208,
    "अ": 209,
    "आ": 210,
    "श": 211,
    "ल": 212,
    "ठ": 213,
    "▁अ": 214,
    "▁आ": 215,
    "▁श": 216,
    "▁प": 217,
    "▁z": 218,
    "&": 219,
    "▁&": 220,
    "▁)": 221,
    "▁•": 222,
    "▁;": 223,
    "▁/": 224,
    "[": 225,
    "]": 226,
    "▁[": 227,
    "▁{": 228,
    "ब": 229,
    "▁ब": 230,
    "▁व": 231,
    "▁…": 232,
    "ट": 233,
    "ण": 234,
    "च": 235,
    "ज": 236,
    "थ": 237,
    "▁र": 238,
    "▁च": 239,
    "▁द": 240,
    "₂": 241,
    "₄": 242,
    "▁8": 243,
    "▁म": 244,
    "ञ": 245,
    "▁ज": 246,
    "#": 247,
    "फ": 248,
    "ख": 249,
    "▁_": 250,
    "ã": 251,
    "~": 252,
    "छ": 253,
    "$": 254,
    "ä": 255,
    "▁फ": 256,
    "▁#": 257,
    "▁न": 258,
    "Á": 259,
    "▁$": 260,
    "इ": 261,
    "▁इ": 262,
    "ऽ": 263,
    "▁त": 264,
    "▁ख": 265,
    "ü": 266,
    "â": 267,
    "▁<": 268,
    "›": 269,
    "▁›": 270,
    "°": 271,
    "î": 272,
    "Ä": 273,
    "▁Ä": 274,
    "▁~": 275,
    "^": 276,
    "▁छ": 277,
    "▁ल": 278,
    "ङ": 279,
    "▁ह": 280,
    "ï": 281,
    "▁Á": 282,
    "▁ध": 283,
    "▁}": 284,
    "μ": 285,
    "⅓": 286,
    "▁⅓": 287,
    "Š": 288,
    "−": 289,
    "Û": 290,
    "▁°": 291,
    "ड": 292,
    "ā": 293,
    "ī": 294,
    "`": 295,
    "▁Š": 296,
    "à": 297,
    "▁à": 298,
    "×": 299,
    "▁]": 300,
    "ै": 301,
    "¼": 302,
    "½": 303,
    "▁¼": 304,
    "ए": 305,
    "ढ": 306,
    "▁ए": 307,
    "▁ä": 308,
    "ñ": 309,
    "₹": 310,
    "ॄ": 311,
    "ौ": 312,
    "▁\"S": 313,
    "ave": 314,
    "▁it": 315,
    "▁with": 316,
    "▁Ctrl,": 317,
    ".\"": 318,
    "▁Teacher": 319,
    "▁will": 320,
    "▁teach": 321,
    "▁the": 322,
    "▁students": 323,
    "▁only": 324,
    "▁once": 325,
    "▁\"To": 326,
    "▁rec": 327,
    "reate": 328,
    "▁this": 329,
    "▁anim": 330,
    "ation,": 331,
    "▁have": 332,
    "▁to": 333,
    "▁take": 334,
    "▁two": 335,
    "▁images": 336,
    "▁out": 337,
    "▁of": 338,
    "▁st": 339,
    "ack": 340,
    "▁which": 341,
    "▁is": 342,
    "▁very": 343,
    "▁easy": 344,
    "▁choose": 345,
    "▁Col": 346,
    "ors": 347,
    "▁options": 348,
    "▁by": 349,
    "▁clicking": 350,
    "▁on": 351,
    "▁it.": 352,
    "▁\"\"\"S": 353,
    "ee": 354,
    "▁example": 355,
    "▁here": 356,
    "▁one": 357,
    "▁mount": 358,
    "ain,": 359,
    "▁four": 360,
    "▁vill": 361,
    "ag": 362,
    "es,": 363,
    "▁path": 364,
    "▁lead": 365,
    "ing": 366,
    "▁go": 367,
    "al": 368,
    "▁towards": 369,
    "▁fl": 370,
    ".\"\"\"": 371,
    "▁\"\"\"But": 372,
    "▁if": 373,
    "▁any": 374,
    "▁caus": 375,
    "ed": 376,
    "▁gri": 377,
    "ef": 378,
    "▁he": 379,
    "▁hath": 380,
    "▁not": 381,
    "ved": 382,
    "▁me,": 383,
    "▁but": 384,
    "▁in": 385,
    "▁part": 386,
    "▁that": 387,
    "▁may": 388,
    "▁over": 389,
    "ch": 390,
    "ar": 391,
    "ge": 392,
    "▁you": 393,
    "▁all": 394,
    "▁\"\"\"•": 395,
    "uck": 396,
    "es.": 397,
    "▁In": 398,
    "hal": 399,
    "ing,": 400,
    "▁raise": 401,
    "▁head": 402,
    "▁chest": 403,
    "▁abdomen": 404,
    "▁up": 405,
    "▁making": 406,
    "▁back": 407,
    "▁conc": 408,
    "▁and": 409,
    "▁parts": 410,
    "▁body": 411,
    "▁touching": 412,
    "▁ground": 413,
    "▁are": 414,
    "▁palms": 415,
    "es.\"\"\"": 416,
    "▁So": 417,
    "▁there": 418,
    "▁no": 419,
    "▁need": 420,
    "▁change": 421,
    "thing": 422,
    "▁here.": 423,
    "le": 424,
    "ment": 425,
    "▁can": 426,
    "▁be": 427,
    "▁number": 428,
    "▁or": 429,
    "▁str": 430,
    "ing.": 431,
    "▁Boy": 432,
    "▁displays": 433,
    "▁kindness": 434,
    "▁them.": 435,
    "▁key": 436,
    "▁features": 437,
    "▁demonstr": 438,
    "ated": 439,
    "▁Moodle": 440,
    "▁ser": 441,
    "ies.": 442,
    "▁\"There": 443,
    "▁wind": 444,
    "ows": 445,
    "▁here,": 446,
    "▁top": 447,
    "▁He": 448,
    "▁gets": 449,
    "▁comm": 450,
    "ission": 451,
    "▁prov": 452,
    "ision": 453,
    "▁what": 454,
    "▁they": 455,
    "▁se": 456,
    "ll": 457,
    "▁\"\"\"And": 458,
    "▁followed": 459,
    "▁another": 460,
    "▁angel": 461,
    "▁saying,": 462,
    "ab": 463,
    "on": 464,
    "▁fall": 465,
    "en,": 466,
    "▁great": 467,
    "▁city,": 468,
    "▁because": 469,
    "▁she": 470,
    "▁made": 471,
    "ations": 472,
    "▁drink": 473,
    "ine": 474,
    "▁wrath": 475,
    "▁her": 476,
    "▁for": 477,
    "nic": 478,
    "ation.\"\"\"": 479,
    "▁These": 480,
    "▁correspond": 481,
    "▁three": 482,
    "▁dist": 483,
    "in": 484,
    "ct": 485,
    "▁ph": 486,
    "ases": 487,
    "▁types": 488,
    "et": 489,
    "ting": 490,
    "▁through": 491,
    "ate": 492,
    "▁It": 493,
    "▁prepar": 494,
    "▁mix": 495,
    "▁some": 496,
    "bs": 497,
    "▁plants.": 498,
    "ther": 499,
    "wise": 500,
    "an": 501,
    "uman": 502,
    "▁le": 503,
    "ap": 504,
    "▁like": 505,
    "a.": 506,
    "▁Welcome": 507,
    "▁spoken": 508,
    "▁tutorial": 509,
    "▁Install": 510,
    "▁Eclipse": 511,
    "▁Linux": 512,
    "▁This": 513,
    "▁printf": 514,
    "▁print": 515,
    "▁new": 516,
    "line": 517,
    "▁character": 518,
    "▁at": 519,
    "▁end": 520,
    "▁each": 521,
    "ow": 522,
    "▁And": 523,
    "▁my": 524,
    "▁first": 525,
    "▁image.": 526,
    "▁We": 527,
    "▁get": 528,
    "▁output": 529,
    "▁as": 530,
    "▁expect": 531,
    "ed.": 532,
    "ange": 533,
    "▁allows": 534,
    "▁us": 535,
    "▁select": 536,
    "▁range": 537,
    "ages": 538,
    "▁we": 539,
    "▁want": 540,
    "▁comes": 541,
    "▁compon": 542,
    "ent": 543,
    "ale": 544,
    "te": 545,
    "▁pre": 546,
    "▁installed": 547,
    "▁Sw": 548,
    "s.": 549,
    "▁King": 550,
    "▁ex": 551,
    "pe": 552,
    "ls": 553,
    "▁evil": 554,
    "▁servant": 555,
    "▁fondness": 556,
    "▁this.": 557,
    "▁You": 558,
    "▁use": 559,
    "▁web": 560,
    "▁browser": 561,
    "▁your": 562,
    "▁cho": 563,
    "ice.": 564,
    "▁\"\"\"Then": 565,
    "▁return": 566,
    "▁unto": 567,
    "▁Jerusalem": 568,
    "▁from": 569,
    "▁called": 570,
    "iv": 571,
    "▁sabbath": 572,
    "▁day": 573,
    "'s": 574,
    "our": 575,
    "ne": 576,
    "y.\"\"\"": 577,
    "▁ro": 578,
    "ad": 579,
    "▁Al": 580,
    "ign": 581,
    "ribute": 582,
    "▁various": 583,
    "▁objects": 584,
    "▁respect": 585,
    "▁that.": 586,
    "▁Sal": 587,
    "ute": 588,
    "es": 589,
    "▁app": 590,
    "ro": 591,
    "▁Christ": 592,
    "▁them": 593,
    "rist": 594,
    "ob": 595,
    "ul": 596,
    "us": 597,
    "▁house": 598,
    "hold": 599,
    "▁shows": 600,
    "▁affection": 601,
    "er.": 602,
    "▁\"For": 603,
    "▁relevant": 604,
    "▁tutorials,": 605,
    "▁please": 606,
    "▁visit": 607,
    "▁our": 608,
    "▁website": 609,
    "▁shown": 610,
    "▁http://spoken-tutorial.org": 611,
    "▁now": 612,
    "▁desire": 613,
    "▁better": 614,
    "▁country": 615,
    "▁is,": 616,
    "▁an": 617,
    "▁heaven": 618,
    "ly": 619,
    "▁where": 620,
    "fore": 621,
    "▁God": 622,
    "am": 623,
    "▁their": 624,
    "▁God:": 625,
    "▁city": 626,
    "▁Let": 627,
    "▁me": 628,
    "▁show": 629,
    "▁sc": 630,
    "ra": 631,
    "▁layer": 632,
    "▁\"\"\"Among": 633,
    "▁joy": 634,
    "s,": 635,
    "▁wor": 636,
    "st": 637,
    "▁night": 638,
    "ister": 639,
    "ress": 640,
    "▁qu": 641,
    "re": 642,
    "▁between": 643,
    "▁br": 644,
    "oth": 645,
    "ers.": 646,
    "▁On": 647,
    "ce": 648,
    "▁again": 649,
    "▁click": 650,
    "ite": 651,
    "▁administr": 652,
    "ation": 653,
    "▁left": 654,
    "▁panel": 655,
    "▁many": 656,
    "▁Jews": 657,
    "▁came": 658,
    "▁Mary": 659,
    "▁had": 660,
    "▁seen": 661,
    "▁things": 662,
    "▁Jesus": 663,
    "▁did": 664,
    "▁believed": 665,
    "▁him.\"\"\"": 666,
    "▁Wh": 667,
    "ver": 668,
    "▁useful": 669,
    "▁hum": 670,
    "ans": 671,
    "▁resource": 672,
    "▁has": 673,
    "▁all.": 674,
    "ur": 675,
    "ic": 676,
    "▁time": 677,
    "▁test": 678,
    "▁health": 679,
    "▁other": 680,
    "▁benef": 681,
    "it": 682,
    "▁his": 683,
    "▁feet": 684,
    "as": 685,
    "▁burn": 686,
    "urn": 687,
    "ace": 688,
    "▁voice": 689,
    "▁sound": 690,
    "▁wat": 691,
    "ers": 692,
    "▁\"\"\"Now": 693,
    "▁when": 694,
    "▁were": 695,
    "▁behold,": 696,
    "▁watch": 697,
    "▁into": 698,
    "▁shew": 699,
    "▁chief": 700,
    "▁priests": 701,
    "▁done": 702,
    "▁start": 703,
    "▁record": 704,
    "▁window": 705,
    "▁open": 706,
    "▁download": 707,
    "▁pr": 708,
    "og": 709,
    "▁package": 710,
    "▁selected": 711,
    "▁install": 712,
    "ation.": 713,
    "▁see": 714,
    "▁happen": 715,
    "▁Click": 716,
    "▁Save.": 717,
    "▁Let's": 718,
    "▁St": 719,
    "oke": 720,
    "▁paint": 721,
    "▁tab.": 722,
    "▁color": 723,
    "▁moving": 724,
    "▁slid": 725,
    "▁under": 726,
    "ot": 727,
    "▁air": 728,
    "▁used": 729,
    "▁med": 730,
    "ium": 731,
    "▁cooking": 732,
    "▁3.": 733,
    "▁What": 734,
    "▁Sthiti": 735,
    "itial": 736,
    "▁Pr": 737,
    "one": 738,
    "▁Post": 739,
    "ure": 740,
    "▁resp": 741,
    "se": 742,
    "▁object": 743,
    "▁send": 744,
    "▁HTML": 745,
    "▁cl": 746,
    "ient": 747,
    "▁side.": 748,
    "▁drag": 749,
    "▁draw": 750,
    "▁bo": 751,
    "at": 752,
    "▁con": 753,
    "form": 754,
    "er": 755,
    "lo": 756,
    "ex": 757,
    "ane": 758,
    "▁Panel": 759,
    "▁Here": 760,
    "▁also": 761,
    "▁switch": 762,
    "atur": 763,
    "▁The": 764,
    "▁command": 765,
    "▁gives": 766,
    "▁report": 767,
    "▁free": 768,
    "▁space": 769,
    "▁available": 770,
    "▁dis": 771,
    "▁\"Now,": 772,
    "▁let": 773,
    "▁try": 774,
    "▁short": 775,
    "-c": 776,
    "ut": 777,
    "▁Ex": 778,
    "▁i.e.": 779,
    "▁Ctrl": 780,
    "▁application": 781,
    "▁\"\"\"B": 782,
    "eh": 783,
    "old,": 784,
    "▁cometh": 785,
    "▁cloud": 786,
    "s;": 787,
    "▁every": 788,
    "▁eye": 789,
    "▁shall": 790,
    "▁him,": 791,
    "▁pi": 792,
    "erc": 793,
    "▁him:": 794,
    "▁kind": 795,
    "red": 796,
    "▁earth": 797,
    "ail": 798,
    "▁him.": 799,
    "ven": 800,
    "▁so,": 801,
    "▁Amen": 802,
    "▁\"A": 803,
    "ach": 804,
    "e,": 805,
    "▁MySQL": 806,
    "▁obtained": 807,
    "▁XAMPP": 808,
    "▁5.": 809,
    ".1": 810,
    "▁view": 811,
    "▁sun": 812,
    "is": 813,
    "e.": 814,
    "▁extract": 815,
    "▁fr": 816,
    "▁beginning": 817,
    "▁sequence": 818,
    "th": 819,
    "▁base": 820,
    "▁\"In": 821,
    "▁tutorial,": 822,
    "▁learnt": 823,
    "▁about": 824,
    "▁Typ": 825,
    "▁interface": 826,
    "▁completed": 827,
    "▁typing": 828,
    "▁lesson": 829,
    "▁GIMP": 830,
    "▁\"\"\"There": 831,
    "▁together": 832,
    "▁Simon": 833,
    "▁Pet": 834,
    "er,": 835,
    "▁Th": 836,
    "om": 837,
    "id": 838,
    "us,": 839,
    "ath": 840,
    "ana": 841,
    "el": 842,
    "▁Galile": 843,
    "▁sons": 844,
    "bed": 845,
    "▁discipl": 846,
    "ruct": 847,
    "▁Java": 848,
    "▁Class": 849,
    "▁class": 850,
    "▁def": 851,
    "ines": 852,
    "▁Is": 853,
    "▁word": 854,
    "ry": 855,
    "▁alphabet": 856,
    "ical": 857,
    "▁order": 858,
    "▁way": 859,
    "▁Place": 860,
    "▁cursor": 861,
    "▁last": 862,
    "▁line": 863,
    "▁press": 864,
    "▁Enter.": 865,
    "▁Then": 866,
    "▁type": 867,
    "▁follow": 868,
    "▁They": 869,
    "▁six": 870,
    "▁leg": 871,
    "ost": 872,
    "cts": 873,
    "ings": 874,
    "▁help": 875,
    "ly.": 876,
    "▁pop": 877,
    "up": 878,
    "▁message": 879,
    "▁root": 880,
    "▁directory": 881,
    "pp": 882,
    "ht": 883,
    "oc": 884,
    "enc": 885,
    "il": 886,
    "▁shar": 887,
    "▁ed": 888,
    "ges": 889,
    "▁brush": 890,
    "▁sm": 891,
    "th.": 892,
    "▁pass,": 893,
    "▁went": 894,
    "▁Pharisees": 895,
    "▁eat": 896,
    "▁bread": 897,
    "▁day,": 898,
    "▁\"\"\"For": 899,
    "▁past": 900,
    "▁life": 901,
    "▁su": 902,
    "ff": 903,
    "ice": 904,
    "rou": 905,
    "ght": 906,
    "▁Gent": 907,
    "▁walked": 908,
    "ious": 909,
    "ness,": 910,
    "▁lust": 911,
    "cess": 912,
    "ine,": 913,
    "▁reve": 914,
    "qu": 915,
    "▁ab": 916,
    "able": 917,
    "▁id": 918,
    "ol": 919,
    "ries": 920,
    ":\"\"\"": 921,
    "▁Close": 922,
    "▁previous": 923,
    "▁opened": 924,
    "▁window.": 925,
    "▁ver": 926,
    "ac": 927,
    "ular": 928,
    "▁langu": 929,
    "ages.": 930,
    "▁am": 931,
    "▁devote": 932,
    "▁Im": 933,
    "▁sit": 934,
    "▁\"\"\"A": 935,
    "▁sent": 936,
    "▁forth": 937,
    "ell": 938,
    "idd": 939,
    "▁Beh": 940,
    "ner": 941,
    "en": 942,
    "▁kill": 943,
    "ed,": 944,
    "▁ready": 945,
    "▁come": 946,
    "▁mar": 947,
    "ri": 948,
    "age": 949,
    "sert": 950,
    "▁text": 951,
    "▁these": 952,
    "▁section": 953,
    "s.\"": 954,
    "▁reg": 955,
    "▁program.": 956,
    "▁\"\"\"After": 957,
    "▁time,": 958,
    "▁should": 959,
    "▁stop": 960,
    "▁music": 961,
    "▁\"Next,": 962,
    "▁Save": 963,
    "▁button": 964,
    "▁bottom": 965,
    "▁page.\"": 966,
    "▁hands": 967,
    "ang": 968,
    "▁relax": 969,
    "▁normal": 970,
    "▁breathing": 971,
    "▁Press": 972,
    "▁copy": 973,
    "▁give": 974,
    "ass": 975,
    "ha": 976,
    "ir": 977,
    "▁war": 978,
    "▁oil": 979,
    "▁\"\"\"M": 980,
    "ich": 981,
    "▁re": 982,
    "su": 983,
    "▁him": 984,
    "av": 985,
    "▁proper": 986,
    "▁enter": 987,
    "ility": 988,
    "▁mighty": 989,
    "▁power": 990,
    "ful": 991,
    "▁Rama": 992,
    "▁\"\"\"E": 993,
    "▁so": 994,
    "▁children,": 995,
    "▁bond": 996,
    "▁elements": 997,
    "▁world": 998,
    "▁Your": 999,
    "▁assignment": 1000,
    "▁look": 1001,
    "▁Sy": 1002,
    "ron": 1003,
    "ization": 1004,
    "▁inhal": 1005,
    "▁exhal": 1006,
    "▁movement": 1007,
    "▁joint": 1008,
    "ear": 1009,
    "▁sub": 1010,
    "ateg": 1011,
    "ory": 1012,
    "▁courses": 1013,
    "▁Type": 1014,
    "▁System": 1015,
    "out": 1016,
    "print": 1017,
    "ln": 1018,
    "▁within": 1019,
    "▁brackets": 1020,
    "▁double": 1021,
    "▁quotes": 1022,
    "dd": 1023,
    "▁semicolon": 1024,
    "ik": 1025,
    "▁writ": 1026,
    "▁Ram": 1027,
    "ay": 1028,
    "▁Sanskrit": 1029,
    "age.": 1030,
    "▁labour": 1031,
    "▁working": 1032,
    "▁own": 1033,
    "▁being": 1034,
    "▁rev": 1035,
    "▁bless": 1036,
    "▁perse": 1037,
    "cut": 1038,
    "▁suffer": 1039,
    "▁understand": 1040,
    "▁might": 1041,
    "▁script": 1042,
    "\"\"\"": 1043,
    "▁execut": 1044,
    "▁inc": 1045,
    "▁(d": 1046,
    "▁slash": 1047,
    ").": 1048,
    "▁Enter.\"": 1049,
    "▁\"And,": 1050,
    "▁drop-down": 1051,
    "▁right": 1052,
    "uthor": 1053,
    "\".\"": 1054,
    "▁required": 1055,
    "▁te": 1056,
    "▁file": 1057,
    "ator": 1058,
    "▁priv": 1059,
    "ile": 1060,
    "ep": 1061,
    "▁hear": 1062,
    "▁voice,": 1063,
    "▁know": 1064,
    "▁them,": 1065,
    "▁\"\"\"C": 1066,
    "oud": 1067,
    "▁source": 1068,
    "▁water,": 1069,
    "▁who": 1070,
    "▁this,": 1071,
    "ec": 1072,
    "omes": 1073,
    "▁establ": 1074,
    "ished": 1075,
    "▁himself,": 1076,
    "▁Water": 1077,
    "▁himself": 1078,
    "gn": 1079,
    "ip": 1080,
    "ana,": 1081,
    "ud": 1082,
    "▁Vish": 1083,
    "har": 1084,
    "att": 1085,
    "ara": 1086,
    "▁pur": 1087,
    "▁speak": 1088,
    "▁diseases": 1089,
    "▁cows": 1090,
    "reat": 1091,
    "▁2.": 1092,
    "▁How": 1093,
    "eter": 1094,
    "ents": 1095,
    "▁harm": 1096,
    "▁environment": 1097,
    "areth": 1098,
    "▁say": 1099,
    "▁min": 1100,
    "▁doeth": 1101,
    "▁not,": 1102,
    "▁lik": 1103,
    "ened": 1104,
    "▁fool": 1105,
    "ish": 1106,
    "▁man,": 1107,
    "▁built": 1108,
    "▁upon": 1109,
    "and": 1110,
    "▁icon": 1111,
    "▁supp": 1112,
    "os": 1113,
    "▁been": 1114,
    "▁comp": 1115,
    "y,": 1116,
    "▁sought": 1117,
    "▁among": 1118,
    "ins": 1119,
    "olk": 1120,
    "▁ac": 1121,
    "aint": 1122,
    "ance": 1123,
    "▁\"\"\"As": 1124,
    "▁practices": 1125,
    "▁Hatha": 1126,
    "▁yoga": 1127,
    "▁techniqu": 1128,
    "▁physical": 1129,
    "▁pot": 1130,
    "ential": 1131,
    "▁begin": 1132,
    "▁increase": 1133,
    "▁un": 1134,
    "old": 1135,
    "▁after": 1136,
    "▁while": 1137,
    "▁stood": 1138,
    "▁said": 1139,
    "▁thou": 1140,
    "▁art": 1141,
    "▁thy": 1142,
    "▁spe": 1143,
    "ech": 1144,
    "ray": 1145,
    "eth": 1146,
    "▁thee.\"\"\"": 1147,
    "ode": 1148,
    "▁access": 1149,
    "ion": 1150,
    "00": 1151,
    "01": 1152,
    "▁item": 1153,
    "▁was": 1154,
    "▁check": 1155,
    "▁earli": 1156,
    "▁thought": 1157,
    "atter": 1158,
    "▁fields": 1159,
    "▁shown.": 1160,
    "▁login": 1161,
    "▁student": 1162,
    "riya": 1163,
    "▁then": 1164,
    "▁how": 1165,
    "um": 1166,
    "▁\"C": 1167,
    "▁Sup": 1168,
    "ibrari": 1169,
    "an,": 1170,
    "▁Give": 1171,
    "▁particular": 1172,
    "odu": 1173,
    "▁Pre": 1174,
    "view": 1175,
    "▁quiz": 1176,
    "▁menu": 1177,
    "▁right.": 1178,
    "▁using:": 1179,
    "▁Ubuntu": 1180,
    "▁11.10": 1181,
    "DK": 1182,
    "▁1.": 1183,
    "▁Select": 1184,
    "▁Create": 1185,
    "cl": 1186,
    "ses": 1187,
    "▁tool": 1188,
    "▁Tool": 1189,
    "▁box.": 1190,
    "▁\"\"\"Let": 1191,
    "▁wid": 1192,
    "▁taken": 1193,
    "▁th": 1194,
    "core": 1195,
    "▁years": 1196,
    "▁old": 1197,
    "▁having": 1198,
    "▁wife": 1199,
    "▁man": 1200,
    ",\"\"\"": 1201,
    "▁FrontAccounting": 1202,
    "4.": 1203,
    "▁Child": 1204,
    "▁exh": 1205,
    "ib": 1206,
    "its": 1207,
    "▁trust": 1208,
    "▁you.": 1209,
    "rit": 1210,
    "▁saved": 1211,
    "au": 1212,
    "gh": 1213,
    "ue": 1214,
    "▁pres": 1215,
    "ence": 1216,
    "▁nutri": 1217,
    "▁protect": 1218,
    "ive": 1219,
    "ound": 1220,
    "▁food": 1221,
    "▁perform": 1222,
    "▁following": 1223,
    "▁functions": 1224,
    "upp": 1225,
    "ose,": 1226,
    "over": 1227,
    "▁original": 1228,
    "▁indic": 1229,
    "▁already": 1230,
    "▁created": 1231,
    "▁array": 1232,
    "▁do": 1233,
    "?\"": 1234,
    "▁Change": 1235,
    "▁search": 1236,
    "▁eng": 1237,
    "'.": 1238,
    "ON": 1239,
    "▁save": 1240,
    "▁Inter": 1241,
    "nal": 1242,
    "▁menu.": 1243,
    "▁Now": 1244,
    "▁Enter": 1245,
    "▁wa": 1246,
    "▁input": 1247,
    "▁ye": 1248,
    "▁call": 1249,
    "▁brethren,": 1250,
    "▁wise": 1251,
    "▁men": 1252,
    "▁flesh,": 1253,
    "ble": 1254,
    "tt": 1255,
    "o:": 1256,
    "▁One": 1257,
    "▁takes": 1258,
    "▁beings": 1259,
    "▁sh": 1260,
    "ore": 1261,
    "▁Sam": 1262,
    "▁\"\"\"L": 1263,
    "ike": 1264,
    "▁days": 1265,
    "▁dr": 1266,
    "ank": 1267,
    "ought": 1268,
    "▁plant": 1269,
    "▁build": 1270,
    ";\"\"\"": 1271,
    "▁Shift": 1272,
    "▁whole": 1273,
    "▁image": 1274,
    "▁act": 1275,
    "▁option.": 1276,
    "▁means": 1277,
    "iqu": 1278,
    "▁valu": 1279,
    "▁\"\"\"P": 1280,
    "arv": 1281,
    "ati": 1282,
    "est": 1283,
    "▁method": 1284,
    "▁thousand": 1285,
    "▁names": 1286,
    "▁Vishnu": 1287,
    "▁daily": 1288,
    "ited": 1289,
    "▁learn": 1290,
    "▁men,": 1291,
    "▁Lord": 1292,
    "a.\"\"\"": 1293,
    "▁direct": 1294,
    "▁page": 1295,
    "▁title": 1296,
    "▁Course": 1297,
    "▁category": 1298,
    "ment.": 1299,
    "▁course": 1300,
    "▁Father": 1301,
    "▁shape": 1302,
    "▁de": 1303,
    "▁helps": 1304,
    "▁even": 1305,
    "▁looks": 1306,
    "▁screen.": 1307,
    "▁First": 1308,
    "▁public": 1309,
    "▁date": 1310,
    "201": 1311,
    "▁details": 1312,
    "▁later": 1313,
    "▁tutorial.": 1314,
    "roy": 1315,
    "▁items": 1316,
    "▁destroy": 1317,
    "acter": 1318,
    "▁element": 1319,
    "▁bas": 1320,
    "ject": 1321,
    "▁considered": 1322,
    "▁live": 1323,
    "▁Those": 1324,
    "▁mo": 1325,
    "▁\"Spoken": 1326,
    "▁Tutorial": 1327,
    "▁Project": 1328,
    "▁fund": 1329,
    "▁NMEICT": 1330,
    "▁MHRD,": 1331,
    "▁Government": 1332,
    "▁India.": 1333,
    "▁More": 1334,
    "▁information": 1335,
    "▁mission": 1336,
    "▁link.\"": 1337,
    "ives": 1338,
    "▁certificates": 1339,
    "▁those": 1340,
    "▁pass": 1341,
    "▁online": 1342,
    "▁test.": 1343,
    "▁Internet": 1344,
    "▁conn": 1345,
    "ection": 1346,
    "▁about:": 1347,
    "▁Re": 1348,
    "fer": 1349,
    "ari": 1350,
    "ables": 1351,
    "▁Con": 1352,
    "em": 1353,
    "▁All": 1354,
    "▁able": 1355,
    "ock": 1356,
    "art": 1357,
    "a,": 1358,
    "▁god": 1359,
    "▁pict": 1360,
    "ures": 1361,
    "▁per": 1362,
    "▁mag": 1363,
    "ific": 1364,
    "▁pe": 1365,
    "▁\"\"\"They": 1366,
    "▁often": 1367,
    "▁ho": 1368,
    "o,": 1369,
    "▁ha": 1370,
    "ah": 1371,
    "▁etc.": 1372,
    "ring": 1373,
    "▁animal": 1374,
    "al,": 1375,
    "▁ch": 1376,
    "▁bird": 1377,
    "▁trees": 1378,
    "▁water": 1379,
    "pl": 1380,
    "▁remember": 1381,
    "▁whom": 1382,
    "▁basic": 1383,
    "▁breath": 1384,
    "▁performed": 1385,
    "ose": 1386,
    "▁mou": 1387,
    "▁After": 1388,
    "▁read": 1389,
    "▁to:": 1390,
    "▁\"It": 1391,
    "▁ach": 1392,
    "ie": 1393,
    "▁al": 1394,
    "ert": 1395,
    "ground": 1396,
    "▁equ": 1397,
    "als": 1398,
    "▁blue": 1399,
    "',": 1400,
    "RL": 1401,
    "ese": 1402,
    "lect": 1403,
    "▁struct": 1404,
    "ure.": 1405,
    "▁Sub": 1406,
    "mit": 1407,
    "▁sugg": 1408,
    "estion": 1409,
    "▁page.": 1410,
    "▁does": 1411,
    "▁An": 1412,
    "ya": 1413,
    "▁Su": 1414,
    "▁dec": 1415,
    "im": 1416,
    "▁plac": 1417,
    "imp": 1418,
    "▁just": 1419,
    "▁To": 1420,
    "aintain": 1421,
    "▁members": 1422,
    "▁cent": 1423,
    "ized": 1424,
    "▁server": 1425,
    "▁\"Inside": 1426,
    "let": 1427,
    "▁tag": 1428,
    "▁User": 1429,
    "read": 1430,
    "▁related": 1431,
    "▁components": 1432,
    "▁nature": 1433,
    "▁condition": 1434,
    "▁tru": 1435,
    "▁Ag": 1436,
    "ain": 1437,
    "▁add": 1438,
    "CT": 1439,
    "▁\"D": 1440,
    "play": 1441,
    "▁settings": 1442,
    "▁upd": 1443,
    "\".": 1444,
    "▁\"You": 1445,
    "▁tab": 1446,
    "▁different": 1447,
    "▁friendship": 1448,
    "▁data": 1449,
    "-t": 1450,
    "ype": 1451,
    "▁saith": 1452,
    "igh": 1453,
    "▁thee,": 1454,
    "th,": 1455,
    "▁heart": 1456,
    "▁faith,": 1457,
    "▁preach": 1458,
    "▁Mah": 1459,
    "▁Pat": 1460,
    "anj": 1461,
    "ali": 1462,
    "▁av": 1463,
    "arn": 1464,
    "▁Ad": 1465,
    "The": 1466,
    "▁Ser": 1467,
    "▁rest": 1468,
    "ou": 1469,
    "▁lay": 1470,
    "▁name": 1471,
    "▁Sk": 1472,
    "▁pressing": 1473,
    "▁similar": 1474,
    "▁disciples": 1475,
    "oint": 1476,
    "▁pas": 1477,
    "so": 1478,
    "▁\"\"\"H": 1479,
    "own": 1480,
    "ek": 1481,
    "▁closing": 1482,
    "▁angle": 1483,
    "▁>>": 1484,
    "▁As": 1485,
    "▁function": 1486,
    "▁C++.": 1487,
    "▁database": 1488,
    "▁people": 1489,
    "▁instead": 1490,
    "▁permission": 1491,
    "ere": 1492,
    "▁Sun": 1493,
    "▁Prop": 1494,
    "▁comb": 1495,
    "ination": 1496,
    "▁hy": 1497,
    "drogen": 1498,
    "▁oxygen": 1499,
    "rom": 1500,
    "▁point": 1501,
    "▁above": 1502,
    "the": 1503,
    "▁indicates": 1504,
    "li": 1505,
    "▁typ": 1506,
    "▁password": 1507,
    "▁terminal": 1508,
    "▁visible": 1509,
    "▁From": 1510,
    "▁20": 1511,
    "▁shlok": 1512,
    "▁till": 1513,
    "▁ten": 1514,
    "apter": 1515,
    "aj": 1516,
    "▁mention": 1517,
    "▁doing": 1518,
    "▁worship": 1519,
    "ask": 1520,
    "arch": 1521,
    "ary": 1522,
    "cul": 1523,
    "▁acc": 1524,
    "▁year": 1525,
    "to": 1526,
    "▁complete": 1527,
    "olution": 1528,
    "▁INTEXT": 1529,
    "▁QUESTIONS": 1530,
    "▁Comp": 1531,
    "any": 1532,
    "▁address": 1533,
    ",\"": 1534,
    "▁sitting": 1535,
    "▁side": 1536,
    "▁same": 1537,
    "▁tre": 1538,
    "▁Pract": 1539,
    "ices": 1540,
    "ize": 1541,
    "▁make": 1542,
    "if": 1543,
    "orm": 1544,
    "▁continu": 1545,
    "ous": 1546,
    "hy": 1547,
    "mic": 1548,
    "▁align": 1549,
    "▁using": 1550,
    "use": 1551,
    "ackage": 1552,
    "▁Sh": 1553,
    "ouch": 1554,
    "▁prompt": 1555,
    "▁before": 1556,
    "cho": 1557,
    "▁minus": 1558,
    "▁single": 1559,
    "ote": 1560,
    "back": 1561,
    "lash": 1562,
    "▁devil": 1563,
    "▁glory": 1564,
    "▁them:": 1565,
    "▁delivered": 1566,
    "soever": 1567,
    "▁it.\"\"\"": 1568,
    "▁\"Th": 1569,
    "ird": 1570,
    "▁join": 1571,
    "▁more": 1572,
    "ons": 1573,
    "▁operator": 1574,
    "▁turn": 1575,
    "▁gave": 1576,
    "▁written": 1577,
    "▁book": 1578,
    "▁prophet": 1579,
    "▁Israel": 1580,
    "▁offer": 1581,
    "▁sl": 1582,
    "▁beast": 1583,
    "▁sacrific": 1584,
    "▁wild": 1585,
    "ness": 1586,
    "?\"\"\"": 1587,
    "▁\"This": 1588,
    "▁reduce": 1589,
    "ter": 1590,
    "▁With": 1591,
    "▁less": 1592,
    "▁discuss": 1593,
    "▁inst": 1594,
    "ruction": 1595,
    "aterial": 1596,
    "▁bar,": 1597,
    "min": 1598,
    "▁Terminal": 1599,
    "▁it.\"": 1600,
    "▁close": 1601,
    "aces": 1602,
    "▁Which": 1603,
    "und": 1604,
    "ant": 1605,
    "avi": 1606,
    "▁heard": 1607,
    "▁it,": 1608,
    "▁took": 1609,
    "▁cor": 1610,
    "▁laid": 1611,
    "mb": 1612,
    "▁shalt": 1613,
    "▁gl": 1614,
    "▁rejo": 1615,
    "▁bir": 1616,
    "▁set": 1617,
    "▁written,": 1618,
    "HE": 1619,
    "IN": 1620,
    "▁OF": 1621,
    "▁\"T": 1622,
    "cc": 1623,
    "alk": 1624,
    ".c": 1625,
    "▁hyphen": 1626,
    "put": 1627,
    "▁Mission": 1628,
    "OT": 1629,
    "▁org": 1630,
    "AS": 1631,
    "▁Int": 1632,
    "▁sur": 1633,
    "face": 1634,
    "▁repres": 1635,
    "▁molec": 1636,
    "ule": 1637,
    "▁inter": 1638,
    "act": 1639,
    "▁molecul": 1640,
    "▁one,": 1641,
    "▁memb": 1642,
    "ers,": 1643,
    "▁body,": 1644,
    "▁Christ.\"\"\"": 1645,
    "र्": 1646,
    "ति": 1647,
    "▁\"R": 1648,
    "ename": 1649,
    "▁document": 1650,
    "▁opens.": 1651,
    "▁benefits": 1652,
    "ution": 1653,
    "▁Sur": 1654,
    "▁Nam": 1655,
    "▁lesson,": 1656,
    "ah:": 1657,
    "ants": 1658,
    "ama": 1659,
    "ana.": 1660,
    "▁\"Here,": 1661,
    "▁type:": 1662,
    "▁\"E": 1663,
    "very": 1664,
    "▁selection": 1665,
    "▁area": 1666,
    "uff": 1667,
    "ed.\"": 1668,
    "▁cover": 1669,
    "▁entire": 1670,
    "▁thread": 1671,
    "▁fast": 1672,
    "▁loop": 1673,
    "s.\"\"\"": 1674,
    "▁Bhag": 1675,
    "▁declared": 1676,
    "▁yog": 1677,
    "▁\"I": 1678,
    "▁create": 1679,
    "▁foll": 1680,
    "▁value": 1681,
    "▁'n": 1682,
    "ub": 1683,
    "▁\"P": 1684,
    "▁mouse": 1685,
    "▁activ": 1686,
    "ates": 1687,
    "▁non-": 1688,
    "ard": 1689,
    "▁action": 1690,
    "▁off": 1691,
    "ove": 1692,
    "▁allow": 1693,
    "▁milk": 1694,
    "▁co": 1695,
    "▁Firefox": 1696,
    "▁version": 1697,
    ".0": 1698,
    "▁10": 1699,
    ".04": 1700,
    "▁variable": 1701,
    "▁user": 1702,
    "▁request": 1703,
    "▁method.": 1704,
    "▁Have": 1705,
    "amb": 1706,
    "▁support": 1707,
    "▁universe": 1708,
    "▁its": 1709,
    "str": 1710,
    "▁\"The": 1711,
    "▁empty": 1712,
    "▁files": 1713,
    "▁named": 1714,
    "ity": 1715,
    "One": 1716,
    "▁born": 1717,
    "iti": 1718,
    "▁His": 1719,
    "▁Be": 1720,
    "ier": 1721,
    "▁line.": 1722,
    "▁Keep": 1723,
    "▁elb": 1724,
    "▁spread": 1725,
    "▁out.": 1726,
    "▁Do": 1727,
    "uments": 1728,
    "▁fold": 1729,
    "▁Open": 1730,
    "▁than": 1731,
    "▁cons": 1732,
    "y.": 1733,
    "▁curve": 1734,
    "owever,": 1735,
    "ric": 1736,
    "▁sty": 1737,
    "op": 1738,
    "▁law": 1739,
    "▁Mos": 1740,
    "▁Thou": 1741,
    "▁mouth": 1742,
    "▁corn": 1743,
    "▁care": 1744,
    "▁En": 1745,
    "rol": 1746,
    "▁users": 1747,
    "▁Yoga": 1748,
    "ve": 1749,
    "▁integ": 1750,
    "▁manner": 1751,
    "▁tem": 1752,
    "or": 1753,
    "ever": 1754,
    "▁deep": 1755,
    "▁en": 1756,
    "▁blood": 1757,
    "▁move": 1758,
    "▁rectangle": 1759,
    "▁tool.": 1760,
    "▁categ": 1761,
    "ories": 1762,
    "▁gu": 1763,
    "idel": 1764,
    "▁account": 1765,
    "▁multiple": 1766,
    "▁cour": 1767,
    "anam": 1768,
    "▁most": 1769,
    "▁important": 1770,
    "▁fact": 1771,
    "▁generation": 1772,
    "IT": 1773,
    "AT": 1774,
    "ME": 1775,
    "NT": 1776,
    "▁cow": 1777,
    "▁place": 1778,
    "▁resting": 1779,
    "ANA": 1780,
    "▁Maintain": 1781,
    "▁minute": 1782,
    "▁breathing.": 1783,
    "▁\"\"\"When": 1784,
    "▁strong": 1785,
    "▁arm": 1786,
    "▁ke": 1787,
    "▁pal": 1788,
    "ace,": 1789,
    "▁good": 1790,
    "▁peace": 1791,
    "▁run": 1792,
    "▁Manager": 1793,
    "▁work": 1794,
    "▁\"\"\"St": 1795,
    "▁therefore": 1796,
    "▁lib": 1797,
    "with": 1798,
    "▁fre": 1799,
    "▁ent": 1800,
    "led": 1801,
    "▁face": 1802,
    "▁Relax": 1803,
    "▁fac": 1804,
    "ial": 1805,
    "▁muscl": 1806,
    "pr": 1807,
    "ame": 1808,
    "▁meas": 1809,
    "▁accept": 1810,
    "▁knowledge": 1811,
    "ense": 1812,
    "▁perce": 1813,
    "ption": 1814,
    "▁etc.\"\"\"": 1815,
    "▁Go": 1816,
    "▁tell": 1817,
    "▁fo": 1818,
    "▁cast": 1819,
    "▁cur": 1820,
    "ow,": 1821,
    "▁third": 1822,
    "▁perfect": 1823,
    "ed.\"\"\"": 1824,
    "▁Please": 1825,
    "▁note": 1826,
    "▁C++": 1827,
    "▁extension": 1828,
    "▁\"\"\"It": 1829,
    "udd": 1830,
    "hi": 1831,
    "▁Pran": 1832,
    "ayam": 1833,
    "▁\"\"\"Therefore": 1834,
    "▁don't": 1835,
    "▁think": 1836,
    "▁result": 1837,
    "▁editor.": 1838,
    "ark": 1839,
    "▁\"W": 1840,
    "atch": 1841,
    "▁video": 1842,
    "▁link": 1843,
    "▁bel": 1844,
    "▁require": 1845,
    "▁statement": 1846,
    "▁statements": 1847,
    "▁She": 1848,
    "rew": 1849,
    "all": 1850,
    "▁sp": 1851,
    "▁wall": 1852,
    "sw": 1853,
    "ick": 1854,
    "▁Why": 1855,
    "▁ang": 1856,
    "ala": 1857,
    "▁\"\"\"Th": 1858,
    "per": 1859,
    "ature": 1860,
    "▁cont": 1861,
    "roll": 1862,
    "▁cook": 1863,
    "▁bur": 1864,
    "nt": 1865,
    "▁multitude": 1866,
    "▁ar": 1867,
    "▁Pilate": 1868,
    "ush": 1869,
    "ater": 1870,
    "▁grand": 1871,
    "ather": 1872,
    "ak": 1873,
    "ving": 1874,
    "▁hor": 1875,
    "ition": 1876,
    "▁sort": 1877,
    "▁marks": 1878,
    "▁string": 1879,
    "▁form": 1880,
    "▁sk": 1881,
    "▁\"\"\"O": 1882,
    "▁tim": 1883,
    "▁morn": 1884,
    "▁best": 1885,
    "▁exerc": 1886,
    "▁Koha": 1887,
    "▁16": 1888,
    "▁cre": 1889,
    "▁Bu": 1890,
    "ild": 1891,
    "▁applic": 1892,
    "▁\"Next": 1893,
    "▁line,": 1894,
    "▁else": 1895,
    "▁There": 1896,
    "▁port": 1897,
    "▁connect": 1898,
    "▁project": 1899,
    "▁la": 1900,
    "pt": 1901,
    "▁author": 1902,
    "erg": 1903,
    "ern": 1904,
    "erv": 1905,
    "▁Come": 1906,
    "▁declare": 1907,
    "▁again.": 1908,
    "▁\"\"\"J": 1909,
    "ohn": 1910,
    "are": 1911,
    "▁witness": 1912,
    "ake,": 1913,
    "▁prefer": 1914,
    "▁me:": 1915,
    "▁me.\"\"\"": 1916,
    "▁Sales": 1917,
    "▁box": 1918,
    "umb": 1919,
    "▁produ": 1920,
    "▁stem": 1921,
    "▁leaves": 1922,
    "light": 1923,
    "▁dra": 1924,
    "gg": 1925,
    "▁certain": 1926,
    "▁position.": 1927,
    "▁increment": 1928,
    "▁Av": 1929,
    "ailable": 1930,
    "ies": 1931,
    "omp": 1932,
    "▁dead": 1933,
    "▁organisms": 1934,
    "▁die": 1935,
    "on,": 1936,
    "▁ever": 1937,
    "▁thine": 1938,
    "uring": 1939,
    "▁practice": 1940,
    "▁Bh": 1941,
    "▁balance": 1942,
    "▁natural": 1943,
    "▁living": 1944,
    "▁General": 1945,
    "▁\"\"": 1946,
    "cent": 1947,
    "▁rot": 1948,
    "\"\"": 1949,
    "▁around": 1950,
    "▁Home": 1951,
    "▁field": 1952,
    "ww": 1953,
    "o.": 1954,
    "com": 1955,
    "page": 1956,
    "▁\"Before": 1957,
    "iew": 1958,
    "▁attempt": 1959,
    "▁children": 1960,
    "ide": 1961,
    "▁long": 1962,
    "▁come,": 1963,
    "9.": 1964,
    "50": 1965,
    "ser": 1966,
    "▁prot": 1967,
    "▁ret": 1968,
    "▁rem": 1969,
    "▁computer": 1970,
    "▁dat": 1971,
    "abas": 1972,
    "▁cop": 1973,
    "ying": 1974,
    "alog": 1975,
    "ing.\"": 1976,
    "▁content": 1977,
    "g.": 1978,
    "▁cat": 1979,
    "▁fil": 1980,
    "▁Netbeans": 1981,
    "▁downloaded": 1982,
    "▁net": 1983,
    "be": 1984,
    "org": 1985,
    "umber": 1986,
    "▁integer": 1987,
    "▁assigned": 1988,
    "▁dev": 1989,
    "▁\"Y": 1990,
    "▁repl": 1991,
    "▁Prefer": 1992,
    "ences": 1993,
    "▁window,": 1994,
    "▁Cont": 1995,
    "nd": 1996,
    "▁step": 1997,
    "▁creating": 1998,
    "▁tutorials": 1999,
    "▁Sc": 2000,
    "ript": 2001,
    "--": 2002,
    "▁Add": 2003,
    "io": 2004,
    "▁Or": 2005,
    "der": 2006,
    "▁\"\"\"N": 2007,
    "ess": 2008,
    "▁must": 2009,
    "▁walk": 2010,
    "▁cannot": 2011,
    "▁\"Click": 2012,
    "pload": 2013,
    "▁Next": 2014,
    "▁story": 2015,
    "▁clear": 2016,
    "eal": 2017,
    "▁\"\"\"Wh": 2018,
    "▁would": 2019,
    "ained": 2020,
    "ead": 2021,
    "▁minister": 2022,
    "▁gospel": 2023,
    "▁\"\"\"And,": 2024,
    "ived": 2025,
    "▁son": 2026,
    "▁age": 2027,
    "▁month": 2028,
    "▁her,": 2029,
    "▁bar": 2030,
    "ren": 2031,
    "▁middle": 2032,
    "▁human": 2033,
    "▁heal": 2034,
    "▁dialog": 2035,
    "▁opens": 2036,
    "▁up.": 2037,
    "nder": 2038,
    "▁options.": 2039,
    "▁says": 2040,
    "▁library": 2041,
    "ecause": 2042,
    "▁wi": 2043,
    "lt": 2044,
    "▁leave": 2045,
    "▁soul": 2046,
    "▁neither": 2047,
    "▁Holy": 2048,
    "ru": 2049,
    "त्": 2050,
    "▁kingdom": 2051,
    "▁fear": 2052,
    "▁fire": 2053,
    "▁diseas": 2054,
    "ung": 2055,
    "ft": 2056,
    "ally": 2057,
    "▁option": 2058,
    "▁adj": 2059,
    "ust": 2060,
    "▁enough": 2061,
    "▁such": 2062,
    "ens": 2063,
    "ome": 2064,
    "▁you:": 2065,
    "▁seek": 2066,
    "▁ought": 2067,
    "▁parent": 2068,
    "▁par": 2069,
    "▁saw": 2070,
    "▁trou": 2071,
    "▁immediately": 2072,
    "▁talk": 2073,
    "▁af": 2074,
    "raid": 2075,
    "le.": 2076,
    "▁inv": 2077,
    "ST": 2078,
    "▁grace": 2079,
    "▁Note": 2080,
    "dem": 2081,
    "▁\"As": 2082,
    "▁thing": 2083,
    "▁tip": 2084,
    "ides": 2085,
    "▁plants": 2086,
    "ng": 2087,
    "lish": 2088,
    "▁it's": 2089,
    "▁default": 2090,
    "▁\"When": 2091,
    "▁without": 2092,
    "▁dark": 2093,
    "▁ship": 2094,
    "▁fa": 2095,
    "▁got": 2096,
    "▁mask": 2097,
    "▁image.\"": 2098,
    "▁\"\"\"Jesus": 2099,
    "▁If": 2100,
    "▁hast": 2101,
    "▁po": 2102,
    "or,": 2103,
    "▁Un": 2104,
    "eck": 2105,
    "▁Display": 2106,
    "box": 2107,
    "▁\"So,": 2108,
    "▁match": 2109,
    "▁whose": 2110,
    "ita": 2111,
    "▁gener": 2112,
    "avig": 2113,
    "▁home": 2114,
    "▁folder": 2115,
    "▁locate": 2116,
    "▁file.": 2117,
    "▁button.": 2118,
    "▁next": 2119,
    "▁icons": 2120,
    "▁nod": 2121,
    "▁direction": 2122,
    "▁respective": 2123,
    "▁clean": 2124,
    "▁outside": 2125,
    "▁cup": 2126,
    "▁pl": 2127,
    "ward": 2128,
    "▁full": 2129,
    "icked": 2130,
    "▁going": 2131,
    "▁dot": 2132,
    "▁said,": 2133,
    "▁Master": 2134,
    "▁saith,": 2135,
    "▁My": 2136,
    "▁hand": 2137,
    "▁keep": 2138,
    "▁Notice": 2139,
    "▁few": 2140,
    "atory": 2141,
    "irt": 2142,
    "ating": 2143,
    "▁flo": 2144,
    "ck": 2145,
    "▁ind": 2146,
    "ual": 2147,
    "▁att": 2148,
    "ribut": 2149,
    "other": 2150,
    "▁File": 2151,
    "ource": 2152,
    "▁Gener": 2153,
    "ield": 2154,
    "▁fi": 2155,
    "▁people,": 2156,
    "▁throughout": 2157,
    "▁Jew": 2158,
    "ry,": 2159,
    "ld": 2160,
    "▁sle": 2161,
    "▁\"\"\"\"\"\"\"": 2162,
    "Wh": 2163,
    "▁sol": 2164,
    "▁system": 2165,
    "\"\"\"\"": 2166,
    "▁ask": 2167,
    "▁\"\"\"\"": 2168,
    "▁star": 2169,
    "▁constructor": 2170,
    "▁parameters": 2171,
    "▁tar": 2172,
    "▁beh": 2173,
    "▁thyself": 2174,
    "▁God,": 2175,
    "▁church": 2176,
    "ill": 2177,
    "▁truth": 2178,
    "▁Spoken": 2179,
    "i.": 2180,
    "adh": 2181,
    "h:": 2182,
    "ction": 2183,
    "▁plus": 2184,
    "▁New": 2185,
    "▁contact": 2186,
    "▁us.": 2187,
    "▁Pl": 2188,
    "ough": 2189,
    "row": 2190,
    "▁square": 2191,
    "eg": 2192,
    "▁main": 2193,
    "▁gra": 2194,
    "▁lot": 2195,
    "ast": 2196,
    "ival": 2197,
    "▁temple": 2198,
    "arth": 2199,
    "oken": 2200,
    "▁\"\"\"Wherefore": 2201,
    "▁believe": 2202,
    "▁told": 2203,
    "▁controls": 2204,
    "▁Rel": 2205,
    "ative": 2206,
    "▁program": 2207,
    "while": 2208,
    "▁.\"": 2209,
    "▁\"Once": 2210,
    "iz": 2211,
    "▁Make": 2212,
    "ists": 2213,
    "ight": 2214,
    "▁filled": 2215,
    "▁temple,": 2216,
    "▁seven": 2217,
    "ues": 2218,
    "▁angels": 2219,
    "▁fulfill": 2220,
    "▁list": 2221,
    "▁executed": 2222,
    "▁commands": 2223,
    "▁appears.": 2224,
    "▁tot": 2225,
    "ternal": 2226,
    "▁big": 2227,
    "abb": 2228,
    "adi": 2229,
    "▁up,": 2230,
    "▁down": 2231,
    "ong": 2232,
    "▁exam": 2233,
    "ples": 2234,
    "▁Mo": 2235,
    "hen": 2236,
    "jo": 2237,
    "▁txt": 2238,
    "▁put": 2239,
    "▁sure": 2240,
    "inter": 2241,
    "ays": 2242,
    "▁Write": 2243,
    "▁sequ": 2244,
    "rine": 2245,
    "▁\"\"\"V": 2246,
    "ily,": 2247,
    "▁you,": 2248,
    "▁life.\"\"\"": 2249,
    "▁John": 2250,
    "apt": 2251,
    "ist": 2252,
    "▁eating": 2253,
    "▁nor": 2254,
    "▁say,": 2255,
    "▁lines": 2256,
    "▁colours": 2257,
    "▁white": 2258,
    "▁background": 2259,
    "▁error": 2260,
    "▁let's": 2261,
    "▁Test": 2262,
    "ployee": 2263,
    "▁comment": 2264,
    "word": 2265,
    "irm": 2266,
    "▁pop-up": 2267,
    "▁successfully": 2268,
    "▁added": 2269,
    "unk": 2270,
    "▁seeing": 2271,
    "▁hour": 2272,
    "▁day.\"\"\"": 2273,
    "▁ord": 2274,
    "▁Budget": 2275,
    "full": 2276,
    "▁them.\"\"\"": 2277,
    "▁Pad": 2278,
    "▁little": 2279,
    "▁boy": 2280,
    "ind": 2281,
    "..": 2282,
    "▁animals": 2283,
    "▁\"\"\"F": 2284,
    "▁ra": 2285,
    "le,": 2286,
    "▁team": 2287,
    "▁conducts": 2288,
    "▁workshops": 2289,
    "▁tutorials.": 2290,
    "▁hard": 2291,
    "-l": 2292,
    "ink": 2293,
    "od": 2294,
    "▁Cl": 2295,
    "board": 2296,
    "▁colour": 2297,
    "▁observe": 2298,
    "▁both": 2299,
    "▁characters": 2300,
    "▁displayed": 2301,
    "▁'S": 2302,
    "'.\"": 2303,
    "▁By": 2304,
    "▁faith": 2305,
    "▁blessed": 2306,
    "▁concerning": 2307,
    "▁com": 2308,
    "▁Net": 2309,
    "lean": 2310,
    "▁bit": 2311,
    "▁\"\"\"Saying,": 2312,
    "lp": 2313,
    "▁and,": 2314,
    "▁write": 2315,
    "ia": 2316,
    "ph": 2317,
    "esus": 2318,
    "▁Ph": 2319,
    "ia,": 2320,
    "▁La": 2321,
    "▁\"\"\"I": 2322,
    "▁desired": 2323,
    "▁Tit": 2324,
    "▁brother": 2325,
    "▁spirit": 2326,
    "▁steps": 2327,
    "▁\"If": 2328,
    "▁coll": 2329,
    "▁ID": 2330,
    "ies,": 2331,
    "▁Sit": 2332,
    "▁\"With": 2333,
    "▁Fe": 2334,
    "ene": 2335,
    "▁eas": 2336,
    "▁sold": 2337,
    "iers": 2338,
    "▁ele": 2339,
    "roduction": 2340,
    "▁process": 2341,
    "▁organism": 2342,
    "▁birth": 2343,
    "▁spec": 2344,
    "for": 2345,
    "▁See": 2346,
    "ily": 2347,
    "▁stone": 2348,
    "▁another,": 2349,
    "▁thr": 2350,
    "▁When": 2351,
    "ise": 2352,
    "▁occur": 2353,
    "▁spake": 2354,
    "abl": 2355,
    "ower": 2356,
    "▁comma": 2357,
    "▁ap": 2358,
    "▁running": 2359,
    "▁Breathing": 2360,
    "▁While": 2361,
    "▁exhaling": 2362,
    "▁bring": 2363,
    "▁coming": 2364,
    "ted": 2365,
    "▁pose": 2366,
    "▁rel": 2367,
    "ig": 2368,
    "▁shown.\"": 2369,
    "▁Admin": 2370,
    "▁sharpen": 2371,
    "▁Gr": 2372,
    "▁Lay": 2373,
    "▁mode": 2374,
    "▁multi": 2375,
    "▁pattern": 2376,
    "▁well.": 2377,
    "▁killed": 2378,
    "ince": 2379,
    "▁life,": 2380,
    "▁raised": 2381,
    "of": 2382,
    "▁red": 2383,
    "irect": 2384,
    "right": 2385,
    "▁bracket": 2386,
    "▁mod": 2387,
    "ate.": 2388,
    "▁king": 2389,
    "aras": 2390,
    "ra.": 2391,
    "▁now.": 2392,
    "▁explain": 2393,
    "▁Sut": 2394,
    "ras": 2395,
    "▁needle": 2396,
    "▁kn": 2397,
    "▁\"\"\"W": 2398,
    "▁Some": 2399,
    "▁dropdown": 2400,
    "▁grad": 2401,
    "tend": 2402,
    "ilt": 2403,
    "▁Oper": 2404,
    "▁teacher": 2405,
    "▁don": 2406,
    "▁Finish": 2407,
    "...": 2408,
    "▁Qu": 2409,
    "avigation": 2410,
    "▁block": 2411,
    "load": 2412,
    "ilate": 2413,
    "▁against": 2414,
    "ibr": 2415,
    "▁\"\"\"": 2416,
    "2.": 2417,
    "▁\"\"\"We": 2418,
    "▁aw": 2419,
    "ware": 2420,
    "we": 2421,
    "▁fruit": 2422,
    "▁found": 2423,
    "▁brought": 2424,
    "▁themselves": 2425,
    "▁taught": 2426,
    "▁much": 2427,
    "ash": 2428,
    "▁seed": 2429,
    "▁exp": 2430,
    "con": 2431,
    "▁becomes": 2432,
    "▁death": 2433,
    "▁Rec": 2434,
    "ording": 2435,
    "▁cause": 2436,
    "▁though": 2437,
    "▁yet": 2438,
    "ew": 2439,
    "▁For": 2440,
    "▁san": 2441,
    "▁bord": 2442,
    "er.\"": 2443,
    "ample": 2444,
    "▁rep": 2445,
    "▁greater": 2446,
    "▁rich": 2447,
    "gy": 2448,
    "▁reward": 2449,
    "▁\"\"\"Having": 2450,
    "▁whatsoever": 2451,
    "▁receive": 2452,
    "▁commandment": 2453,
    "▁pleas": 2454,
    "▁sight": 2455,
    "gr": 2456,
    "icro": 2457,
    "▁below": 2458,
    "▁works": 2459,
    "les": 2460,
    "fig": 2461,
    "tern": 2462,
    "lessed": 2463,
    "ities": 2464,
    "▁forg": 2465,
    "▁sins": 2466,
    "▁trans": 2467,
    "▁green": 2468,
    "▁structure": 2469,
    "work": 2470,
    "thes": 2471,
    "is.": 2472,
    "i,": 2473,
    "▁Continue": 2474,
    "▁play": 2475,
    "▁wish": 2476,
    "▁makes": 2477,
    "▁could": 2478,
    "▁five": 2479,
    "▁div": 2480,
    "▁happens": 2481,
    "▁develop": 2482,
    "ly,": 2483,
    "▁res": 2484,
    "▁adv": 2485,
    "▁beg": 2486,
    "un": 2487,
    "▁forward": 2488,
    "▁ag": 2489,
    "▁char": 2490,
    "ity.": 2491,
    "▁Take": 2492,
    "▁meat": 2493,
    "ural": 2494,
    "▁down,": 2495,
    "ves": 2496,
    "oe": 2497,
    "▁child": 2498,
    "▁land": 2499,
    "▁\"But": 2500,
    "▁command.": 2501,
    "▁file,": 2502,
    "fo": 2503,
    "▁ls": 2504,
    "▁small": 2505,
    "▁veget": 2506,
    "▁etc": 2507,
    "ott": 2508,
    "▁lo": 2509,
    "osed": 2510,
    "ains": 2511,
    "▁possible": 2512,
    "▁hold": 2513,
    "▁became": 2514,
    "▁arms": 2515,
    "▁Where": 2516,
    "▁Lord,": 2517,
    "akt": 2518,
    "ude": 2519,
    "▁love": 2520,
    "▁\"At": 2521,
    "aria": 2522,
    "Name": 2523,
    "lock": 2524,
    "▁mon": 2525,
    "key": 2526,
    "ug": 2527,
    "iva": 2528,
    "▁gathered": 2529,
    "ces": 2530,
    "▁des": 2531,
    "▁Jan": 2532,
    "aka": 2533,
    "▁daught": 2534,
    "▁eyes": 2535,
    "▁see,": 2536,
    "▁bow": 2537,
    "▁alw": 2538,
    "▁Many": 2539,
    "▁pray": 2540,
    "▁Krishna": 2541,
    "▁awk": 2542,
    "demo.txt": 2543,
    "▁cd": 2544,
    "▁command.\"": 2545,
    "▁cle": 2546,
    "▁opt": 2547,
    "▁system.": 2548,
    "Detail": 2549,
    "()": 2550,
    "▁Man": 2551,
    "▁second": 2552,
    "iss": 2553,
    "▁pack": 2554,
    "▁\"M": 2555,
    "ake": 2556,
    "▁default,": 2557,
    "▁cut": 2558,
    "▁bl": 2559,
    "less": 2560,
    "▁self": 2561,
    "▁soon": 2562,
    "▁given": 2563,
    "thy": 2564,
    "cre": 2565,
    "▁\"However,": 2566,
    "▁i.": 2567,
    "ermin": 2568,
    "▁whosoever": 2569,
    "▁Son": 2570,
    "▁Ghost": 2571,
    "▁world,": 2572,
    "ps": 2573,
    "▁stat": 2574,
    "▁foot": 2575,
    "▁away": 2576,
    "▁darkness": 2577,
    "▁teeth": 2578,
    "ci": 2579,
    "ise,": 2580,
    "▁Breath": 2581,
    "edit": 2582,
    "▁Sp": 2583,
    "▁common": 2584,
    "▁tast": 2585,
    "▁But": 2586,
    "▁contain": 2587,
    "▁prom": 2588,
    "▁thus": 2589,
    "▁ancient": 2590,
    "▁medic": 2591,
    "inal": 2592,
    "▁orig": 2593,
    "▁Indi": 2594,
    "▁world.\"\"\"": 2595,
    "▁level": 2596,
    "as.": 2597,
    "▁garden": 2598,
    "▁int": 2599,
    "▁ref": 2600,
    "res": 2601,
    "▁again,": 2602,
    "▁here.\"": 2603,
    "▁met": 2604,
    "▁fabric": 2605,
    "ook": 2606,
    "sh": 2607,
    "▁inf": 2608,
    "▁either": 2609,
    "-click": 2610,
    "▁right-click": 2611,
    "▁mean": 2612,
    "met": 2613,
    "▁light": 2614,
    "uch": 2615,
    "▁bri": 2616,
    "ract": 2617,
    "AST": 2618,
    "▁format": 2619,
    "▁books": 2620,
    "▁easily": 2621,
    "urch": 2622,
    "ase": 2623,
    "▁Entry": 2624,
    "df": 2625,
    "rop": 2626,
    "▁file.\"": 2627,
    "ND": 2628,
    "ION": 2629,
    "fter": 2630,
    "▁nothing": 2631,
    "▁equal": 2632,
    "▁Book": 2633,
    "▁Check": 2634,
    "▁\"We": 2635,
    "▁getting": 2636,
    "▁output.": 2637,
    "▁random": 2638,
    "▁numbers": 2639,
    "▁necessary": 2640,
    "▁cr": 2641,
    "ops": 2642,
    "▁backward": 2643,
    "▁Assign": 2644,
    "▁custom": 2645,
    "▁details.": 2646,
    "▁roll_n": 2647,
    "▁Student": 2648,
    "▁itself": 2649,
    "▁compass": 2650,
    "▁therefore,": 2651,
    "▁code": 2652,
    "▁label": 2653,
    "ion,": 2654,
    "▁Jerusalem,": 2655,
    "s,\"\"\"": 2656,
    "▁Dash": 2657,
    "▁comple": 2658,
    "▁person": 2659,
    "ond": 2660,
    "▁themselves,": 2661,
    "ually": 2662,
    "▁become": 2663,
    "▁fe": 2664,
    "els": 2665,
    "▁hist": 2666,
    "ava": 2667,
    "ometim": 2668,
    "▁mother": 2669,
    "▁fond": 2670,
    "▁cal": 2671,
    "▁identify": 2672,
    "▁sens": 2673,
    "▁touch": 2674,
    "▁Who": 2675,
    "▁sever": 2676,
    "▁creat": 2677,
    "vel": 2678,
    "mail": 2679,
    "▁\"\"\"In": 2680,
    "▁way,": 2681,
    "▁\"And": 2682,
    "▁fin": 2683,
    "ally,": 2684,
    "ided": 2685,
    "To": 2686,
    "▁email": 2687,
    "▁em": 2688,
    "▁math": 2689,
    "▁expression": 2690,
    "▁plan": 2691,
    "istr": 2692,
    "▁Us": 2693,
    "▁Account": 2694,
    "▁fruits": 2695,
    "arm": 2696,
    "▁enjoy": 2697,
    "ay,": 2698,
    "▁except": 2699,
    "sed": 2700,
    "▁mark": 2701,
    "imilarly,": 2702,
    "▁symbol": 2703,
    "▁Mother": 2704,
    "ort": 2705,
    "▁servants": 2706,
    "▁ob": 2707,
    "▁well": 2708,
    "▁answer": 2709,
    "▁curly": 2710,
    "add": 2711,
    "▁Exce": 2712,
    "▁Pand": 2713,
    "ify": 2714,
    "▁myself": 2715,
    "ified": 2716,
    "jun": 2717,
    "▁that,": 2718,
    "▁class.": 2719,
    "▁include": 2720,
    "▁\"\"\"Which": 2721,
    "end": 2722,
    "ereth": 2723,
    "age,": 2724,
    "▁meaning": 2725,
    "ok": 2726,
    "▁carbon": 2727,
    "▁addition": 2728,
    "▁oper": 2729,
    "ator.": 2730,
    "▁salv": 2731,
    "▁sword": 2732,
    "▁Spirit": 2733,
    "aul": 2734,
    "▁known": 2735,
    "▁proceed": 2736,
    "▁further": 2737,
    "▁Indian": 2738,
    "▁bre": 2739,
    "eds": 2740,
    "aur": 2741,
    "andh": 2742,
    "▁\"\"\"That": 2743,
    "ss": 2744,
    "▁car": 2745,
    "ried": 2746,
    "▁doct": 2747,
    "ning": 2748,
    "iness": 2749,
    "by": 2750,
    "▁dece": 2751,
    "▁terminal.": 2752,
    "▁\"\"\"If": 2753,
    "▁abide": 2754,
    "▁faithful": 2755,
    "▁den": 2756,
    "eness": 2757,
    "urrection": 2758,
    "▁4.": 2759,
    "AL": 2760,
    "▁Sthiti:": 2761,
    "ásana": 2762,
    "▁zer": 2763,
    "▁disc": 2764,
    "▁according": 2765,
    "▁sou": 2766,
    "▁received": 2767,
    "ks": 2768,
    "iving": 2769,
    "▁Pranayama": 2770,
    "▁slow": 2771,
    "Te": 2772,
    "omet": 2773,
    "▁gr": 2774,
    "▁too": 2775,
    "ython": 2776,
    "▁link.": 2777,
    "yth": 2778,
    "on.": 2779,
    "▁avoid": 2780,
    "▁movements": 2781,
    "uc": 2782,
    "reen": 2783,
    "▁tree": 2784,
    "oad": 2785,
    "▁ad": 2786,
    "ult": 2787,
    "▁slowly": 2788,
    "▁book.": 2789,
    "Details": 2790,
    "▁At": 2791,
    "▁\"On": 2792,
    "▁page,": 2793,
    "▁Also": 2794,
    "▁display": 2795,
    "▁one.": 2796,
    "n't": 2797,
    "▁conv": 2798,
    "▁zoom": 2799,
    "▁work.": 2800,
    "▁non": 2801,
    "unt": 2802,
    "▁Library": 2803,
    "▁name,": 2804,
    "▁log": 2805,
    "▁etc.\"": 2806,
    "▁absor": 2807,
    "wh": 2808,
    "▁body.": 2809,
    "▁Download": 2810,
    "▁table": 2811,
    "▁arr": 2812,
    "ming": 2813,
    "▁heav": 2814,
    "▁vertical": 2815,
    "▁ax": 2816,
    "▁Observe": 2817,
    "▁centre": 2818,
    "▁size": 2819,
    "buntu": 2820,
    "▁refer": 2821,
    "▁website.\"": 2822,
    "ont": 2823,
    "inue": 2824,
    "▁round": 2825,
    "▁count": 2826,
    "▁decre": 2827,
    "▁why": 2828,
    "▁judge": 2829,
    "▁stand": 2830,
    "▁judgment": 2831,
    "▁break": 2832,
    "▁practic": 2833,
    "▁folk": 2834,
    "cus": 2835,
    "ure,": 2836,
    "▁until": 2837,
    "▁ey": 2838,
    "▁graph": 2839,
    "▁none": 2840,
    "▁sin": 2841,
    "▁LaTeX": 2842,
    "TeX": 2843,
    "ribution": 2844,
    "▁height": 2845,
    "▁soil": 2846,
    "uru": 2847,
    "ict": 2848,
    "▁num": 2849,
    "▁nostril": 2850,
    "pro": 2851,
    "▁black": 2852,
    "udge": 2853,
    "aught": 2854,
    "▁OK": 2855,
    "▁Loc": 2856,
    "▁blank": 2857,
    "▁question": 2858,
    "ured": 2859,
    "▁desc": 2860,
    "-tutorial": 2861,
    "abase": 2862,
    "▁val": 2863,
    "▁That": 2864,
    "▁flesh": 2865,
    "▁convert": 2866,
    "▁strength": 2867,
    "▁brethren": 2868,
    "llow": 2869,
    "▁final": 2870,
    "▁roll": 2871,
    "ploy": 2872,
    "ence.": 2873,
    "▁editor": 2874,
    "▁\"\"\"By": 2875,
    "▁forms": 2876,
    "▁manifest": 2877,
    "▁separ": 2878,
    "▁material": 2879,
    "▁local": 2880,
    "▁whether": 2881,
    "▁mach": 2882,
    "▁fam": 2883,
    "aw": 2884,
    "▁served": 2885,
    "▁during": 2886,
    "▁mid": 2887,
    "day": 2888,
    "▁front": 2889,
    "▁famil": 2890,
    "▁quick": 2891,
    "▁bod": 2892,
    "▁high": 2893,
    "▁priest": 2894,
    "SS": 2895,
    "▁Journal": 2896,
    "osen": 2897,
    "eet": 2898,
    "▁Arjun": 2899,
    "-d": 2900,
    "imensional": 2901,
    "▁ones": 2902,
    "▁squ": 2903,
    "her": 2904,
    "▁mind": 2905,
    "▁shap": 2906,
    "▁ess": 2907,
    "ume": 2908,
    "▁dep": 2909,
    "▁\"O": 2910,
    "▁di": 2911,
    "),": 2912,
    "ilk": 2913,
    "unch": 2914,
    "va": 2915,
    "▁appear": 2916,
    "▁variables": 2917,
    "▁defin": 2918,
    "▁12": 2919,
    "▁OS": 2920,
    "▁column": 2921,
    "▁appears": 2922,
    "▁remove": 2923,
    "▁corresponding": 2924,
    "ax": 2925,
    "▁admin": 2926,
    "▁execute": 2927,
    "▁errors": 2928,
    "▁\"Then": 2929,
    "▁Item": 2930,
    "▁store": 2931,
    "ever,": 2932,
    "▁real": 2933,
    "imum": 2934,
    "▁\"\"\"The": 2935,
    "▁difficult": 2936,
    "▁pers": 2937,
    "pect": 2938,
    "▁loc": 2939,
    "ated.": 2940,
    "▁mail": 2941,
    "▁simply": 2942,
    "ency": 2943,
    "ret": 2944,
    "▁Sat": 2945,
    "▁Ved": 2946,
    "▁cult": 2947,
    "▁vo": 2948,
    "▁tong": 2949,
    "▁prof": 2950,
    "▁proph": 2951,
    "▁Back": 2952,
    "▁\"From": 2953,
    "▁menu,": 2954,
    "▁Settings": 2955,
    "▁KTouch": 2956,
    "▁qual": 2957,
    "▁cod": 2958,
    "ested": 2959,
    "▁fill": 2960,
    "▁contributed": 2961,
    "▁Des": 2962,
    "nter": 2963,
    "▁Def": 2964,
    "ault": 2965,
    "▁paramet": 2966,
    "▁near": 2967,
    "ital": 2968,
    "AR": 2969,
    "▁IDE": 2970,
    "▁class.\"": 2971,
    "ey": 2972,
    "▁wh": 2973,
    "▁rememb": 2974,
    "▁bright": 2975,
    "▁Arr": 2976,
    "▁find": 2977,
    "▁\"\"\"T": 2978,
    "▁yourselves": 2979,
    "▁tr": 2980,
    "bu": 2981,
    "▁him;": 2982,
    "▁repent": 2983,
    "▁merc": 2984,
    "▁God.\"\"\"": 2985,
    "▁fig": 2986,
    "emo": 2987,
    "ram": 2988,
    "▁cross": 2989,
    "▁aff": 2990,
    "lic": 2991,
    "▁sing": 2992,
    "▁URL": 2993,
    "go": 2994,
    "▁Name": 2995,
    "ied": 2996,
    "es.\"": 2997,
    ":\"": 2998,
    "select": 2999,
    "▁\"Let": 3000,
    "▁tw": 3001,
    "▁tit": 3002,
    "▁MARC": 3003,
    "▁records": 3004,
    "▁Manage": 3005,
    "▁Raj": 3006,
    "▁righteousness": 3007,
    "▁cloth": 3008,
    "▁sick": 3009,
    "▁not.\"\"\"": 3010,
    "abh": 3011,
    "ect": 3012,
    "▁code.": 3013,
    "▁far": 3014,
    "▁elders": 3015,
    "▁\"\"\"This": 3016,
    "▁Gentiles": 3017,
    "▁time.": 3018,
    "▁dig": 3019,
    "▁syntax": 3020,
    "▁case": 3021,
    "▁statement.": 3022,
    "▁edit": 3023,
    "dir": 3024,
    "▁dwell": 3025,
    "▁sat": 3026,
    "ling": 3027,
    "\"\".\"": 3028,
    "▁variable.": 3029,
    "ently": 3030,
    "▁rag": 3031,
    "alt": 3032,
    "▁based": 3033,
    "▁sea": 3034,
    "▁water.": 3035,
    "▁Pe": 3036,
    "ople": 3037,
    "▁\"\"\"He": 3038,
    "▁Sim": 3039,
    "as,": 3040,
    "▁Ye": 3041,
    "ross": 3042,
    "▁control": 3043,
    "uj": 3044,
    "▁room": 3045,
    "▁divided": 3046,
    "iod": 3047,
    "▁enroll": 3048,
    "ix": 3049,
    "▁ass": 3050,
    "▁woman": 3051,
    "▁knowing": 3052,
    "▁fell": 3053,
    "ence,": 3054,
    "itted": 3055,
    "▁band": 3056,
    "ised": 3057,
    "▁toward": 3058,
    "▁cas": 3059,
    "▁assignment,": 3060,
    "rite": 3061,
    "▁calcul": 3062,
    "▁simple": 3063,
    "▁Christ,": 3064,
    "cience": 3065,
    "▁bear": 3066,
    "▁index": 3067,
    "▁honour": 3068,
    "▁upload": 3069,
    "▁Moses": 3070,
    "▁commanded": 3071,
    "▁us,": 3072,
    "ed:": 3073,
    "▁fath": 3074,
    "▁false": 3075,
    "ood": 3076,
    "ple": 3077,
    "▁thee": 3078,
    "eral": 3079,
    "▁salt": 3080,
    "▁disci": 3081,
    "▁standing": 3082,
    "ved,": 3083,
    "!\"\"\"": 3084,
    "oid": 3085,
    "oun": 3086,
    "ments": 3087,
    "▁buttock": 3088,
    "or.": 3089,
    "▁Arjuna": 3090,
    "▁flowers": 3091,
    "▁Synaptic": 3092,
    "▁Package": 3093,
    "▁Manag": 3094,
    "▁awareness": 3095,
    "▁sacr": 3096,
    "▁\"Wh": 3097,
    "ext": 3098,
    "ount": 3099,
    "▁const": 3100,
    "▁Ab": 3101,
    "▁fight": 3102,
    "▁Kap": 3103,
    "▁never": 3104,
    "▁wash": 3105,
    "▁answered": 3106,
    "▁feel": 3107,
    "▁Repeat": 3108,
    "▁times.": 3109,
    "▁words": 3110,
    "▁correct": 3111,
    "▁pati": 3112,
    "▁comfort": 3113,
    "▁hope": 3114,
    "▁fix": 3115,
    "▁field,": 3116,
    "▁box,": 3117,
    "▁Rem": 3118,
    "▁button.\"": 3119,
    "▁\"L": 3120,
    "▁changes": 3121,
    "▁incre": 3122,
    "'t": 3123,
    "▁compile": 3124,
    "az": 3125,
    "ine.": 3126,
    "txt": 3127,
    "▁eclipse": 3128,
    "ither": 3129,
    "▁pie": 3130,
    "▁sil": 3131,
    "▁doth": 3132,
    "▁swe": 3133,
    "▁house,": 3134,
    "enu": 3135,
    "spe": 3136,
    "▁gift": 3137,
    "▁summarize.": 3138,
    "cription": 3139,
    "aled": 3140,
    "anc": 3141,
    "▁dance": 3142,
    "▁disciples,": 3143,
    "▁Therefore": 3144,
    "ement": 3145,
    "ced": 3146,
    "▁soft": 3147,
    "ators": 3148,
    "Th": 3149,
    "▁specific": 3150,
    "▁questions": 3151,
    "▁series": 3152,
    "▁organs": 3153,
    "ification": 3154,
    "▁argument": 3155,
    "▁Ch": 3156,
    "esh": 3157,
    "nding": 3158,
    "▁Our": 3159,
    "ivers": 3160,
    "▁branch": 3161,
    "▁leav": 3162,
    "▁summ": 3163,
    "▁\"N": 3164,
    "▁difference": 3165,
    "▁capital": 3166,
    "▁setting": 3167,
    "▁fish": 3168,
    "▁inside": 3169,
    "▁semicolon.\"": 3170,
    "ribe": 3171,
    "▁scroll": 3172,
    "▁others": 3173,
    "▁asked": 3174,
    "▁plug": 3175,
    "▁brief": 3176,
    "----": 3177,
    "▁11": 3178,
    "▁serve": 3179,
    "▁Switch": 3180,
    "ava.": 3181,
    "▁\"G": 3182,
    "▁Ext": 3183,
    "ension": 3184,
    "▁Path": 3185,
    "▁Pers": 3186,
    "▁\"B": 3187,
    "mark": 3188,
    "▁Bookmark": 3189,
    "▁Setup": 3190,
    "int": 3191,
    "▁So,": 3192,
    "▁Edit": 3193,
    "▁\"\"\"Who": 3194,
    "▁heaven.\"\"\"": 3195,
    "▁goes": 3196,
    "▁jo": 3197,
    "▁cried": 3198,
    "ruc": 3199,
    "▁ext": 3200,
    "ets": 3201,
    "▁unc": 3202,
    "▁hol": 3203,
    "selves,": 3204,
    "▁imm": 3205,
    "▁entered": 3206,
    "▁Inst": 3207,
    "▁tri": 3208,
    "angle": 3209,
    "▁speed": 3210,
    "▁arg": 3211,
    "acity": 3212,
    "▁something": 3213,
    "iles": 3214,
    "▁remain": 3215,
    "▁Abraham": 3216,
    "ises": 3217,
    "▁delete": 3218,
    "▁Stand": 3219,
    "▁straight": 3220,
    "▁legs": 3221,
    "▁apart": 3222,
    "▁likewise": 3223,
    "bar": 3224,
    "▁circumc": 3225,
    "eas": 3226,
    "▁eld": 3227,
    "▁women": 3228,
    "▁young": 3229,
    "▁amount": 3230,
    "▁Bl": 3231,
    "▁\"\"\"K": 3232,
    "eep": 3233,
    "▁neck": 3234,
    "▁erect": 3235,
    "▁created.": 3236,
    "▁true": 3237,
    "▁Serial": 3238,
    "▁knees": 3239,
    "▁Cour": 3240,
    "▁flow": 3241,
    "▁devotion": 3242,
    "▁straightway": 3243,
    "▁pap": 3244,
    "▁Pro": 3245,
    "▁Dis": 3246,
    "▁position": 3247,
    "ogle": 3248,
    "rive": 3249,
    "▁present": 3250,
    "'ll": 3251,
    "▁\"After": 3252,
    "▁chang": 3253,
    "▁effect": 3254,
    "now": 3255,
    "ging": 3256,
    "▁length": 3257,
    "▁rect": 3258,
    "▁instance": 3259,
    "▁methods": 3260,
    "▁static": 3261,
    "▁installation": 3262,
    "▁shell": 3263,
    "▁words,": 3264,
    "▁depart": 3265,
    "▁reason": 3266,
    "ity,": 3267,
    "▁spiritual": 3268,
    "▁rather": 3269,
    "cept": 3270,
    "▁finger": 3271,
    "▁side,": 3272,
    "▁Ver": 3273,
    "itt": 3274,
    "ord": 3275,
    "▁Tr": 3276,
    "▁food.": 3277,
    "▁father": 3278,
    "▁promise": 3279,
    "▁\"Al": 3280,
    "▁organis": 3281,
    "▁pure": 3282,
    "▁organ": 3283,
    "omm": 3284,
    "ended": 3285,
    "▁constructor.": 3286,
    "▁Tad": 3287,
    "asana,": 3288,
    "▁ne": 3289,
    "ER": 3290,
    "NA": 3291,
    "ribes": 3292,
    "▁India": 3293,
    "▁tradition": 3294,
    "▁pat": 3295,
    "most": 3296,
    "▁layer.": 3297,
    "▁needs": 3298,
    "▁\"Then,": 3299,
    "▁super": 3300,
    "▁und": 3301,
    "ger": 3302,
    "▁\"\"\"D": 3303,
    "velop": 3304,
    "round": 3305,
    "umn": 3306,
    "▁buy": 3307,
    "▁cloth.": 3308,
    "▁Search": 3309,
    "▁Herod": 3310,
    "man": 3311,
    "reet": 3312,
    "▁Lord.\"\"\"": 3313,
    "▁interface.": 3314,
    "▁String": 3315,
    "cious": 3316,
    "plain": 3317,
    "ined": 3318,
    "ms": 3319,
    "▁includ": 3320,
    "▁remo": 3321,
    "▁flower": 3322,
    "▁blo": 3323,
    "▁sim": 3324,
    "ation.\"": 3325,
    "▁stored": 3326,
    "aining": 3327,
    "sp": 3328,
    "air": 3329,
    "▁len": 3330,
    "aps": 3331,
    "ources": 3332,
    "itam": 3333,
    "▁gone": 3334,
    "▁things,": 3335,
    "▁\"By": 3336,
    "▁there.": 3337,
    "itting": 3338,
    "anas": 3339,
    "a:": 3340,
    "▁sup": 3341,
    "▁parameter": 3342,
    "▁began": 3343,
    "rib": 3344,
    "▁rise": 3345,
    "▁gre": 3346,
    "▁\"Here": 3347,
    "▁Com": 3348,
    "entr": 3349,
    "anskrit": 3350,
    "▁De": 3351,
    "ade": 3352,
    "▁changed": 3353,
    "lete": 3354,
    "▁Fire": 3355,
    "▁List": 3356,
    "ones": 3357,
    "▁midst": 3358,
    "▁passed": 3359,
    "raph": 3360,
    "bo": 3361,
    "-down": 3362,
    "ull": 3363,
    "▁facing": 3364,
    "▁Wind": 3365,
    "fox": 3366,
    "▁multitud": 3367,
    "▁Draw": 3368,
    "▁circle": 3369,
    "▁bes": 3370,
    "▁field.": 3371,
    "ree": 3372,
    "▁ear": 3373,
    "▁sudo": 3374,
    "▁circ": 3375,
    "ipse": 3376,
    "oly": 3377,
    "▁wisdom": 3378,
    "▁God.": 3379,
    "angu": 3380,
    "▁layers": 3381,
    "▁eyes,": 3382,
    "▁looked": 3383,
    "▁post": 3384,
    "▁vitam": 3385,
    "aus": 3386,
    "▁blind": 3387,
    "▁sleep": 3388,
    "alf": 3389,
    "▁col": 3390,
    "anced": 3391,
    "▁\"\"\"While": 3392,
    "▁heels": 3393,
    "▁state": 3394,
    "iar": 3395,
    "sel": 3396,
    "▁exce": 3397,
    "▁us.\"\"\"": 3398,
    "▁development": 3399,
    "▁hyp": 3400,
    "dr": 3401,
    "▁Operating": 3402,
    "▁OPAC": 3403,
    "▁Log": 3404,
    "▁corner": 3405,
    "come": 3406,
    "▁Bre": 3407,
    "lease": 3408,
    "uplicate": 3409,
    "ift": 3410,
    "▁keys": 3411,
    "anah:": 3412,
    "▁release": 3413,
    "▁palm": 3414,
    "▁\"\"\"To": 3415,
    "▁mine": 3416,
    "▁continue": 3417,
    "▁arrow": 3418,
    "leas": 3419,
    "▁glor": 3420,
    "▁\"F": 3421,
    "aster": 3422,
    "▁river": 3423,
    "dess": 3424,
    "▁wood": 3425,
    "▁inde": 3426,
    "ire": 3427,
    "▁Desktop": 3428,
    "▁fingers": 3429,
    "▁worshipped": 3430,
    "▁saying": 3431,
    "▁horiz": 3432,
    "▁lim": 3433,
    "▁David": 3434,
    "arden": 3435,
    "▁song": 3436,
    "▁worthy": 3437,
    "ue,": 3438,
    "▁group": 3439,
    "ma": 3440,
    "areness": 3441,
    "▁summariz": 3442,
    "▁belie": 3443,
    "▁holy": 3444,
    "▁println": 3445,
    "▁stud": 3446,
    "▁contains": 3447,
    "▁earlier": 3448,
    "▁gold": 3449,
    "▁pull": 3450,
    "▁slider": 3451,
    "ational": 3452,
    "▁lif": 3453,
    "▁Judae": 3454,
    "▁Scroll": 3455,
    "▁Set": 3456,
    "ariz": 3457,
    "▁username": 3458,
    "▁Use": 3459,
    "000": 3460,
    "rr": 3461,
    "rough": 3462,
    "ment,": 3463,
    "me": 3464,
    ".org": 3465,
    "▁ill": 3466,
    "tion": 3467,
    "a'": 3468,
    "▁prop": 3469,
    "▁drop": 3470,
    "asana": 3471,
    "▁node": 3472,
    "action": 3473,
    "▁chariot": 3474,
    "ising": 3475,
    "▁success": 3476,
    "▁Windows": 3477,
    "▁giving": 3478,
    "▁loud": 3479,
    "▁pow": 3480,
    "▁\"Under": 3481,
    "▁Cur": 3482,
    "rent": 3483,
    "▁Mar": 3484,
    "dit": 3485,
    "-b": 3486,
    "ars": 3487,
    "▁doubt": 3488,
    "app": 3489,
    "▁option.\"": 3490,
    "pen": 3491,
    "▁Vy": 3492,
    "▁Ind": 3493,
    "▁vari": 3494,
    "▁whe": 3495,
    "▁nut": 3496,
    "iver": 3497,
    "▁affect": 3498,
    "▁conf": 3499,
    "▁judg": 3500,
    "▁Dra": 3501,
    "▁lin": 3502,
    "▁grep": 3503,
    "irst": 3504,
    "▁reach": 3505,
    "▁experi": 3506,
    "▁sorrow": 3507,
    "▁pro": 3508,
    "▁gather": 3509,
    "▁im": 3510,
    "alance": 3511,
    "▁Move": 3512,
    "▁wrote": 3513,
    "▁Choose": 3514,
    "▁Yog": 3515,
    "▁feed": 3516,
    "▁Sl": 3517,
    "owly": 3518,
    "▁16.04": 3519,
    "▁bookmark": 3520,
    "ulch": 3521,
    "▁impro": 3522,
    "kt": 3523,
    "▁Every": 3524,
    "▁wond": 3525,
    "▁bu": 3526,
    "▁case,": 3527,
    "▁\"So": 3528,
    "▁medit": 3529,
    "one,": 3530,
    "▁stretch": 3531,
    "▁together.": 3532,
    "ats": 3533,
    "▁Fill": 3534,
    "selves": 3535,
    "▁husband": 3536,
    "▁wif": 3537,
    "▁stren": 3538,
    "ksh": 3539,
    "▁summarizes": 3540,
    "▁project.": 3541,
    "▁Insert": 3542,
    "▁sec": 3543,
    "▁desir": 3544,
    "▁stor": 3545,
    "▁values": 3546,
    "▁Custom": 3547,
    "▁Asanas": 3548,
    "▁gray": 3549,
    "ations,": 3550,
    "▁parentheses": 3551,
    "▁DNA": 3552,
    "ogadro": 3553,
    "▁canvas.": 3554,
    "sing": 3555,
    "ery": 3556,
    "ired": 3557,
    "▁study": 3558,
    "▁keyword": 3559,
    "▁rain": 3560,
    "▁25": 3561,
    "▁stra": 3562,
    "▁dest": 3563,
    "▁aut": 3564,
    "ener": 3565,
    "orn": 3566,
    "▁mem": 3567,
    "▁expand": 3568,
    "▁Ar": 3569,
    "▁scribes": 3570,
    "▁together,": 3571,
    "▁dem": 3572,
    "▁hundred": 3573,
    "xt": 3574,
    "▁\"U": 3575,
    "▁screen": 3576,
    "▁thigh": 3577,
    "▁dam": 3578,
    "▁example,": 3579,
    "▁purp": 3580,
    "▁sa": 3581,
    "iled": 3582,
    "▁least": 3583,
    "▁est": 3584,
    "▁sw": 3585,
    "▁forest": 3586,
    "aksh": 3587,
    "▁exist": 3588,
    "ump": 3589,
    "yp": 3590,
    "▁Dev": 3591,
    "-s": 3592,
    "▁obtain": 3593,
    "▁details,": 3594,
    "pending": 3595,
    "▁Paul": 3596,
    "▁bound": 3597,
    "▁Text": 3598,
    "▁minut": 3599,
    "where": 3600,
    "▁canvas": 3601,
    "▁master": 3602,
    "▁demon": 3603,
    "▁always": 3604,
    "▁you.\"\"\"": 3605,
    "emb": 3606,
    "-in": 3607,
    "▁variabl": 3608,
    "▁season": 3609,
    "▁mountain": 3610,
    "arsh": 3611,
    "▁Sita": 3612,
    "▁keyboard": 3613,
    "ata": 3614,
    "▁FrontAccount": 3615,
    "▁check-box": 3616,
    "irc": 3617,
    "▁clo": 3618,
    "orrow": 3619,
    "▁lat": 3620,
    "formation": 3621,
    "ism": 3622,
    "▁config": 3623,
    "pear": 3624,
    "▁bar.": 3625,
    "not": 3626,
    "ered": 3627,
    "ames": 3628,
    "▁\"First,": 3629,
    "▁rotate": 3630,
    "▁phys": 3631,
    "▁Front": 3632,
    "▁apost": 3633,
    "les,": 3634,
    "▁cry": 3635,
    "ice,": 3636,
    "▁wr": 3637,
    "▁rul": 3638,
    "rut": 3639,
    "▁everything": 3640,
    "▁oth": 3641,
    "▁gradient": 3642,
    "ather,": 3643,
    "▁friend": 3644,
    "▁Master,": 3645,
    "▁proble": 3646,
    "▁pollution": 3647,
    "▁\"\"\"Ye": 3648,
    "▁ast": 3649,
    "▁Among": 3650,
    "▁Pharise": 3651,
    "▁thank": 3652,
    "-f": 3653,
    "▁focus": 3654,
    "▁mus": 3655,
    "▁Krishn": 3656,
    "▁border": 3657,
    "wo": 3658,
    "▁tak": 3659,
    "ar,": 3660,
    "▁brain": 3661,
    "▁sal": 3662,
    "-box": 3663,
    "pend": 3664,
    "▁forehead": 3665,
    "▁causes": 3666,
    "▁imp": 3667,
    "▁expl": 3668,
    "ention": 3669,
    "▁departed": 3670,
    "erve": 3671,
    "inu": 3672,
    "ils": 3673,
    "▁due": 3674,
    "▁import": 3675,
    "▁fun": 3676,
    "▁parenthes": 3677,
    "ves,": 3678,
    "▁stitch": 3679,
    "▁chan": 3680,
    "▁incl": 3681,
    "ias": 3682,
    "▁along": 3683,
    "ith": 3684,
    "▁Cal": 3685,
    "ributed": 3686,
    "wn": 3687,
    "▁letter": 3688,
    "self": 3689,
    "▁Stud": 3690,
    "▁syn": 3691,
    "ony": 3692,
    "ian": 3693,
    "▁software": 3694,
    "▁gar": 3695,
    "iy": 3696,
    "cial": 3697,
    "▁Res": 3698,
    "ibility": 3699,
    "▁site": 3700,
    "▁supported": 3701,
    "▁National": 3702,
    "▁Education": 3703,
    "▁ICT": 3704,
    "HRD": 3705,
    "vernment": 3706,
    "▁India.\"": 3707,
    "▁Vas": 3708,
    "▁kept": 3709,
    "▁weak": 3710,
    "▁knee": 3711,
    "▁cap": 3712,
    "na": 3713,
    "▁Him": 3714,
    "▁No": 3715,
    "port": 3716,
    "ffect": 3717,
    "▁occ": 3718,
    "▁imple": 3719,
    "▁region": 3720,
    "▁trunk": 3721,
    "▁kne": 3722,
    "▁Ap": 3723,
    "llo": 3724,
    "bserve": 3725,
    "▁protein": 3726,
    "bod": 3727,
    "▁Applic": 3728,
    "▁shoulder": 3729,
    "bon": 3730,
    "ison": 3731,
    "s:": 3732,
    "itch": 3733,
    "▁Code": 3734,
    "▁Files": 3735,
    "▁requir": 3736,
    "▁condem": 3737,
    "▁browser.": 3738,
    "▁differ": 3739,
    "▁Hello": 3740,
    "gth": 3741,
    "▁muscles": 3742,
    "▁fle": 3743,
    "ible": 3744,
    "eous": 3745,
    "bit": 3746,
    "▁201": 3747,
    "▁word,": 3748,
    "▁\"Now": 3749,
    "▁Employee": 3750,
    "▁starting": 3751,
    "▁mak": 3752,
    "▁energ": 3753,
    "ites": 3754,
    "host": 3755,
    "▁numb": 3756,
    "ent,": 3757,
    "▁\"H": 3758,
    "▁opening": 3759,
    "▁notice": 3760,
    "▁error.": 3761,
    "▁also,": 3762,
    "▁empt": 3763,
    "spoken-tutorial.org": 3764,
    "▁elect": 3765,
    "▁automatically": 3766,
    "……": 3767,
    "▁since": 3768,
    "▁Peter": 3769,
    "▁Father,": 3770,
    "▁sinn": 3771,
    "▁heaven,": 3772,
    "▁webs": 3773,
    "▁lar": 3774,
    "▁design": 3775,
    "▁ign": 3776,
    "▁Brah": 3777,
    "▁me.": 3778,
    "▁happ": 3779,
    "ra,": 3780,
    "▁image,": 3781,
    "▁problem": 3782,
    "▁lett": 3783,
    "▁studying": 3784,
    "▁Right": 3785,
    "▁serv": 3786,
    "▁bott": 3787,
    "▁out,": 3788,
    "amas": 3789,
    "▁GI": 3790,
    "▁floor": 3791,
    "▁still": 3792,
    "▁subject": 3793,
    "ledge": 3794,
    "▁large": 3795,
    "▁Fr": 3796,
    "ared": 3797,
    "▁lest": 3798,
    "▁name.": 3799,
    "▁\"\"\"Y": 3800,
    "▁ev": 3801,
    "mong": 3802,
    "iolog": 3803,
    "ing.\"\"\"": 3804,
    "▁healthy": 3805,
    "▁50": 3806,
    "▁dead,": 3807,
    "▁Te": 3808,
    "▁parallel": 3809,
    "▁upper": 3810,
    "▁knew": 3811,
    "▁Start": 3812,
    "▁\"\"\"So": 3813,
    "▁bend": 3814,
    "ession": 3815,
    "ury": 3816,
    "▁mercy": 3817,
    "ous,": 3818,
    "▁Dand": 3819,
    "ulation": 3820,
    "▁techn": 3821,
    "olog": 3822,
    "▁sign": 3823,
    "▁gir": 3824,
    "ae": 3825,
    "▁Jesus,": 3826,
    "ences.": 3827,
    "▁Inkscape": 3828,
    "▁pos": 3829,
    "itive": 3830,
    "▁Run": 3831,
    "▁posture": 3832,
    "illa": 3833,
    "▁handle": 3834,
    "▁twelve": 3835,
    "▁assign": 3836,
    "▁tongue": 3837,
    "▁Am": 3838,
    "▁mess": 3839,
    "-up": 3840,
    "ournal": 3841,
    "peri": 3842,
    "hale": 3843,
    "avas": 3844,
    "▁essential": 3845,
    "ics": 3846,
    "▁earth,": 3847,
    "ription": 3848,
    "eld": 3849,
    "poken": 3850,
    "utorial": 3851,
    "▁0.": 3852,
    "▁down.": 3853,
    "▁lab": 3854,
    "reme": 3855,
    "▁variables.": 3856,
    "atha": 3857,
    "▁standard": 3858,
    "▁inher": 3859,
    "class": 3860,
    "▁hair": 3861,
    "▁weight": 3862,
    "▁40": 3863,
    "▁ground.": 3864,
    "▁100": 3865,
    "▁op": 3866,
    "▁location": 3867,
    "▁capt": 3868,
    "ged": 3869,
    "▁today": 3870,
    "urt": 3871,
    "lick": 3872,
    "liness": 3873,
    "▁preached": 3874,
    "▁Inkscape.": 3875,
    "▁Per": 3876,
    "▁current": 3877,
    "▁cell": 3878,
    "otes": 3879,
    "▁cruc": 3880,
    "▁lower": 3881,
    "ester": 3882,
    "rect": 3883,
    "erefore": 3884,
    "▁Em": 3885,
    "▁fur": 3886,
    "▁\"First": 3887,
    "▁clas": 3888,
    "erties": 3889,
    "al.": 3890,
    "▁law,": 3891,
    "trl": 3892,
    "▁method.\"": 3893,
    "▁sky": 3894,
    "▁explained": 3895,
    "AC": 3896,
    "peat": 3897,
    "Account": 3898,
    "▁Fin": 3899,
    "▁atom": 3900,
    "▁started": 3901,
    "wards": 3902,
    "thren": 3903,
    "▁consid": 3904,
    "▁tempt": 3905,
    "▁lord": 3906,
    ")\"\"\"": 3907,
    "▁function.": 3908,
    "▁behind": 3909,
    "RE": 3910,
    "IONS": 3911,
    "▁Vyayama": 3912,
    "▁Se": 3913,
    "▁prev": 3914,
    "ief": 3915,
    "oll": 3916,
    "▁eyes.": 3917,
    "▁nam": 3918,
    "▁Br": 3919,
    "▁ins": 3920,
    "▁\"\"\"G": 3921,
    "▁\"\"\"These": 3922,
    "▁tools": 3923,
    "▁Jud": 3924,
    "he": 3925,
    "bt": 3926,
    "▁sed": 3927,
    "micolon": 3928,
    "▁special": 3929,
    "ances": 3930,
    "dom": 3931,
    "▁brows": 3932,
    "▁eternal": 3933,
    "▁topic": 3934,
    "▁coun": 3935,
    "iding": 3936,
    "ased": 3937,
    "▁enem": 3938,
    "▁Pur": 3939,
    "▁Le": 3940,
    "mission": 3941,
    "▁saint": 3942,
    "nu": 3943,
    "▁beaut": 3944,
    "iful": 3945,
    "▁initialized": 3946,
    "▁initial": 3947,
    "▁15": 3948,
    "▁toes": 3949,
    "▁bapt": 3950,
    "▁charact": 3951,
    "ould": 3952,
    "▁Mud": 3953,
    "ream": 3954,
    "▁all,": 3955,
    "ervlet": 3956,
    "▁brings": 3957,
    "▁properties": 3958,
    "oy": 3959,
    "m,": 3960,
    ").\"\"\"": 3961,
    "tr": 3962,
    "▁deliver": 3963,
    "owed": 3964,
    "▁lung": 3965,
    "▁poll": 3966,
    "1.": 3967,
    "o.txt": 3968,
    "▁feast": 3969,
    "▁decl": 3970,
    "lcome": 3971,
    "lesh": 3972,
    "▁partic": 3973,
    "at,": 3974,
    "▁Brahm": 3975,
    "rah": 3976,
    "name": 3977,
    "ogram": 3978,
    "▁ident": 3979,
    "atic": 3980,
    "aid": 3981,
    "uplic": 3982,
    "▁concentr": 3983,
    "▁energy": 3984,
    "▁betray": 3985,
    "▁wom": 3986,
    "▁pra": 3987,
    "ffer": 3988,
    "▁belo": 3989,
    "ogen": 3990,
    "otein": 3991,
    "▁hand,": 3992,
    "▁Step": 3993,
    "AN": 3994,
    "▁times": 3995,
    "▁comput": 3996,
    "stract": 3997,
    "ayama": 3998,
    "ween": 3999,
    "nam": 4000,
    "▁Caes": 4001,
    "rodu": 4002,
    "cient": 4003,
    "▁env": 4004,
    "▁Calculus": 4005,
    "▁underst": 4006,
    "▁compil": 4007,
    "rish": 4008,
    "lok": 4009,
    "▁Not": 4010,
    "▁righteous": 4011,
    "▁Practice": 4012,
    "▁now,": 4013,
    "▁alread": 4014,
    "▁existing": 4015,
    "▁obser": 4016,
    "▁Ent": 4017,
    "anch": 4018,
    "▁synagog": 4019,
    "ccess": 4020,
    "iverse": 4021,
    "▁certific": 4022,
    "retch": 4023,
    "aneous": 4024,
    "▁ut": 4025,
    "▁paste": 4026,
    "inux": 4027,
    "hys": 4028,
    "uth": 4029,
    "ause": 4030,
    "▁java": 4031,
    "▁mult": 4032,
    "par": 4033,
    "ten,": 4034,
    "▁abdom": 4035,
    "▁Dhar": 4036,
    "▁condu": 4037,
    "▁fulf": 4038,
    "▁wit": 4039,
    "ten": 4040,
    "▁App": 4041,
    "▁perf": 4042,
    "MEICT": 4043,
    "▁regard": 4044,
    "▁ears": 4045,
    "▁30": 4046,
    "▁songs": 4047,
    "▁operators": 4048,
    "fort": 4049,
    "zilla": 4050,
    "▁norm": 4051,
    "▁Explain": 4052,
    "ibrary": 4053,
    "▁param": 4054,
    "▁detail": 4055,
    "▁hon": 4056,
    "▁sy": 4057,
    "▁et": 4058,
    "erning": 4059,
    "ila": 4060,
    "side": 4061,
    "▁stream": 4062,
    "aving": 4063,
    "alem": 4064,
    "cape": 4065,
    "▁answ": 4066,
    "▁Ed": 4067,
    "▁separate": 4068,
    "▁\"\"\"R": 4069,
    "▁chari": 4070,
    "▁vert": 4071,
    "____": 4072,
    "__": 4073,
    "▁Netbe": 4074,
    "vern": 4075,
    "://": 4076,
    "-tutorial.org": 4077,
    "xy": 4078,
    "▁Hy": 4079,
    "fully": 4080,
    "way": 4081,
    "▁Jer": 4082,
    "ately": 4083,
    "▁ways": 4084,
    "▁Alt": 4085,
    "▁simultaneously": 4086,
    "▁sum": 4087,
    "▁immedi": 4088,
    "++": 4089,
    "▁importance": 4090,
    "For": 4091,
    "ml": 4092,
    "▁pix": 4093,
    "atures": 4094,
    "aut": 4095,
    "▁Teach": 4096,
    "uce": 4097,
    "ialog": 4098,
    "wor": 4099,
    "▁sid": 4100,
    "olon": 4101,
    "EST": 4102,
    "sor": 4103,
    "cuss": 4104,
    "▁dou": 4105,
    "▁taking": 4106,
    "▁baptized": 4107,
    "▁pub": 4108,
    "imension": 4109,
    "▁demonstrate": 4110,
    "ktop": 4111,
    "▁pri": 4112,
    "QL": 4113,
    "otion": 4114,
    "▁grow": 4115,
    "▁Group": 4116,
    "▁automatic": 4117,
    "aves": 4118,
    "▁worksh": 4119,
    "▁http://": 4120,
    "joy": 4121,
    "▁pen": 4122,
    "▁necess": 4123,
    "▁poss": 4124,
    "▁directory.": 4125,
    "ML": 4126,
    "RD": 4127,
    "▁fing": 4128,
    "▁thumb": 4129,
    "▁object.": 4130,
    "ape": 4131,
    "▁ter": 4132,
    "omatic": 4133,
    "oom": 4134,
    "empt": 4135,
    "▁confirm": 4136,
    "▁Cho": 4137,
    "oga": 4138,
    "leness": 4139,
    "▁Ass": 4140,
    "▁wis": 4141,
    "ument": 4142,
    "stem": 4143,
    "chn": 4144,
    "▁fru": 4145,
    "ipp": 4146,
    "▁rece": 4147,
    "ements": 4148,
    "_n": 4149,
    "▁err": 4150,
    "enef": 4151,
    "nc": 4152,
    "vant": 4153,
    "cument": 4154,
    "pare": 4155,
    "edi": 4156,
    "▁purpose": 4157,
    "ecut": 4158,
    "▁6.": 4159,
    "▁worshipp": 4160,
    "krit": 4161,
    "▁attach": 4162,
    "▁construct": 4163,
    "ntax": 4164,
    "▁dollar": 4165,
    "▁vis": 4166,
    "▁Up": 4167,
    "▁KT": 4168,
    "MP": 4169,
    "acket": 4170,
    "ilar": 4171,
    "udget": 4172,
    "well": 4173,
    "▁pract": 4174,
    "ás": 4175,
    "▁alphab": 4176,
    "lf": 4177,
    "ownload": 4178,
    "▁Her": 4179,
    "EX": 4180,
    "ersion": 4181,
    "ship": 4182,
    "▁unt": 4183,
    "aya": 4184,
    "andom": 4185,
    "ultaneous": 4186,
    "▁proce": 4187,
    "vert": 4188,
    "▁postures": 4189,
    "xyg": 4190,
    "thiti": 4191,
    "....": 4192,
    "▁apostles": 4193,
    "net": 4194,
    "//": 4195,
    "eget": 4196,
    "▁el": 4197,
    "efore": 4198,
    "▁requ": 4199,
    "abbath": 4200,
    "spoken": 4201,
    "iddle": 4202,
    "ittle": 4203,
    "▁canv": 4204,
    "oh": 4205,
    "ught": 4206,
    "one.": 4207,
    "ucation": 4208,
    "▁natur": 4209,
    "alse": 4210,
    "resp": 4211,
    "▁\"\"\"Say": 4212,
    "ironment": 4213,
    "naptic": 4214,
    "ression": 4215,
    "ouse": 4216,
    "udg": 4217,
    "▁begat": 4218,
    "▁twel": 4219,
    "▁rele": 4220,
    "▁Gal": 4221,
    "▁giv": 4222,
    "▁cert": 4223,
    "enthes": 4224,
    "▁cond": 4225,
    "▁bec": 4226,
    "▁ful": 4227,
    "ousand": 4228,
    "▁Ko": 4229,
    "usband": 4230,
    "umc": 4231,
    "shipp": 4232,
    "▁obt": 4233,
    "ustom": 4234,
    "▁manif": 4235,
    "roup": 4236,
    "ntu": 4237,
    "icult": 4238,
    "▁MyS": 4239,
    "ttp": 4240,
    "▁vide": 4241,
    "ultaneously": 4242,
    "avid": 4243,
    "▁Ca": 4244,
    "▁http": 4245,
    "oodle": 4246,
    "▁sac": 4247,
    "AMPP": 4248,
    "mbol": 4249,
    "ccount": 4250,
    "▁dail": 4251,
    "ason": 4252,
    "utor": 4253,
    ".10": 4254,
    "irit": 4255,
    "▁doll": 4256,
    "▁meth": 4257,
    "xygen": 4258,
    "▁INT": 4259,
    "PAC": 4260,
    "▁diff": 4261,
    "▁hund": 4262,
    "clipse": 4263,
    "▁Calcul": 4264,
    "etail": 4265,
    "ARC": 4266,
    "▁MHRD": 4267,
    "▁Phar": 4268,
    "down": 4269,
    "▁dire": 4270,
    "iron": 4271,
    "rection": 4272,
    "▁bet": 4273,
    "adition": 4274,
    "▁sud": 4275,
    "▁Krish": 4276,
    "imilar": 4277,
    "kscape": 4278,
    "EXT": 4279,
    "gether": 4280,
    "ply": 4281,
    "erminal": 4282,
    "▁HT": 4283,
    "raham": 4284,
    "▁lear": 4285,
    "agog": 4286,
    "▁alph": 4287,
    "▁QUEST": 4288
  },
  "merges": [
    [
      "▁t",
      "h"
    ],
    [
      "▁th",
      "e"
    ],
    [
      "e",
      "r"
    ],
    [
      "\"",
      "\""
    ],
    [
      "n",
      "d"
    ],
    [
      "i",
      "n"
    ],
    [
      "a",
      "t"
    ],
    [
      "e",
      "s"
    ],
    [
      "o",
      "r"
    ],
    [
      "e",
      "n"
    ],
    [
      "o",
      "u"
    ],
    [
      "o",
      "n"
    ],
    [
      "▁a",
      "nd"
    ],
    [
      "e",
      "d"
    ],
    [
      "r",
      "e"
    ],
    [
      "a",
      "n"
    ],
    [
      "▁t",
      "o"
    ],
    [
      "i",
      "s"
    ],
    [
      "▁o",
      "f"
    ],
    [
      "in",
      "g"
    ],
    [
      "l",
      "l"
    ],
    [
      "a",
      "r"
    ],
    [
      "t",
      "h"
    ],
    [
      "▁i",
      "n"
    ],
    [
      "l",
      "e"
    ],
    [
      "a",
      "s"
    ],
    [
      "o",
      "w"
    ],
    [
      "i",
      "c"
    ],
    [
      "o",
      "m"
    ],
    [
      "\"\"",
      "\""
    ],
    [
      "a",
      "l"
    ],
    [
      "▁\"",
      "\"\""
    ],
    [
      "▁i",
      "s"
    ],
    [
      "u",
      "t"
    ],
    [
      "▁w",
      "i"
    ],
    [
      "i",
      "on"
    ],
    [
      "e",
      "t"
    ],
    [
      "i",
      "t"
    ],
    [
      "v",
      "e"
    ],
    [
      "▁o",
      "n"
    ],
    [
      "▁w",
      "h"
    ],
    [
      "c",
      "t"
    ],
    [
      ".",
      "\""
    ],
    [
      ".",
      "\"\"\""
    ],
    [
      "▁b",
      "e"
    ],
    [
      "s",
      "e"
    ],
    [
      "a",
      "y"
    ],
    [
      "en",
      "t"
    ],
    [
      "o",
      "t"
    ],
    [
      "a",
      "m"
    ],
    [
      "▁th",
      "at"
    ],
    [
      "o",
      "d"
    ],
    [
      "▁y",
      "ou"
    ],
    [
      "s",
      "t"
    ],
    [
      "a",
      "c"
    ],
    [
      "▁T",
      "h"
    ],
    [
      "▁s",
      "e"
    ],
    [
      "n",
      "t"
    ],
    [
      "▁h",
      "e"
    ],
    [
      "▁f",
      "or"
    ],
    [
      "▁h",
      "a"
    ],
    [
      "▁p",
      "r"
    ],
    [
      "i",
      "m"
    ],
    [
      "▁w",
      "e"
    ],
    [
      "i",
      "l"
    ],
    [
      "▁s",
      "h"
    ],
    [
      "u",
      "r"
    ],
    [
      "▁a",
      "re"
    ],
    [
      "▁th",
      "is"
    ],
    [
      "i",
      "d"
    ],
    [
      "▁s",
      "t"
    ],
    [
      "i",
      "g"
    ],
    [
      "▁a",
      "s"
    ],
    [
      "▁u",
      "s"
    ],
    [
      "er",
      "e"
    ],
    [
      "g",
      "e"
    ],
    [
      "es",
      "s"
    ],
    [
      "▁r",
      "e"
    ],
    [
      "▁wi",
      "th"
    ],
    [
      "i",
      "r"
    ],
    [
      "o",
      "l"
    ],
    [
      "a",
      "d"
    ],
    [
      "▁i",
      "t"
    ],
    [
      "p",
      "e"
    ],
    [
      "a",
      "ll"
    ],
    [
      "▁wi",
      "ll"
    ],
    [
      "▁a",
      "n"
    ],
    [
      "c",
      "e"
    ],
    [
      "▁c",
      "om"
    ],
    [
      "▁n",
      "ot"
    ],
    [
      "▁ha",
      "ve"
    ],
    [
      "er",
      "s"
    ],
    [
      "c",
      "h"
    ],
    [
      "l",
      "ic"
    ],
    [
      "h",
      "t"
    ],
    [
      "i",
      "al"
    ],
    [
      "▁f",
      "r"
    ],
    [
      "u",
      "s"
    ],
    [
      "at",
      "ion"
    ],
    [
      "a",
      "in"
    ],
    [
      "▁a",
      "ll"
    ],
    [
      "l",
      "d"
    ],
    [
      "▁c",
      "h"
    ],
    [
      "a",
      "k"
    ],
    [
      "▁\"\"\"",
      "A"
    ],
    [
      "a",
      "b"
    ],
    [
      "u",
      "l"
    ],
    [
      "es",
      "t"
    ],
    [
      "▁c",
      "an"
    ],
    [
      "o",
      "k"
    ],
    [
      "ic",
      "h"
    ],
    [
      "e",
      "m"
    ],
    [
      "v",
      "er"
    ],
    [
      "am",
      "e"
    ],
    [
      "s",
      "."
    ],
    [
      "l",
      "y"
    ],
    [
      "▁h",
      "im"
    ],
    [
      "lic",
      "k"
    ],
    [
      "▁m",
      "e"
    ],
    [
      "o",
      "p"
    ],
    [
      "u",
      "m"
    ],
    [
      "a",
      "nd"
    ],
    [
      "▁Th",
      "e"
    ],
    [
      "▁f",
      "i"
    ],
    [
      "▁d",
      "e"
    ],
    [
      "th",
      "er"
    ],
    [
      "▁wh",
      "ich"
    ],
    [
      "t",
      "er"
    ],
    [
      "▁o",
      "r"
    ],
    [
      "at",
      "h"
    ],
    [
      "▁b",
      "y"
    ],
    [
      "or",
      "d"
    ],
    [
      "ig",
      "ht"
    ],
    [
      "▁u",
      "nt"
    ],
    [
      "▁fr",
      "om"
    ],
    [
      "▁\"\"\"A",
      "nd"
    ],
    [
      "s",
      ","
    ],
    [
      "▁a",
      "l"
    ],
    [
      "or",
      "e"
    ],
    [
      "i",
      "f"
    ],
    [
      "▁l",
      "e"
    ],
    [
      "at",
      "e"
    ],
    [
      "▁the",
      "m"
    ],
    [
      "▁unt",
      "o"
    ],
    [
      "a",
      "ge"
    ],
    [
      "p",
      "t"
    ],
    [
      "▁a",
      "t"
    ],
    [
      "▁s",
      "a"
    ],
    [
      "▁e",
      "x"
    ],
    [
      "▁c",
      "on"
    ],
    [
      "ut",
      "or"
    ],
    [
      "o",
      "g"
    ],
    [
      "utor",
      "ial"
    ],
    [
      "p",
      "l"
    ],
    [
      "▁the",
      "y"
    ],
    [
      "▁n",
      "e"
    ],
    [
      "▁se",
      "e"
    ],
    [
      "i",
      "v"
    ],
    [
      "an",
      "t"
    ],
    [
      "T",
      "h"
    ],
    [
      "e",
      ","
    ],
    [
      "r",
      "a"
    ],
    [
      "▁b",
      "ut"
    ],
    [
      "▁s",
      "p"
    ],
    [
      "▁d",
      "o"
    ],
    [
      "▁w",
      "as"
    ],
    [
      "e",
      "ct"
    ],
    [
      "ou",
      "r"
    ],
    [
      "s",
      "o"
    ],
    [
      "is",
      "t"
    ],
    [
      "▁W",
      "e"
    ],
    [
      "▁m",
      "an"
    ],
    [
      "o",
      "se"
    ],
    [
      "u",
      "n"
    ],
    [
      "r",
      "i"
    ],
    [
      "ac",
      "e"
    ],
    [
      "m",
      "ent"
    ],
    [
      "om",
      "e"
    ],
    [
      "▁g",
      "o"
    ],
    [
      "u",
      "d"
    ],
    [
      "ar",
      "t"
    ],
    [
      "▁you",
      "r"
    ],
    [
      "ow",
      "n"
    ],
    [
      "▁b",
      "r"
    ],
    [
      "▁a",
      "b"
    ],
    [
      "▁b",
      "o"
    ],
    [
      "▁y",
      "e"
    ],
    [
      "▁h",
      "is"
    ],
    [
      "ac",
      "k"
    ],
    [
      "▁d",
      "is"
    ],
    [
      "y",
      "pe"
    ],
    [
      "a",
      "v"
    ],
    [
      "x",
      "t"
    ],
    [
      "le",
      "ct"
    ],
    [
      "▁c",
      "lick"
    ],
    [
      "▁wh",
      "o"
    ],
    [
      "▁\"",
      "I"
    ],
    [
      "▁s",
      "u"
    ],
    [
      "ou",
      "ld"
    ],
    [
      "i",
      "ve"
    ],
    [
      "▁t",
      "utorial"
    ],
    [
      "▁al",
      "so"
    ],
    [
      "ou",
      "t"
    ],
    [
      "ar",
      "d"
    ],
    [
      "es",
      "."
    ],
    [
      "e",
      "."
    ],
    [
      "▁k",
      "n"
    ],
    [
      "▁o",
      "ut"
    ],
    [
      "'",
      "s"
    ],
    [
      "r",
      "ou"
    ],
    [
      "▁in",
      "t"
    ],
    [
      "▁L",
      "et"
    ],
    [
      "▁sh",
      "all"
    ],
    [
      "▁the",
      "re"
    ],
    [
      "▁l",
      "o"
    ],
    [
      "e",
      "l"
    ],
    [
      "▁u",
      "p"
    ],
    [
      "▁G",
      "od"
    ],
    [
      "▁i",
      "m"
    ],
    [
      "▁h",
      "as"
    ],
    [
      "▁w",
      "or"
    ],
    [
      "l",
      "o"
    ],
    [
      "q",
      "u"
    ],
    [
      "▁on",
      "e"
    ],
    [
      "ak",
      "e"
    ],
    [
      "a",
      "il"
    ],
    [
      "▁p",
      "l"
    ],
    [
      "p",
      "p"
    ],
    [
      "▁\"",
      "N"
    ],
    [
      "i",
      "e"
    ],
    [
      "▁f",
      "o"
    ],
    [
      "▁o",
      "ur"
    ],
    [
      "ac",
      "h"
    ],
    [
      "es",
      ","
    ],
    [
      "ar",
      "i"
    ],
    [
      "▁h",
      "ere"
    ],
    [
      "▁Th",
      "is"
    ],
    [
      "r",
      "o"
    ],
    [
      "▁wh",
      "en"
    ],
    [
      "▁t",
      "ype"
    ],
    [
      "u",
      "re"
    ],
    [
      "a",
      "g"
    ],
    [
      "in",
      "e"
    ],
    [
      "or",
      "t"
    ],
    [
      "r",
      "u"
    ],
    [
      "ab",
      "le"
    ],
    [
      "▁\"\"\"",
      "Th"
    ],
    [
      "▁t",
      "e"
    ],
    [
      "nt",
      "er"
    ],
    [
      "c",
      "k"
    ],
    [
      "▁Y",
      "ou"
    ],
    [
      "▁C",
      "h"
    ],
    [
      "as",
      "s"
    ],
    [
      "ct",
      "ion"
    ],
    [
      "as",
      "t"
    ],
    [
      "c",
      "c"
    ],
    [
      "f",
      "ore"
    ],
    [
      "f",
      "er"
    ],
    [
      "▁se",
      "lect"
    ],
    [
      "ing",
      "s"
    ],
    [
      "p",
      "le"
    ],
    [
      "▁a",
      "d"
    ],
    [
      "▁m",
      "o"
    ],
    [
      "▁sa",
      "id"
    ],
    [
      "i",
      "le"
    ],
    [
      "as",
      "e"
    ],
    [
      "▁l",
      "et"
    ],
    [
      "j",
      "ect"
    ],
    [
      "ou",
      "s"
    ],
    [
      "re",
      "at"
    ],
    [
      "▁t",
      "w"
    ],
    [
      "▁o",
      "p"
    ],
    [
      "▁fi",
      "le"
    ],
    [
      "id",
      "e"
    ],
    [
      "▁com",
      "m"
    ],
    [
      "▁s",
      "ay"
    ],
    [
      "ow",
      ","
    ],
    [
      "▁sh",
      "ould"
    ],
    [
      "e",
      "p"
    ],
    [
      "ul",
      "t"
    ],
    [
      "on",
      "g"
    ],
    [
      "▁int",
      "o"
    ],
    [
      "▁\"",
      "S"
    ],
    [
      "u",
      "st"
    ],
    [
      "▁a",
      "r"
    ],
    [
      "is",
      "h"
    ],
    [
      "ok",
      "en"
    ],
    [
      "▁pr",
      "o"
    ],
    [
      "▁p",
      "o"
    ],
    [
      "pt",
      "ion"
    ],
    [
      "F",
      "or"
    ],
    [
      "i",
      "k"
    ],
    [
      "▁I",
      "t"
    ],
    [
      "▁s",
      "o"
    ],
    [
      "in",
      "t"
    ],
    [
      "r",
      "it"
    ],
    [
      "ed",
      ","
    ],
    [
      "ol",
      "d"
    ],
    [
      "▁W",
      "h"
    ],
    [
      "▁A",
      "nd"
    ],
    [
      "▁n",
      "ow"
    ],
    [
      "i",
      "p"
    ],
    [
      "▁c",
      "l"
    ],
    [
      "ic",
      "e"
    ],
    [
      "ay",
      "s"
    ],
    [
      "a",
      ","
    ],
    [
      "▁a",
      "m"
    ],
    [
      "▁i",
      "f"
    ],
    [
      "n",
      "e"
    ],
    [
      "it",
      "y"
    ],
    [
      "▁n",
      "o"
    ],
    [
      "a",
      "ct"
    ],
    [
      "▁kn",
      "ow"
    ],
    [
      "a",
      "u"
    ],
    [
      "es",
      "us"
    ],
    [
      "▁m",
      "y"
    ],
    [
      "▁r",
      "ight"
    ],
    [
      "▁tw",
      "o"
    ],
    [
      "ing",
      ","
    ],
    [
      "o",
      "y"
    ],
    [
      "▁w",
      "ere"
    ],
    [
      "▁\"I",
      "n"
    ],
    [
      "▁th",
      "ou"
    ],
    [
      "i",
      "re"
    ],
    [
      "an",
      "s"
    ],
    [
      "▁\"\"\"",
      "B"
    ],
    [
      "i",
      "th"
    ],
    [
      "in",
      "k"
    ],
    [
      "▁f",
      "e"
    ],
    [
      "en",
      "ce"
    ],
    [
      "i",
      "z"
    ],
    [
      "a",
      "."
    ],
    [
      "▁n",
      "ame"
    ],
    [
      "▁the",
      "se"
    ],
    [
      "▁C",
      "lick"
    ],
    [
      "o",
      ","
    ],
    [
      "o",
      "nd"
    ],
    [
      "▁k",
      "e"
    ],
    [
      "i",
      "b"
    ],
    [
      "▁com",
      "e"
    ],
    [
      "▁the",
      "n"
    ],
    [
      "▁q",
      "u"
    ],
    [
      "ir",
      "st"
    ],
    [
      "▁dis",
      "pl"
    ],
    [
      "▁le",
      "ar"
    ],
    [
      "ou",
      "nt"
    ],
    [
      "er",
      "."
    ],
    [
      "g",
      "h"
    ],
    [
      "▁the",
      "ir"
    ],
    [
      "▁J",
      "esus"
    ],
    [
      "um",
      "b"
    ],
    [
      "▁him",
      ","
    ],
    [
      "f",
      "ter"
    ],
    [
      "s",
      "h"
    ],
    [
      "▁g",
      "et"
    ],
    [
      "▁an",
      "y"
    ],
    [
      "on",
      "e"
    ],
    [
      "▁\"N",
      "ow,"
    ],
    [
      "▁ab",
      "out"
    ],
    [
      "▁be",
      "c"
    ],
    [
      "▁us",
      "ing"
    ],
    [
      "▁op",
      "en"
    ],
    [
      "▁d",
      "own"
    ],
    [
      "▁con",
      "t"
    ],
    [
      "▁ch",
      "an"
    ],
    [
      "▁c",
      "all"
    ],
    [
      "▁a",
      "g"
    ],
    [
      "or",
      "y"
    ],
    [
      "or",
      "m"
    ],
    [
      "ow",
      "s"
    ],
    [
      "▁b",
      "ack"
    ],
    [
      "c",
      "l"
    ],
    [
      "▁h",
      "ow"
    ],
    [
      "▁m",
      "ore"
    ],
    [
      "▁I",
      "n"
    ],
    [
      "i",
      "nd"
    ],
    [
      "i",
      "es"
    ],
    [
      "▁comm",
      "and"
    ],
    [
      "▁sp",
      "ace"
    ],
    [
      "ik",
      "e"
    ],
    [
      "ig",
      "n"
    ],
    [
      "▁s",
      "ome"
    ],
    [
      "ed",
      "."
    ],
    [
      "au",
      "se"
    ],
    [
      "▁ha",
      "nd"
    ],
    [
      "▁p",
      "er"
    ],
    [
      "▁L",
      "ord"
    ],
    [
      "a",
      "p"
    ],
    [
      "f",
      "t"
    ],
    [
      "▁o",
      "b"
    ],
    [
      "▁o",
      "ption"
    ],
    [
      "u",
      "e"
    ],
    [
      "▁ha",
      "d"
    ],
    [
      "▁\"",
      "A"
    ],
    [
      "se",
      "l"
    ],
    [
      "n",
      "ess"
    ],
    [
      "a",
      "ve"
    ],
    [
      "p",
      "ut"
    ],
    [
      "▁m",
      "en"
    ],
    [
      "▁N",
      "ow"
    ],
    [
      "▁u",
      "se"
    ],
    [
      "▁c",
      "ol"
    ],
    [
      "er",
      ","
    ],
    [
      "ll",
      "ow"
    ],
    [
      "▁wor",
      "k"
    ],
    [
      "▁b",
      "re"
    ],
    [
      "▁wh",
      "at"
    ],
    [
      "▁ad",
      "d"
    ],
    [
      "e",
      "th"
    ],
    [
      "a",
      "h"
    ],
    [
      "r",
      "y"
    ],
    [
      "ou",
      "nd"
    ],
    [
      "▁b",
      "od"
    ],
    [
      "▁e",
      "n"
    ],
    [
      "▁ag",
      "ain"
    ],
    [
      "▁o",
      "ther"
    ],
    [
      "T",
      "o"
    ],
    [
      "▁v",
      "ari"
    ],
    [
      "▁ne",
      "w"
    ],
    [
      "▁S",
      "t"
    ],
    [
      "i",
      "ll"
    ],
    [
      "it",
      "ion"
    ],
    [
      "▁p",
      "art"
    ],
    [
      "W",
      "h"
    ],
    [
      "ing",
      "."
    ],
    [
      "an",
      "ce"
    ],
    [
      "m",
      "in"
    ],
    [
      "▁g",
      "r"
    ],
    [
      "▁m",
      "ay"
    ],
    [
      "▁but",
      "t"
    ],
    [
      "▁O",
      "ne"
    ],
    [
      "▁pr",
      "ess"
    ],
    [
      "c",
      "i"
    ],
    [
      "is",
      "e"
    ],
    [
      "o",
      "ther"
    ],
    [
      "▁b",
      "l"
    ],
    [
      "ar",
      "y"
    ],
    [
      "▁r",
      "es"
    ],
    [
      "▁P",
      "r"
    ],
    [
      "a",
      "re"
    ],
    [
      "er",
      "t"
    ],
    [
      "▁\"S",
      "o,"
    ],
    [
      "▁t",
      "im"
    ],
    [
      "▁s",
      "pe"
    ],
    [
      "▁bod",
      "y"
    ],
    [
      "▁l",
      "ike"
    ],
    [
      "▁e",
      "ver"
    ],
    [
      "▁f",
      "irst"
    ],
    [
      "▁s",
      "l"
    ],
    [
      "nd",
      "er"
    ],
    [
      "▁v",
      "al"
    ],
    [
      "▁\"",
      "Th"
    ],
    [
      "▁\"\"\"",
      "I"
    ],
    [
      "▁th",
      "ings"
    ],
    [
      "il",
      "d"
    ],
    [
      "▁w",
      "at"
    ],
    [
      "e",
      "w"
    ],
    [
      "re",
      "ate"
    ],
    [
      "▁p",
      "age"
    ],
    [
      "▁lear",
      "n"
    ],
    [
      "v",
      "en"
    ],
    [
      "▁\"",
      "To"
    ],
    [
      "▁E",
      "nter"
    ],
    [
      "▁w",
      "rit"
    ],
    [
      "▁fo",
      "llow"
    ],
    [
      "▁butt",
      "on"
    ],
    [
      "▁im",
      "age"
    ],
    [
      "▁e",
      "ar"
    ],
    [
      "rou",
      "gh"
    ],
    [
      "p",
      "oken"
    ],
    [
      "r",
      "en"
    ],
    [
      "▁g",
      "iv"
    ],
    [
      "h",
      "a"
    ],
    [
      "▁H",
      "e"
    ],
    [
      "▁u",
      "n"
    ],
    [
      "▁me",
      "th"
    ],
    [
      "f",
      "orm"
    ],
    [
      "▁\"\"\"",
      "For"
    ],
    [
      "▁th",
      "rough"
    ],
    [
      "le",
      "ase"
    ],
    [
      "▁meth",
      "od"
    ],
    [
      "▁n",
      "umb"
    ],
    [
      "▁\"\"\"B",
      "ut"
    ],
    [
      "▁a",
      "cc"
    ],
    [
      "▁s",
      "ame"
    ],
    [
      "g",
      "ht"
    ],
    [
      "re",
      "e"
    ],
    [
      "y",
      "p"
    ],
    [
      "▁B",
      "oy"
    ],
    [
      "▁call",
      "ed"
    ],
    [
      "r",
      "am"
    ],
    [
      "▁p",
      "re"
    ],
    [
      "e",
      "c"
    ],
    [
      ":",
      "\"\"\""
    ],
    [
      "▁le",
      "ft"
    ],
    [
      "▁s",
      "er"
    ],
    [
      "on",
      "t"
    ],
    [
      "▁tutorial",
      ","
    ],
    [
      "▁us",
      "ed"
    ],
    [
      "▁s",
      "et"
    ],
    [
      "v",
      "ed"
    ],
    [
      "e",
      "ld"
    ],
    [
      "▁p",
      "e"
    ],
    [
      "it",
      "e"
    ],
    [
      "▁man",
      "y"
    ],
    [
      "▁bec",
      "ause"
    ],
    [
      "▁s",
      "c"
    ],
    [
      "▁be",
      "fore"
    ],
    [
      "all",
      "y"
    ],
    [
      "▁c",
      "ame"
    ],
    [
      "▁in",
      "st"
    ],
    [
      "f",
      "f"
    ],
    [
      "▁w",
      "ord"
    ],
    [
      "o",
      "s"
    ],
    [
      "▁them",
      ","
    ],
    [
      "▁a",
      "p"
    ],
    [
      "l",
      "es"
    ],
    [
      "▁h",
      "ath"
    ],
    [
      "▁go",
      "od"
    ],
    [
      "▁g",
      "reat"
    ],
    [
      "▁d",
      "if"
    ],
    [
      "r",
      "ist"
    ],
    [
      "an",
      "a"
    ],
    [
      "ar",
      "k"
    ],
    [
      "▁for",
      "m"
    ],
    [
      "rou",
      "nd"
    ],
    [
      "▁fi",
      "eld"
    ],
    [
      "▁a",
      "w"
    ],
    [
      "s",
      ".\""
    ],
    [
      "?",
      "\"\"\""
    ],
    [
      "▁be",
      "l"
    ],
    [
      "▁a",
      "fter"
    ],
    [
      "▁s",
      "y"
    ],
    [
      "ad",
      "e"
    ],
    [
      "es",
      "e"
    ],
    [
      "o",
      "od"
    ],
    [
      "▁S",
      "h"
    ],
    [
      "▁st",
      "at"
    ],
    [
      "e",
      "ck"
    ],
    [
      "▁m",
      "ake"
    ],
    [
      "▁bo",
      "th"
    ],
    [
      "▁\"\"\"",
      "Wh"
    ],
    [
      "u",
      "ll"
    ],
    [
      "▁Ch",
      "rist"
    ],
    [
      "▁w",
      "ant"
    ],
    [
      "▁ever",
      "y"
    ],
    [
      "et",
      "ail"
    ],
    [
      "▁com",
      "p"
    ],
    [
      "l",
      "p"
    ],
    [
      "st",
      "em"
    ],
    [
      "as",
      "h"
    ],
    [
      "▁th",
      "an"
    ],
    [
      "▁d",
      "r"
    ],
    [
      "w",
      "ard"
    ],
    [
      "w",
      "e"
    ],
    [
      "e",
      "xt"
    ],
    [
      "▁l",
      "ay"
    ],
    [
      "▁re",
      "c"
    ],
    [
      "▁te",
      "xt"
    ],
    [
      "ent",
      "s"
    ],
    [
      "u",
      "p"
    ],
    [
      "an",
      "g"
    ],
    [
      "▁im",
      "p"
    ],
    [
      "▁e",
      "y"
    ],
    [
      "▁displ",
      "ays"
    ],
    [
      "▁u",
      "nder"
    ],
    [
      "▁d",
      "ay"
    ],
    [
      "t",
      "e"
    ],
    [
      "▁dif",
      "fer"
    ],
    [
      "▁on",
      "ly"
    ],
    [
      "▁g",
      "ive"
    ],
    [
      "▁T",
      "utorial"
    ],
    [
      "▁wi",
      "nd"
    ],
    [
      "ur",
      "n"
    ],
    [
      "od",
      "e"
    ],
    [
      "ath",
      "er"
    ],
    [
      "ru",
      "ct"
    ],
    [
      "▁de",
      "f"
    ],
    [
      "en",
      "s"
    ],
    [
      "▁he",
      "lp"
    ],
    [
      "▁to",
      "ol"
    ],
    [
      "▁st",
      "r"
    ],
    [
      "▁chan",
      "ge"
    ],
    [
      "▁ke",
      "y"
    ],
    [
      "ri",
      "b"
    ],
    [
      "o",
      "st"
    ],
    [
      "at",
      "ed"
    ],
    [
      "▁re",
      "m"
    ],
    [
      "▁ne",
      "ed"
    ],
    [
      "▁wh",
      "ere"
    ],
    [
      "▁c",
      "reate"
    ],
    [
      "v",
      "es"
    ],
    [
      "▁bo",
      "x"
    ],
    [
      "▁o",
      "ver"
    ],
    [
      "▁t",
      "r"
    ],
    [
      "▁b",
      "et"
    ],
    [
      "▁p",
      "ar"
    ],
    [
      "og",
      "ram"
    ],
    [
      "▁you",
      ","
    ],
    [
      "▁st",
      "ud"
    ],
    [
      "▁S",
      "e"
    ],
    [
      "▁A",
      "d"
    ],
    [
      "▁d",
      "es"
    ],
    [
      "w",
      "n"
    ],
    [
      "▁th",
      "y"
    ],
    [
      "sel",
      "f"
    ],
    [
      "▁l",
      "ink"
    ],
    [
      "▁p",
      "ass"
    ],
    [
      "▁e",
      "nter"
    ],
    [
      "o",
      "ve"
    ],
    [
      "▁lo",
      "ok"
    ],
    [
      "s",
      "s"
    ],
    [
      "▁ob",
      "ject"
    ],
    [
      "▁numb",
      "er"
    ],
    [
      "▁e",
      "nd"
    ],
    [
      "m",
      "s"
    ],
    [
      "▁pr",
      "int"
    ],
    [
      "▁\"\"\"",
      "S"
    ],
    [
      "▁w",
      "ay"
    ],
    [
      "▁c",
      "reat"
    ],
    [
      "▁c",
      "o"
    ],
    [
      "▁S",
      "poken"
    ],
    [
      "d",
      "it"
    ],
    [
      "▁a",
      "v"
    ],
    [
      "▁pr",
      "act"
    ],
    [
      "▁d",
      "ot"
    ],
    [
      "▁m",
      "ade"
    ],
    [
      "f",
      "ul"
    ],
    [
      "▁c",
      "ur"
    ],
    [
      "▁d",
      "etail"
    ],
    [
      "▁an",
      "other"
    ],
    [
      "▁out",
      "put"
    ],
    [
      "▁pr",
      "ogram"
    ],
    [
      "re",
      "ad"
    ],
    [
      "▁l",
      "a"
    ],
    [
      "op",
      "le"
    ],
    [
      "▁t",
      "ab"
    ],
    [
      "▁cl",
      "ass"
    ],
    [
      "ow",
      "er"
    ],
    [
      "▁f",
      "un"
    ],
    [
      "ig",
      "h"
    ],
    [
      "▁be",
      "en"
    ],
    [
      "▁th",
      "ose"
    ],
    [
      "s",
      ".\"\"\""
    ],
    [
      "▁v",
      "er"
    ],
    [
      "ot",
      "e"
    ],
    [
      "v",
      "ing"
    ],
    [
      "b",
      "o"
    ],
    [
      "y",
      ","
    ],
    [
      "▁t",
      "ru"
    ],
    [
      "or",
      "n"
    ],
    [
      "▁differ",
      "ent"
    ],
    [
      "ou",
      "se"
    ],
    [
      "▁m",
      "ust"
    ],
    [
      "▁i",
      "nd"
    ],
    [
      "l",
      "ed"
    ],
    [
      "▁said",
      ","
    ],
    [
      "c",
      "ess"
    ],
    [
      "▁st",
      "art"
    ],
    [
      "▁\"\"\"Th",
      "e"
    ],
    [
      "▁wh",
      "om"
    ],
    [
      "▁I",
      "nd"
    ],
    [
      "▁re",
      "ce"
    ],
    [
      "en",
      ","
    ],
    [
      "▁wor",
      "ld"
    ],
    [
      "ot",
      "t"
    ],
    [
      "▁as",
      "s"
    ],
    [
      "▁be",
      "g"
    ],
    [
      "▁r",
      "o"
    ],
    [
      "▁d",
      "ire"
    ],
    [
      "l",
      "i"
    ],
    [
      "pe",
      "ar"
    ],
    [
      "▁sp",
      "oken"
    ],
    [
      "▁o",
      "wn"
    ],
    [
      "▁ch",
      "eck"
    ],
    [
      "a",
      "x"
    ],
    [
      "▁pe",
      "ople"
    ],
    [
      "ic",
      "k"
    ],
    [
      "am",
      "ple"
    ],
    [
      "▁pr",
      "op"
    ],
    [
      "▁\"",
      "H"
    ],
    [
      "▁tim",
      "e"
    ],
    [
      "c",
      "re"
    ],
    [
      "▁Th",
      "ese"
    ],
    [
      "▁\"",
      "For"
    ],
    [
      "▁Th",
      "ere"
    ],
    [
      "▁mo",
      "ve"
    ],
    [
      "▁pl",
      "ant"
    ],
    [
      ";",
      "\"\"\""
    ],
    [
      "er",
      "min"
    ],
    [
      "▁s",
      "m"
    ],
    [
      "b",
      "le"
    ],
    [
      "▁fun",
      "ction"
    ],
    [
      "▁wind",
      "ow"
    ],
    [
      "▁l",
      "if"
    ],
    [
      "▁c",
      "ond"
    ],
    [
      "▁Wh",
      "at"
    ],
    [
      "en",
      "c"
    ],
    [
      "▁fo",
      "od"
    ],
    [
      "it",
      "t"
    ],
    [
      "ah",
      ":"
    ],
    [
      "▁type",
      ":"
    ],
    [
      "b",
      "s"
    ],
    [
      "e",
      "ver"
    ],
    [
      "▁ar",
      "r"
    ],
    [
      "s",
      "w"
    ],
    [
      "▁displ",
      "ay"
    ],
    [
      "▁Th",
      "en"
    ],
    [
      "▁\"",
      "\""
    ],
    [
      "▁col",
      "our"
    ],
    [
      "▁e",
      "ven"
    ],
    [
      "▁l",
      "ist"
    ],
    [
      "ter",
      "n"
    ],
    [
      "i",
      "ed"
    ],
    [
      "it",
      "ch"
    ],
    [
      "▁to",
      "p"
    ],
    [
      "ers",
      "."
    ],
    [
      "am",
      "a"
    ],
    [
      "ib",
      "r"
    ],
    [
      "ail",
      "able"
    ],
    [
      "p",
      "h"
    ],
    [
      "▁w",
      "ent"
    ],
    [
      "c",
      "on"
    ],
    [
      "▁g",
      "l"
    ],
    [
      "▁p",
      "lease"
    ],
    [
      "ic",
      "al"
    ],
    [
      "ve",
      "l"
    ],
    [
      "▁f",
      "l"
    ],
    [
      "▁m",
      "in"
    ],
    [
      "▁bo",
      "ok"
    ],
    [
      "i",
      "ther"
    ],
    [
      "a",
      "ult"
    ],
    [
      "▁val",
      "ue"
    ],
    [
      "▁ap",
      "pear"
    ],
    [
      "▁d",
      "ra"
    ],
    [
      "il",
      "es"
    ],
    [
      "r",
      "r"
    ],
    [
      "▁G",
      "o"
    ],
    [
      "▁us",
      "er"
    ],
    [
      "▁here",
      "."
    ],
    [
      "▁imp",
      "ort"
    ],
    [
      "▁h",
      "er"
    ],
    [
      "▁b",
      "lo"
    ],
    [
      "▁av",
      "ailable"
    ],
    [
      "▁l",
      "ess"
    ],
    [
      "▁he",
      "ad"
    ],
    [
      "▁or",
      "g"
    ],
    [
      "▁s",
      "in"
    ],
    [
      "▁bel",
      "ie"
    ],
    [
      "th",
      ","
    ],
    [
      "▁t",
      "ake"
    ],
    [
      "est",
      "ion"
    ],
    [
      "▁\"\"\"",
      "H"
    ],
    [
      "w",
      "ord"
    ],
    [
      "▁\"I",
      "f"
    ],
    [
      "▁l",
      "ine"
    ],
    [
      "▁be",
      "ing"
    ],
    [
      "▁e",
      "t"
    ],
    [
      "d",
      "om"
    ],
    [
      "ain",
      "t"
    ],
    [
      "▁et",
      "c"
    ],
    [
      "p",
      "er"
    ],
    [
      "ir",
      "it"
    ],
    [
      "an",
      "k"
    ],
    [
      "in",
      "u"
    ],
    [
      "▁with",
      "in"
    ],
    [
      "em",
      "ent"
    ],
    [
      "▁an",
      "sw"
    ],
    [
      "▁follow",
      "ing"
    ],
    [
      "ar",
      "ch"
    ],
    [
      "▁c",
      "le"
    ],
    [
      "e",
      "ll"
    ],
    [
      "▁wat",
      "er"
    ],
    [
      "▁\"\"\"Th",
      "en"
    ],
    [
      "ec",
      "ut"
    ],
    [
      "▁\"\"\"",
      "N"
    ],
    [
      "▁bre",
      "ath"
    ],
    [
      "y",
      "."
    ],
    [
      "r",
      "ess"
    ],
    [
      "▁men",
      "u"
    ],
    [
      ",",
      "\"\"\""
    ],
    [
      "▁Ind",
      "i"
    ],
    [
      "▁re",
      "ad"
    ],
    [
      "▁s",
      "im"
    ],
    [
      "▁with",
      "out"
    ],
    [
      "▁writ",
      "e"
    ],
    [
      "▁re",
      "l"
    ],
    [
      "u",
      "b"
    ],
    [
      "▁say",
      "ing,"
    ],
    [
      "▁he",
      "av"
    ],
    [
      "▁e",
      "qu"
    ],
    [
      "▁ne",
      "xt"
    ],
    [
      "▁F",
      "or"
    ],
    [
      "▁rec",
      "ord"
    ],
    [
      "▁H",
      "ere"
    ],
    [
      "▁dire",
      "ct"
    ],
    [
      "▁wh",
      "ile"
    ],
    [
      "▁f",
      "a"
    ],
    [
      "e",
      "g"
    ],
    [
      "h",
      "ar"
    ],
    [
      "▁d",
      "ou"
    ],
    [
      "s",
      "ide"
    ],
    [
      "▁ch",
      "ar"
    ],
    [
      "ermin",
      "al"
    ],
    [
      "iz",
      "e"
    ],
    [
      "▁giv",
      "en"
    ],
    [
      "▁m",
      "us"
    ],
    [
      "-",
      "-"
    ],
    [
      "▁t",
      "yp"
    ],
    [
      "▁l",
      "in"
    ],
    [
      "ack",
      "et"
    ],
    [
      "▁ex",
      "ecut"
    ],
    [
      "▁pr",
      "om"
    ],
    [
      "en",
      "er"
    ],
    [
      "▁at",
      "t"
    ],
    [
      "▁ke",
      "ep"
    ],
    [
      "▁a",
      "pp"
    ],
    [
      "al",
      "k"
    ],
    [
      "▁b",
      "ott"
    ],
    [
      "b",
      "u"
    ],
    [
      "▁d",
      "at"
    ],
    [
      "▁sy",
      "stem"
    ],
    [
      "n",
      "a"
    ],
    [
      "▁su",
      "b"
    ],
    [
      "form",
      "ation"
    ],
    [
      "c",
      "ome"
    ],
    [
      "▁The",
      "y"
    ],
    [
      "▁r",
      "un"
    ],
    [
      "▁S",
      "ave"
    ],
    [
      "▁e",
      "at"
    ],
    [
      "▁the",
      "e"
    ],
    [
      "▁T",
      "o"
    ],
    [
      "a",
      "le"
    ],
    [
      "ment",
      "s"
    ],
    [
      "▁S",
      "y"
    ],
    [
      "▁c",
      "our"
    ],
    [
      "▁dr",
      "op"
    ],
    [
      "▁con",
      "st"
    ],
    [
      "▁it",
      "."
    ],
    [
      "▁d",
      "one"
    ],
    [
      "▁n",
      "am"
    ],
    [
      "▁fa",
      "ith"
    ],
    [
      "ers",
      ","
    ],
    [
      "▁God",
      ","
    ],
    [
      "▁lay",
      "er"
    ],
    [
      "▁T",
      "ype"
    ],
    [
      "or",
      "."
    ],
    [
      "▁pro",
      "ject"
    ],
    [
      "▁w",
      "ould"
    ],
    [
      "▁s",
      "on"
    ],
    [
      "if",
      "ic"
    ],
    [
      "▁vari",
      "able"
    ],
    [
      "is",
      "s"
    ],
    [
      "▁ass",
      "ign"
    ],
    [
      "▁c",
      "lo"
    ],
    [
      "we",
      "en"
    ],
    [
      "▁ch",
      "ild"
    ],
    [
      "▁dis",
      "ci"
    ],
    [
      "ge",
      "ther"
    ],
    [
      "▁m",
      "ight"
    ],
    [
      "▁\"H",
      "ere"
    ],
    [
      "ibr",
      "ary"
    ],
    [
      "▁def",
      "ault"
    ],
    [
      "or",
      "s"
    ],
    [
      "e",
      "f"
    ],
    [
      "▁inst",
      "all"
    ],
    [
      "▁d",
      "id"
    ],
    [
      "ul",
      "ar"
    ],
    [
      "▁up",
      "on"
    ],
    [
      "pe",
      "ct"
    ],
    [
      "▁de",
      "v"
    ],
    [
      "lo",
      "ad"
    ],
    [
      "us",
      "h"
    ],
    [
      "▁br",
      "acket"
    ],
    [
      "er",
      "ed"
    ],
    [
      "▁to",
      "gether"
    ],
    [
      "if",
      "y"
    ],
    [
      "▁bet",
      "ween"
    ],
    [
      "▁t",
      "est"
    ],
    [
      "▁E",
      "x"
    ],
    [
      "▁bott",
      "om"
    ],
    [
      "▁su",
      "ch"
    ],
    [
      "▁chan",
      "g"
    ],
    [
      "▁te",
      "ach"
    ],
    [
      "▁ver",
      "y"
    ],
    [
      "th",
      "ing"
    ],
    [
      "ation",
      "."
    ],
    [
      "▁sa",
      "ith"
    ],
    [
      "▁Let",
      "'s"
    ],
    [
      "av",
      "a"
    ],
    [
      "▁i",
      "con"
    ],
    [
      "og",
      "a"
    ],
    [
      "▁A",
      "s"
    ],
    [
      "an",
      "ge"
    ],
    [
      "▁re",
      "qu"
    ],
    [
      "▁p",
      "ut"
    ],
    [
      "▁s",
      "ent"
    ],
    [
      "ial",
      "og"
    ],
    [
      "y",
      "a"
    ],
    [
      "▁in",
      "ter"
    ],
    [
      "▁b",
      "as"
    ],
    [
      "▁R",
      "e"
    ],
    [
      "ff",
      "ect"
    ],
    [
      "▁be",
      "h"
    ],
    [
      "0",
      "0"
    ],
    [
      "▁B",
      "h"
    ],
    [
      "▁\"",
      "O"
    ],
    [
      ".",
      "."
    ],
    [
      "ou",
      "ght"
    ],
    [
      "▁Ad",
      "d"
    ],
    [
      "▁m",
      "ind"
    ],
    [
      "▁ch",
      "o"
    ],
    [
      "▁t",
      "erminal"
    ],
    [
      "▁e",
      "m"
    ],
    [
      "▁f",
      "ound"
    ],
    [
      "▁ear",
      "th"
    ],
    [
      "▁1",
      "."
    ],
    [
      "al",
      "s"
    ],
    [
      "▁there",
      "fore"
    ],
    [
      "▁pro",
      "cess"
    ],
    [
      "v",
      "ant"
    ],
    [
      "▁in",
      "formation"
    ],
    [
      "▁he",
      "ard"
    ],
    [
      "▁la",
      "w"
    ],
    [
      "▁d",
      "ialog"
    ],
    [
      "t",
      "r"
    ],
    [
      "at",
      "er"
    ],
    [
      "▁stat",
      "ement"
    ],
    [
      "▁val",
      "u"
    ],
    [
      "at",
      "es"
    ],
    [
      "▁b",
      "ar"
    ],
    [
      "▁\"Th",
      "e"
    ],
    [
      "led",
      "ge"
    ],
    [
      "u",
      "ch"
    ],
    [
      "ur",
      "es"
    ],
    [
      "▁h",
      "ouse"
    ],
    [
      "▁me",
      "ans"
    ],
    [
      "ib",
      "le"
    ],
    [
      "▁sa",
      "w"
    ],
    [
      "▁hand",
      "s"
    ],
    [
      "ed",
      ".\""
    ],
    [
      "▁\"",
      "W"
    ],
    [
      "▁s",
      "um"
    ],
    [
      "▁k",
      "ing"
    ],
    [
      "▁le",
      "g"
    ],
    [
      "▁su",
      "pp"
    ],
    [
      "▁disci",
      "pl"
    ],
    [
      "▁spe",
      "ak"
    ],
    [
      "em",
      "b"
    ],
    [
      "▁r",
      "est"
    ],
    [
      "ers",
      "ion"
    ],
    [
      "▁t",
      "em"
    ],
    [
      "▁e",
      "rr"
    ],
    [
      "▁ex",
      "ample"
    ],
    [
      "od",
      "u"
    ],
    [
      "▁fi",
      "ll"
    ],
    [
      "▁m",
      "ult"
    ],
    [
      "▁pl",
      "ace"
    ],
    [
      "▁s",
      "w"
    ],
    [
      "▁re",
      "p"
    ],
    [
      "n",
      "ing"
    ],
    [
      "-",
      "d"
    ],
    [
      "▁sh",
      "e"
    ],
    [
      "a",
      "pe"
    ],
    [
      "▁A",
      "n"
    ],
    [
      "▁th",
      "ing"
    ],
    [
      "▁lo",
      "ve"
    ],
    [
      "▁aw",
      "ay"
    ],
    [
      "▁se",
      "c"
    ],
    [
      "▁qu",
      "estion"
    ],
    [
      "ation",
      "s"
    ],
    [
      "▁th",
      "ree"
    ],
    [
      "▁of",
      "f"
    ],
    [
      "ou",
      "ch"
    ],
    [
      "▁equ",
      "al"
    ],
    [
      "it",
      "s"
    ],
    [
      "▁P",
      "ro"
    ],
    [
      "▁e",
      "ach"
    ],
    [
      "▁sh",
      "own"
    ],
    [
      "▁him",
      ".\"\"\""
    ],
    [
      "▁com",
      "ple"
    ],
    [
      "▁b",
      "u"
    ],
    [
      "▁j",
      "ust"
    ],
    [
      "t",
      "ing"
    ],
    [
      "▁\"N",
      "ext"
    ],
    [
      "▁t",
      "ak"
    ],
    [
      "on",
      ","
    ],
    [
      "▁pr",
      "es"
    ],
    [
      "▁th",
      "ink"
    ],
    [
      "▁Pr",
      "ess"
    ],
    [
      "i",
      "x"
    ],
    [
      "▁v",
      "is"
    ],
    [
      "▁c",
      "ert"
    ],
    [
      "▁you",
      "."
    ],
    [
      "▁it",
      "s"
    ],
    [
      "pl",
      "ain"
    ],
    [
      "▁br",
      "ing"
    ],
    [
      "l",
      "come"
    ],
    [
      "inu",
      "x"
    ],
    [
      "▁Se",
      "lect"
    ],
    [
      "▁po",
      "int"
    ],
    [
      "▁I",
      "f"
    ],
    [
      "▁B",
      "ut"
    ],
    [
      "o",
      "ok"
    ],
    [
      "▁e",
      "dit"
    ],
    [
      "▁ha",
      "pp"
    ],
    [
      "▁re",
      "g"
    ],
    [
      "▁A",
      "r"
    ],
    [
      "ation",
      ","
    ],
    [
      "▁r",
      "et"
    ],
    [
      "▁am",
      "ong"
    ],
    [
      "▁p",
      "at"
    ],
    [
      "▁M",
      "an"
    ],
    [
      "▁know",
      "ledge"
    ],
    [
      "▁sec",
      "ond"
    ],
    [
      "▁sa",
      "ve"
    ],
    [
      "▁op",
      "er"
    ],
    [
      "ed",
      ".\"\"\""
    ],
    [
      "e",
      "ous"
    ],
    [
      "h",
      "al"
    ],
    [
      "▁L",
      "inux"
    ],
    [
      "▁\"",
      "B"
    ],
    [
      "es",
      ".\""
    ],
    [
      "▁F",
      "r"
    ],
    [
      "▁as",
      "k"
    ],
    [
      "▁l",
      "og"
    ],
    [
      "▁s",
      "ide"
    ],
    [
      "'",
      "t"
    ],
    [
      "▁po",
      "s"
    ],
    [
      "ly",
      ","
    ],
    [
      "▁c",
      "ode"
    ],
    [
      "▁Th",
      "at"
    ],
    [
      "ir",
      "c"
    ],
    [
      "▁p",
      "ower"
    ],
    [
      "nt",
      "u"
    ],
    [
      "▁con",
      "s"
    ],
    [
      "p",
      "en"
    ],
    [
      "▁r",
      "a"
    ],
    [
      "▁s",
      "ing"
    ],
    [
      "▁Enter",
      "."
    ],
    [
      "bu",
      "ntu"
    ],
    [
      "t",
      "en"
    ],
    [
      "at",
      "ure"
    ],
    [
      "▁cond",
      "ition"
    ],
    [
      "▁\"Here",
      ","
    ],
    [
      "st",
      "r"
    ],
    [
      "▁C",
      "l"
    ],
    [
      "as",
      "k"
    ],
    [
      "▁again",
      "st"
    ],
    [
      "r",
      "ish"
    ],
    [
      "▁e",
      "v"
    ],
    [
      "▁all",
      "."
    ],
    [
      "▁se",
      "ction"
    ],
    [
      "▁Enter",
      ".\""
    ],
    [
      "▁al",
      "read"
    ],
    [
      "▁2",
      "."
    ],
    [
      "in",
      "al"
    ],
    [
      "▁\"",
      "L"
    ],
    [
      "tr",
      "l"
    ],
    [
      "▁3",
      "."
    ],
    [
      "▁lif",
      "e"
    ],
    [
      "re",
      "en"
    ],
    [
      "▁org",
      "an"
    ],
    [
      "le",
      "t"
    ],
    [
      "▁v",
      "ersion"
    ],
    [
      "▁m",
      "ain"
    ],
    [
      "▁sm",
      "all"
    ],
    [
      "ie",
      "w"
    ],
    [
      "▁he",
      "art"
    ],
    [
      "▁fr",
      "u"
    ],
    [
      "▁\"A",
      "nd"
    ],
    [
      "h",
      "y"
    ],
    [
      "▁do",
      "es"
    ],
    [
      "▁giv",
      "es"
    ],
    [
      "cc",
      "ount"
    ],
    [
      "▁m",
      "ess"
    ],
    [
      "▁const",
      "ruct"
    ],
    [
      "m",
      "a"
    ],
    [
      "p",
      "ar"
    ],
    [
      "i",
      "ous"
    ],
    [
      "▁him",
      "self"
    ],
    [
      "▁alread",
      "y"
    ],
    [
      "f",
      "o"
    ],
    [
      "▁lear",
      "nt"
    ],
    [
      "▁e",
      "nt"
    ],
    [
      "▁lo",
      "c"
    ],
    [
      "▁spe",
      "c"
    ],
    [
      "as",
      "."
    ],
    [
      "▁l",
      "ight"
    ],
    [
      "iss",
      "ion"
    ],
    [
      ",",
      "\""
    ],
    [
      "▁r",
      "ed"
    ],
    [
      "▁cl",
      "ose"
    ],
    [
      "▁p",
      "al"
    ],
    [
      "es",
      ".\"\"\""
    ],
    [
      "▁he",
      "al"
    ],
    [
      "▁beg",
      "in"
    ],
    [
      "▁pract",
      "ice"
    ],
    [
      "▁p",
      "ers"
    ],
    [
      "▁S",
      "o"
    ],
    [
      "▁se",
      "qu"
    ],
    [
      "▁direct",
      "ory"
    ],
    [
      "▁e",
      "le"
    ],
    [
      "▁dou",
      "ble"
    ],
    [
      "▁U",
      "buntu"
    ],
    [
      "▁arr",
      "ay"
    ],
    [
      "▁cour",
      "se"
    ],
    [
      "▁f",
      "iles"
    ],
    [
      "▁f",
      "old"
    ],
    [
      "▁\"\"\"I",
      "n"
    ],
    [
      "e",
      "nd"
    ],
    [
      "▁st",
      "and"
    ],
    [
      "an",
      "c"
    ],
    [
      "▁help",
      "s"
    ],
    [
      "iv",
      "ed"
    ],
    [
      "ra",
      "ct"
    ],
    [
      "▁a",
      "ct"
    ],
    [
      "▁me",
      ","
    ],
    [
      "▁under",
      "st"
    ],
    [
      "▁creat",
      "ed"
    ],
    [
      "th",
      "ren"
    ],
    [
      "e",
      "ad"
    ],
    [
      "ro",
      "ll"
    ],
    [
      "ood",
      "le"
    ],
    [
      "▁i",
      "d"
    ],
    [
      "et",
      "er"
    ],
    [
      "ir",
      "d"
    ],
    [
      "um",
      "ent"
    ],
    [
      "r",
      "ow"
    ],
    [
      "▁let",
      "'s"
    ],
    [
      "▁sum",
      "m"
    ],
    [
      "▁c",
      "or"
    ],
    [
      "▁We",
      "lcome"
    ],
    [
      "▁assign",
      "ment"
    ],
    [
      "▁sh",
      "ow"
    ],
    [
      "old",
      ","
    ],
    [
      "▁ha",
      "ving"
    ],
    [
      "▁ab",
      "ove"
    ],
    [
      "▁s",
      "k"
    ],
    [
      "at",
      "ing"
    ],
    [
      "▁C",
      "trl"
    ],
    [
      "▁he",
      "ar"
    ],
    [
      "▁ex",
      "p"
    ],
    [
      "▁S",
      "on"
    ],
    [
      "▁them",
      "."
    ],
    [
      "m",
      "ic"
    ],
    [
      "▁H",
      "ow"
    ],
    [
      "a",
      "j"
    ],
    [
      "al",
      "t"
    ],
    [
      "▁import",
      "ant"
    ],
    [
      "▁h",
      "igh"
    ],
    [
      "▁in",
      "side"
    ],
    [
      "▁f",
      "our"
    ],
    [
      "▁in",
      "cre"
    ],
    [
      "▁K",
      "o"
    ],
    [
      "n",
      "ot"
    ],
    [
      "▁kn",
      "own"
    ],
    [
      "▁option",
      "s"
    ],
    [
      "▁M",
      "oodle"
    ],
    [
      "s",
      "er"
    ],
    [
      "▁pos",
      "ition"
    ],
    [
      "ip",
      "se"
    ],
    [
      "ot",
      "es"
    ],
    [
      "▁F",
      "ather"
    ],
    [
      "▁ret",
      "urn"
    ],
    [
      "our",
      "ce"
    ],
    [
      "▁m",
      "ark"
    ],
    [
      "iv",
      "ing"
    ],
    [
      "▁v",
      "o"
    ],
    [
      "▁sl",
      "ash"
    ],
    [
      "▁bre",
      "thren"
    ],
    [
      "▁rece",
      "ive"
    ],
    [
      "▁pr",
      "ay"
    ],
    [
      "▁col",
      "or"
    ],
    [
      "▁prop",
      "h"
    ],
    [
      "▁fi",
      "nd"
    ],
    [
      "▁D",
      "e"
    ],
    [
      "ate",
      "g"
    ],
    [
      "k",
      "s"
    ],
    [
      "er",
      "c"
    ],
    [
      "▁\"Next",
      ","
    ],
    [
      "▁who",
      "le"
    ],
    [
      "u",
      "nd"
    ],
    [
      "ol",
      "y"
    ],
    [
      "▁plant",
      "s"
    ],
    [
      "▁sp",
      "irit"
    ],
    [
      "▁heav",
      "en"
    ],
    [
      "▁not",
      ","
    ],
    [
      "sh",
      "ip"
    ],
    [
      "▁1",
      "0"
    ],
    [
      "▁\"O",
      "n"
    ],
    [
      "▁we",
      "ll"
    ],
    [
      "▁m",
      "uch"
    ],
    [
      "▁tr",
      "ans"
    ],
    [
      "▁br",
      "ows"
    ],
    [
      "▁child",
      "ren"
    ],
    [
      "▁this",
      ","
    ],
    [
      "▁stud",
      "ent"
    ],
    [
      "▁de",
      "ad"
    ],
    [
      "a",
      "pt"
    ],
    [
      "▁pl",
      "ay"
    ],
    [
      "r",
      "es"
    ],
    [
      "ut",
      "ion"
    ],
    [
      "ere",
      "fore"
    ],
    [
      "▁l",
      "ong"
    ],
    [
      "▁h",
      "ome"
    ],
    [
      "i",
      "."
    ],
    [
      "i",
      "ent"
    ],
    [
      "▁p",
      "ur"
    ],
    [
      "▁detail",
      "s"
    ],
    [
      "▁Lord",
      ","
    ],
    [
      "rou",
      "p"
    ],
    [
      "ud",
      "e"
    ],
    [
      "▁\"A",
      "s"
    ],
    [
      "▁Pro",
      "ject"
    ],
    [
      "▁b",
      "it"
    ],
    [
      "▁m",
      "od"
    ],
    [
      "er",
      ".\""
    ],
    [
      "ain",
      "s"
    ],
    [
      "▁K",
      "rish"
    ],
    [
      "▁st",
      "ra"
    ],
    [
      "▁cho",
      "ose"
    ],
    [
      ".",
      "0"
    ],
    [
      "un",
      "g"
    ],
    [
      "ra",
      "h"
    ],
    [
      "▁c",
      "irc"
    ],
    [
      "▁se",
      "en"
    ],
    [
      "▁dra",
      "w"
    ],
    [
      "▁or",
      "d"
    ],
    [
      "▁d",
      "on"
    ],
    [
      "▁file",
      "."
    ],
    [
      "ord",
      "ing"
    ],
    [
      "▁sequ",
      "ence"
    ],
    [
      "▁g",
      "ener"
    ],
    [
      "ud",
      "g"
    ],
    [
      "itt",
      "le"
    ],
    [
      "▁ex",
      "plain"
    ],
    [
      "▁J",
      "ew"
    ],
    [
      "r",
      "on"
    ],
    [
      "▁prom",
      "pt"
    ],
    [
      "▁st",
      "ep"
    ],
    [
      "▁can",
      "not"
    ],
    [
      "if",
      "ied"
    ],
    [
      "▁T",
      "e"
    ],
    [
      "▁per",
      "form"
    ],
    [
      "▁\"",
      "F"
    ],
    [
      "▁g",
      "round"
    ],
    [
      "▁we",
      "b"
    ],
    [
      "ie",
      "f"
    ],
    [
      "▁down",
      "load"
    ],
    [
      "e",
      "x"
    ],
    [
      "▁underst",
      "and"
    ],
    [
      "▁ye",
      "ar"
    ],
    [
      "▁t",
      "re"
    ],
    [
      "so",
      "ever"
    ],
    [
      "▁lo",
      "op"
    ],
    [
      "\"\"",
      "\"\""
    ],
    [
      "▁c",
      "ount"
    ],
    [
      "▁\"Th",
      "is"
    ],
    [
      "▁F",
      "ire"
    ],
    [
      "o",
      "."
    ],
    [
      "▁d",
      "iv"
    ],
    [
      "a",
      "ul"
    ],
    [
      "▁c",
      "op"
    ],
    [
      "▁A",
      "ll"
    ],
    [
      "▁Ko",
      "ha"
    ],
    [
      "▁f",
      "lo"
    ],
    [
      "bo",
      "ard"
    ],
    [
      "▁y",
      "et"
    ],
    [
      "▁S",
      "p"
    ],
    [
      "ut",
      "e"
    ],
    [
      "▁mess",
      "age"
    ],
    [
      "▁supp",
      "ort"
    ],
    [
      "▁con",
      "f"
    ],
    [
      "▁m",
      "ak"
    ],
    [
      "▁char",
      "act"
    ],
    [
      "▁vari",
      "ous"
    ],
    [
      "▁h",
      "um"
    ],
    [
      "ir",
      "ed"
    ],
    [
      "▁to",
      "ok"
    ],
    [
      "fo",
      "x"
    ],
    [
      "re",
      "t"
    ],
    [
      "ag",
      "es"
    ],
    [
      "▁A",
      "l"
    ],
    [
      "▁F",
      "ile"
    ],
    [
      "as",
      ","
    ],
    [
      "▁pres",
      "ent"
    ],
    [
      "▁m",
      "ed"
    ],
    [
      "▁ab",
      "le"
    ],
    [
      "▁king",
      "dom"
    ],
    [
      "▁blo",
      "ck"
    ],
    [
      "it",
      "ies"
    ],
    [
      "▁Sy",
      "stem"
    ],
    [
      "ab",
      "les"
    ],
    [
      "h",
      "en"
    ],
    [
      "r",
      "ol"
    ],
    [
      "▁valu",
      "es"
    ],
    [
      "▁an",
      "im"
    ],
    [
      "▁\"\"\"N",
      "ow"
    ],
    [
      "▁I",
      "s"
    ],
    [
      "c",
      "us"
    ],
    [
      "▁aw",
      "k"
    ],
    [
      "▁M",
      "y"
    ],
    [
      "▁D",
      "o"
    ],
    [
      "▁c",
      "ast"
    ],
    [
      "▁cle",
      "an"
    ],
    [
      "il",
      "y"
    ],
    [
      "▁\"W",
      "e"
    ],
    [
      "or",
      "g"
    ],
    [
      "-d",
      "own"
    ],
    [
      "ab",
      "l"
    ],
    [
      "▁l",
      "ittle"
    ],
    [
      "▁c",
      "ar"
    ],
    [
      "re",
      "ct"
    ],
    [
      "▁pr",
      "i"
    ],
    [
      "-",
      "c"
    ],
    [
      "ly",
      "."
    ],
    [
      "▁B",
      "e"
    ],
    [
      "▁it",
      "em"
    ],
    [
      "▁po",
      "st"
    ],
    [
      "at",
      "ic"
    ],
    [
      "cl",
      "ipse"
    ],
    [
      "▁sl",
      "id"
    ],
    [
      "o",
      ":"
    ],
    [
      "▁gl",
      "ory"
    ],
    [
      "▁it",
      ","
    ],
    [
      "at",
      "ch"
    ],
    [
      "▁wh",
      "ose"
    ],
    [
      "▁L",
      "ibrary"
    ],
    [
      "▁fe",
      "et"
    ],
    [
      "M",
      "P"
    ],
    [
      "if",
      "t"
    ],
    [
      "▁w",
      "om"
    ],
    [
      "n",
      "ame"
    ],
    [
      "f",
      "ace"
    ],
    [
      "▁pre",
      "v"
    ],
    [
      "ri",
      "pt"
    ],
    [
      "at",
      "or"
    ],
    [
      "▁se",
      "arch"
    ],
    [
      "'",
      "."
    ],
    [
      "S",
      "T"
    ],
    [
      "(",
      ")"
    ],
    [
      "▁k",
      "ind"
    ],
    [
      "▁\"",
      "C"
    ],
    [
      "▁st",
      "ruct"
    ],
    [
      "▁S",
      "u"
    ],
    [
      "▁pass",
      "word"
    ],
    [
      "▁sing",
      "le"
    ],
    [
      "▁res",
      "ult"
    ],
    [
      "▁N",
      "ot"
    ],
    [
      "▁r",
      "ound"
    ],
    [
      "le",
      "te"
    ],
    [
      "▁stra",
      "ight"
    ],
    [
      "▁j",
      "o"
    ],
    [
      "▁tutorial",
      "."
    ],
    [
      "▁belie",
      "ve"
    ],
    [
      "▁in",
      "cl"
    ],
    [
      "▁wh",
      "e"
    ],
    [
      "▁an",
      "ge"
    ],
    [
      "▁ange",
      "l"
    ],
    [
      "▁for",
      "th"
    ],
    [
      "▁nam",
      "ed"
    ],
    [
      "▁St",
      "ud"
    ],
    [
      "\"\"",
      ".\""
    ],
    [
      "▁we",
      "bs"
    ],
    [
      "▁pract",
      "ic"
    ],
    [
      "c",
      "ul"
    ],
    [
      "▁mo",
      "st"
    ],
    [
      "▁a",
      "round"
    ],
    [
      "▁fi",
      "re"
    ],
    [
      "l",
      "ess"
    ],
    [
      "▁that",
      ","
    ],
    [
      "▁A",
      "m"
    ],
    [
      "f",
      "fer"
    ],
    [
      "il",
      "ar"
    ],
    [
      "▁writ",
      "ten"
    ],
    [
      "ce",
      "pt"
    ],
    [
      "▁ne",
      "ither"
    ],
    [
      "▁err",
      "or"
    ],
    [
      "▁I",
      "D"
    ],
    [
      "▁ey",
      "es"
    ],
    [
      "▁p",
      "ath"
    ],
    [
      "▁drop",
      "-down"
    ],
    [
      "an",
      "y"
    ],
    [
      "sel",
      "ves"
    ],
    [
      "▁pers",
      "on"
    ],
    [
      "▁mo",
      "ther"
    ],
    [
      "▁c",
      "ity"
    ],
    [
      "om",
      "p"
    ],
    [
      "▁Wh",
      "o"
    ],
    [
      "▁God",
      ".\"\"\""
    ],
    [
      "ari",
      "z"
    ],
    [
      "▁s",
      "ign"
    ],
    [
      "▁con",
      "c"
    ],
    [
      "-",
      "t"
    ],
    [
      "it",
      "i"
    ],
    [
      "▁d",
      "ays"
    ],
    [
      "▁Th",
      "ose"
    ],
    [
      "▁Fire",
      "fox"
    ],
    [
      "le",
      ","
    ],
    [
      "▁sw",
      "itch"
    ],
    [
      "▁qu",
      "otes"
    ],
    [
      "▁\"\"\"",
      "P"
    ],
    [
      "▁dat",
      "a"
    ],
    [
      "▁h",
      "yp"
    ],
    [
      "u",
      "al"
    ],
    [
      "▁me",
      "an"
    ],
    [
      "▁acc",
      "ording"
    ],
    [
      "▁answ",
      "ered"
    ],
    [
      "as",
      "ana"
    ],
    [
      "e",
      "e"
    ],
    [
      "▁ex",
      "t"
    ],
    [
      "▁w",
      "ar"
    ],
    [
      "ol",
      "on"
    ],
    [
      "▁a",
      "c"
    ],
    [
      "iz",
      "ed"
    ],
    [
      "▁P",
      "lease"
    ],
    [
      "o",
      "h"
    ],
    [
      "▁de",
      "p"
    ],
    [
      "▁pri",
      "est"
    ],
    [
      ".",
      "1"
    ],
    [
      "▁l",
      "ast"
    ],
    [
      "▁fru",
      "it"
    ],
    [
      "▁S",
      "et"
    ],
    [
      "_",
      "_"
    ],
    [
      "▁ser",
      "vant"
    ],
    [
      "▁this",
      "."
    ],
    [
      "▁Ch",
      "ild"
    ],
    [
      "op",
      "s"
    ],
    [
      "▁w",
      "alk"
    ],
    [
      "▁bas",
      "ic"
    ],
    [
      "▁g",
      "ave"
    ],
    [
      "▁de",
      "cl"
    ],
    [
      "▁cert",
      "ain"
    ],
    [
      "▁\"L",
      "et"
    ],
    [
      "t",
      "ed"
    ],
    [
      "▁J",
      "ava"
    ],
    [
      "C",
      "T"
    ],
    [
      "bo",
      "x"
    ],
    [
      "▁br",
      "ought"
    ],
    [
      "in",
      "ess"
    ],
    [
      "k",
      "t"
    ],
    [
      "▁t",
      "ouch"
    ],
    [
      "▁wat",
      "ch"
    ],
    [
      "▁ar",
      "t"
    ],
    [
      "▁proph",
      "et"
    ],
    [
      "▁summ",
      "ariz"
    ],
    [
      "▁t",
      "ry"
    ],
    [
      "▁blo",
      "od"
    ],
    [
      "er",
      "g"
    ],
    [
      "▁d",
      "ark"
    ],
    [
      "▁button",
      "."
    ],
    [
      "w",
      "h"
    ],
    [
      "i",
      ","
    ],
    [
      "▁here",
      ","
    ],
    [
      "▁res",
      "pect"
    ],
    [
      "▁is",
      ","
    ],
    [
      "ens",
      "ion"
    ],
    [
      "en",
      "ess"
    ],
    [
      "g",
      "th"
    ],
    [
      "▁E",
      "dit"
    ],
    [
      "an",
      "el"
    ],
    [
      "▁ey",
      "e"
    ],
    [
      "▁s",
      "it"
    ],
    [
      "▁d",
      "est"
    ],
    [
      "▁discipl",
      "es"
    ],
    [
      "▁Y",
      "oga"
    ],
    [
      "▁wh",
      "ite"
    ],
    [
      "mic",
      "olon"
    ],
    [
      "▁select",
      "ion"
    ],
    [
      "▁f",
      "ull"
    ],
    [
      "ok",
      "e"
    ],
    [
      "▁\"\"\"",
      "M"
    ],
    [
      "▁C",
      "reate"
    ],
    [
      "▁n",
      "ature"
    ],
    [
      "▁in",
      "v"
    ],
    [
      "▁display",
      "ed"
    ],
    [
      "▁D",
      "es"
    ],
    [
      "N",
      "A"
    ],
    [
      "d",
      "ay"
    ],
    [
      "▁A",
      "b"
    ],
    [
      "nd",
      "ing"
    ],
    [
      "▁ev",
      "il"
    ],
    [
      "▁J",
      "er"
    ],
    [
      "▁select",
      "ed"
    ],
    [
      "il",
      "ity"
    ],
    [
      "▁se",
      "micolon"
    ],
    [
      "▁organ",
      "is"
    ],
    [
      "r",
      "ed"
    ],
    [
      "▁c",
      "orn"
    ],
    [
      "▁\"\"\"H",
      "e"
    ],
    [
      "▁e",
      "as"
    ],
    [
      "▁sh",
      "ows"
    ],
    [
      "t",
      "t"
    ],
    [
      "▁app",
      "lic"
    ],
    [
      "▁P",
      "l"
    ],
    [
      "▁acc",
      "ess"
    ],
    [
      "▁page",
      "."
    ],
    [
      "s",
      "ing"
    ],
    [
      "b",
      "e"
    ],
    [
      "i",
      "o"
    ],
    [
      "as",
      "ter"
    ],
    [
      "▁tem",
      "ple"
    ],
    [
      "cc",
      "ess"
    ],
    [
      "vel",
      "op"
    ],
    [
      "j",
      "un"
    ],
    [
      "an",
      "as"
    ],
    [
      "▁typ",
      "es"
    ],
    [
      "▁a",
      "ffect"
    ],
    [
      "at",
      "ur"
    ],
    [
      "▁construct",
      "or"
    ],
    [
      "▁them",
      ".\"\"\""
    ],
    [
      "▁de",
      "ath"
    ],
    [
      "▁g",
      "roup"
    ],
    [
      "e",
      "ep"
    ],
    [
      "▁e",
      "l"
    ],
    [
      "▁par",
      "am"
    ],
    [
      "▁n",
      "or"
    ],
    [
      "▁bel",
      "ow"
    ],
    [
      "▁\"\"\"I",
      "f"
    ],
    [
      "▁com",
      "es"
    ],
    [
      "▁Fr",
      "ont"
    ],
    [
      "▁g",
      "od"
    ],
    [
      "▁has",
      "t"
    ],
    [
      "th",
      "es"
    ],
    [
      "▁word",
      "s"
    ],
    [
      "ale",
      "m"
    ],
    [
      "▁s",
      "un"
    ],
    [
      "n",
      "er"
    ],
    [
      "▁rel",
      "ax"
    ],
    [
      "▁ear",
      "li"
    ],
    [
      "▁\"\"\"",
      "L"
    ],
    [
      "▁pl",
      "ac"
    ],
    [
      "▁\"\"\"",
      "O"
    ],
    [
      "▁s",
      "qu"
    ],
    [
      "▁pat",
      "tern"
    ],
    [
      "▁po",
      "ss"
    ],
    [
      "▁form",
      "at"
    ],
    [
      "ain",
      "ed"
    ],
    [
      "th",
      "."
    ],
    [
      "▁ind",
      "ic"
    ],
    [
      "M",
      "E"
    ],
    [
      "▁the",
      "e,"
    ],
    [
      "m",
      "b"
    ],
    [
      "i",
      "ver"
    ],
    [
      "▁br",
      "other"
    ],
    [
      "o",
      "f"
    ],
    [
      "▁h",
      "old"
    ],
    [
      "▁al",
      "w"
    ],
    [
      "ward",
      "s"
    ],
    [
      "▁Jer",
      "us"
    ],
    [
      "▁Jerus",
      "alem"
    ],
    [
      "▁ad",
      "min"
    ],
    [
      "it",
      "ial"
    ],
    [
      "ct",
      "s"
    ],
    [
      "▁c",
      "ateg"
    ],
    [
      "▁l",
      "ive"
    ],
    [
      "▁v",
      "ide"
    ],
    [
      "▁open",
      "s"
    ],
    [
      "id",
      "es"
    ],
    [
      "▁st",
      "ar"
    ],
    [
      "▁Stud",
      "ent"
    ],
    [
      "▁webs",
      "ite"
    ],
    [
      "ness",
      ","
    ],
    [
      "g",
      "g"
    ],
    [
      "▁acc",
      "ount"
    ],
    [
      "ur",
      "ch"
    ],
    [
      "el",
      "s"
    ],
    [
      "r",
      "ent"
    ],
    [
      "▁pal",
      "ms"
    ],
    [
      "is",
      "ter"
    ],
    [
      "▁fr",
      "ie"
    ],
    [
      "▁frie",
      "nd"
    ],
    [
      "is",
      "ed"
    ],
    [
      "▁B",
      "ook"
    ],
    [
      "ow",
      "ly"
    ],
    [
      "▁P",
      "aul"
    ],
    [
      "▁breath",
      "ing"
    ],
    [
      "▁bracket",
      "s"
    ],
    [
      "e",
      "as"
    ],
    [
      "▁pre",
      "ach"
    ],
    [
      "▁me",
      ".\"\"\""
    ],
    [
      "▁\"",
      "Wh"
    ],
    [
      "▁work",
      "s"
    ],
    [
      "pe",
      "at"
    ],
    [
      "▁chang",
      "es"
    ],
    [
      "as",
      "on"
    ],
    [
      "c",
      "ape"
    ],
    [
      "▁w",
      "r"
    ],
    [
      "▁d",
      "ist"
    ],
    [
      "▁i",
      "."
    ],
    [
      "▁\"\"\"A",
      "fter"
    ],
    [
      "les",
      "h"
    ],
    [
      "▁c",
      "ow"
    ],
    [
      "▁l",
      "iving"
    ],
    [
      "▁Not",
      "ice"
    ],
    [
      "▁cont",
      "rol"
    ],
    [
      "▁fi",
      "ve"
    ],
    [
      "▁t",
      "able"
    ],
    [
      "▁fl",
      "ow"
    ],
    [
      "▁\"\"\"",
      "Y"
    ],
    [
      ".",
      "org"
    ],
    [
      "▁sa",
      "ved"
    ],
    [
      "▁rem",
      "emb"
    ],
    [
      "▁mus",
      "cl"
    ],
    [
      "▁te",
      "ll"
    ],
    [
      "▁N",
      "ext"
    ],
    [
      "▁fe",
      "w"
    ],
    [
      "▁c",
      "ould"
    ],
    [
      "▁4",
      "."
    ],
    [
      "▁rece",
      "ived"
    ],
    [
      "u",
      "c"
    ],
    [
      "▁bl",
      "ack"
    ],
    [
      "▁fr",
      "ont"
    ],
    [
      "▁f",
      "ing"
    ],
    [
      "▁\"",
      "U"
    ],
    [
      "ret",
      "ch"
    ],
    [
      "▁less",
      "on"
    ],
    [
      "o",
      "c"
    ],
    [
      "ar",
      "m"
    ],
    [
      "i",
      "qu"
    ],
    [
      "ure",
      "."
    ],
    [
      "▁ar",
      "m"
    ],
    [
      "oh",
      "n"
    ],
    [
      "▁le",
      "av"
    ],
    [
      "e",
      "y"
    ],
    [
      "▁re",
      "fer"
    ],
    [
      "▁right",
      "eous"
    ],
    [
      "▁pro",
      "v"
    ],
    [
      "▁it",
      ".\""
    ],
    [
      "ar",
      "ed"
    ],
    [
      "enc",
      "es"
    ],
    [
      "i",
      "a"
    ],
    [
      "▁\"\"\"",
      "W"
    ],
    [
      "▁Krish",
      "na"
    ],
    [
      "ri",
      "ed"
    ],
    [
      "▁s",
      "at"
    ],
    [
      "▁p",
      "ull"
    ],
    [
      "m",
      "e"
    ],
    [
      "ack",
      "age"
    ],
    [
      "▁p",
      "op"
    ],
    [
      "▁window",
      "."
    ],
    [
      ")",
      "."
    ],
    [
      "▁S",
      "up"
    ],
    [
      "▁f",
      "lesh"
    ],
    [
      "▁an",
      "g"
    ],
    [
      "le",
      "."
    ],
    [
      "it",
      "al"
    ],
    [
      "is",
      "ion"
    ],
    [
      "▁image",
      "."
    ],
    [
      "ar",
      "a"
    ],
    [
      "▁\"\"\"Wh",
      "en"
    ],
    [
      "▁le",
      "ave"
    ],
    [
      "▁here",
      ".\""
    ],
    [
      "▁cl",
      "as"
    ],
    [
      "▁Ar",
      "jun"
    ],
    [
      "▁dep",
      "art"
    ],
    [
      "▁\"\"\"",
      "D"
    ],
    [
      "▁mus",
      "ic"
    ],
    [
      "▁Ch",
      "ange"
    ],
    [
      "ent",
      "ion"
    ],
    [
      "▁not",
      "e"
    ],
    [
      "ur",
      "ing"
    ],
    [
      "▁N",
      "ew"
    ],
    [
      "au",
      "ght"
    ],
    [
      "▁se",
      "ed"
    ],
    [
      "▁Sp",
      "irit"
    ],
    [
      "▁ID",
      "E"
    ],
    [
      "▁S",
      "w"
    ],
    [
      "▁v",
      "iew"
    ],
    [
      "k",
      "rit"
    ],
    [
      "▁pr",
      "ot"
    ],
    [
      "▁in",
      "put"
    ],
    [
      "▁c",
      "ent"
    ],
    [
      "▁etc",
      ".\"\"\""
    ],
    [
      "▁don",
      "'t"
    ],
    [
      "▁vide",
      "o"
    ],
    [
      "h",
      "ost"
    ],
    [
      "▁inter",
      "face"
    ],
    [
      "▁su",
      "ffer"
    ],
    [
      "▁sc",
      "ript"
    ],
    [
      "A",
      "ccount"
    ],
    [
      "ect",
      "ion"
    ],
    [
      "▁J",
      "ohn"
    ],
    [
      "▁bl",
      "ank"
    ],
    [
      "▁N",
      "ame"
    ],
    [
      "▁d",
      "em"
    ],
    [
      "▁k",
      "ill"
    ],
    [
      "▁d",
      "ate"
    ],
    [
      "▁a",
      "ction"
    ],
    [
      "i",
      "er"
    ],
    [
      "▁str",
      "ing"
    ],
    [
      "tern",
      "al"
    ],
    [
      "▁add",
      "ed"
    ],
    [
      "▁now",
      "."
    ],
    [
      "ay",
      "ama"
    ],
    [
      "▁E",
      "clipse"
    ],
    [
      "▁object",
      "s"
    ],
    [
      "-t",
      "utorial"
    ],
    [
      "o",
      "th"
    ],
    [
      "▁prev",
      "ious"
    ],
    [
      "id",
      "d"
    ],
    [
      "ish",
      "ed"
    ],
    [
      "▁hyp",
      "hen"
    ],
    [
      "u",
      "ally"
    ],
    [
      "▁Indi",
      "an"
    ],
    [
      "▁c",
      "ap"
    ],
    [
      "▁I",
      "m"
    ],
    [
      "▁program",
      "."
    ],
    [
      "e",
      "ar"
    ],
    [
      "at",
      "t"
    ],
    [
      "▁part",
      "ic"
    ],
    [
      "▁2",
      "0"
    ],
    [
      "r",
      "ic"
    ],
    [
      "▁C",
      "ont"
    ],
    [
      "▁c",
      "al"
    ],
    [
      "▁Christ",
      ","
    ],
    [
      "▁comp",
      "ile"
    ],
    [
      "▁de",
      "lete"
    ],
    [
      "▁f",
      "all"
    ],
    [
      "▁bet",
      "ter"
    ],
    [
      "▁Jew",
      "s"
    ],
    [
      "ou",
      "d"
    ],
    [
      "▁en",
      "v"
    ],
    [
      "▁Front",
      "Account"
    ],
    [
      "O",
      "N"
    ],
    [
      "r",
      "ing"
    ],
    [
      "▁\"\"\"I",
      "t"
    ],
    [
      "y",
      "ing"
    ],
    [
      "▁c",
      "od"
    ],
    [
      "▁leg",
      "s"
    ],
    [
      "▁stat",
      "ic"
    ],
    [
      "ain",
      "ing"
    ],
    [
      "▁can",
      "v"
    ],
    [
      "▁m",
      "ount"
    ],
    [
      "▁affect",
      "ion"
    ],
    [
      "us",
      ","
    ],
    [
      "om",
      "es"
    ],
    [
      "▁S",
      "am"
    ],
    [
      "s",
      "pe"
    ],
    [
      "it",
      "a"
    ],
    [
      "t",
      "xt"
    ],
    [
      "er",
      "ve"
    ],
    [
      "▁whe",
      "ther"
    ],
    [
      "▁Indi",
      "a"
    ],
    [
      "ist",
      "r"
    ],
    [
      "▁brethren",
      ","
    ],
    [
      "▁mult",
      "i"
    ],
    [
      "▁no",
      "thing"
    ],
    [
      "▁bec",
      "ome"
    ],
    [
      "▁answ",
      "er"
    ],
    [
      "a",
      "z"
    ],
    [
      "ha",
      "le"
    ],
    [
      "i",
      "es."
    ],
    [
      "l",
      "ine"
    ],
    [
      "▁s",
      "ource"
    ],
    [
      "er",
      "v"
    ],
    [
      "▁O",
      "r"
    ],
    [
      "o",
      "ad"
    ],
    [
      "▁lin",
      "es"
    ],
    [
      "r",
      "as"
    ],
    [
      "▁body",
      "."
    ],
    [
      "u",
      "th"
    ],
    [
      "an",
      "a,"
    ],
    [
      "▁man",
      ","
    ],
    [
      "▁box",
      "."
    ],
    [
      "▁m",
      "ou"
    ],
    [
      "▁wi",
      "t"
    ],
    [
      "▁alw",
      "ays"
    ],
    [
      "▁en",
      "erg"
    ],
    [
      "▁cur",
      "rent"
    ],
    [
      "▁vis",
      "it"
    ],
    [
      "en",
      "ef"
    ],
    [
      "in",
      "s"
    ],
    [
      "▁pr",
      "odu"
    ],
    [
      "▁im",
      "m"
    ],
    [
      "▁sh",
      "ip"
    ],
    [
      "▁enter",
      "ed"
    ],
    [
      "▁on",
      "ce"
    ],
    [
      "▁heal",
      "th"
    ],
    [
      "in",
      "es"
    ],
    [
      "▁br",
      "ush"
    ],
    [
      "▁bo",
      "nd"
    ],
    [
      "▁M",
      "ore"
    ],
    [
      "▁su",
      "ccess"
    ],
    [
      "-c",
      "lick"
    ],
    [
      "A",
      "R"
    ],
    [
      "▁e",
      "ffect"
    ],
    [
      "▁Te",
      "ach"
    ],
    [
      "▁a",
      "ir"
    ],
    [
      "▁R",
      "ama"
    ],
    [
      "▁comple",
      "te"
    ],
    [
      ".0",
      "4"
    ],
    [
      "ou",
      "gh"
    ],
    [
      "▁ob",
      "ser"
    ],
    [
      "▁s",
      "al"
    ],
    [
      "we",
      "ll"
    ],
    [
      "▁ar",
      "g"
    ],
    [
      "▁kn",
      "e"
    ],
    [
      "▁ex",
      "ist"
    ],
    [
      "y",
      ".\"\"\""
    ],
    [
      "▁ch",
      "ief"
    ],
    [
      "ans",
      "krit"
    ],
    [
      "ir",
      "on"
    ],
    [
      "il",
      "t"
    ],
    [
      "r",
      "om"
    ],
    [
      "▁\"Wh",
      "en"
    ],
    [
      "▁sp",
      "ake"
    ],
    [
      "▁des",
      "c"
    ],
    [
      "▁key",
      "board"
    ],
    [
      "▁m",
      "ar"
    ],
    [
      "ro",
      "y"
    ],
    [
      "▁C",
      "on"
    ],
    [
      "▁do",
      "ing"
    ],
    [
      "▁m",
      "ouse"
    ],
    [
      "▁S",
      "c"
    ],
    [
      "n",
      "g"
    ],
    [
      "▁squ",
      "are"
    ],
    [
      "pl",
      "oy"
    ],
    [
      "▁c",
      "ut"
    ],
    [
      "▁re",
      "f"
    ],
    [
      "ust",
      "om"
    ],
    [
      "▁vari",
      "ables"
    ],
    [
      "▁1",
      "2"
    ],
    [
      "or",
      "row"
    ],
    [
      "▁dr",
      "ink"
    ],
    [
      "▁S",
      "al"
    ],
    [
      "▁cop",
      "y"
    ],
    [
      "▁bu",
      "ild"
    ],
    [
      "▁de",
      "li"
    ],
    [
      "▁deli",
      "ver"
    ],
    [
      "▁O",
      "pen"
    ],
    [
      "▁se",
      "ven"
    ],
    [
      "ver",
      "t"
    ],
    [
      "▁execut",
      "e"
    ],
    [
      "▁d",
      "ig"
    ],
    [
      "▁click",
      "ing"
    ],
    [
      "g",
      "round"
    ],
    [
      "N",
      "T"
    ],
    [
      "il",
      "k"
    ],
    [
      "▁hum",
      "an"
    ],
    [
      "ed",
      "i"
    ],
    [
      "▁h",
      "our"
    ],
    [
      "▁c",
      "ause"
    ],
    [
      "▁m",
      "et"
    ],
    [
      "▁j",
      "udg"
    ],
    [
      "▁f",
      "am"
    ],
    [
      "▁sh",
      "ew"
    ],
    [
      "▁p",
      "ast"
    ],
    [
      "▁G",
      "ent"
    ],
    [
      "▁\"\"\"",
      "E"
    ],
    [
      "iron",
      "ment"
    ],
    [
      "an",
      ","
    ],
    [
      "▁sh",
      "ape"
    ],
    [
      "ver",
      "n"
    ],
    [
      "ab",
      "ase"
    ],
    [
      "▁t",
      "ill"
    ],
    [
      "c",
      "ument"
    ],
    [
      "▁go",
      "ing"
    ],
    [
      "le",
      "as"
    ],
    [
      "▁le",
      "vel"
    ],
    [
      "id",
      "ed"
    ],
    [
      ":",
      "\""
    ],
    [
      "et",
      "s"
    ],
    [
      "▁T",
      "r"
    ],
    [
      "▁se",
      "nd"
    ],
    [
      "▁5",
      "."
    ],
    [
      "▁ord",
      "er"
    ],
    [
      "▁sim",
      "ilar"
    ],
    [
      "+",
      "+"
    ],
    [
      "ac",
      "e,"
    ],
    [
      "▁C",
      "ome"
    ],
    [
      "▁l",
      "ibrary"
    ],
    [
      "▁gr",
      "ace"
    ],
    [
      "▁g",
      "ot"
    ],
    [
      "▁fold",
      "er"
    ],
    [
      "um",
      "n"
    ],
    [
      "▁appear",
      "s"
    ],
    [
      "▁cor",
      "rect"
    ],
    [
      "▁part",
      "s"
    ],
    [
      "w",
      "ise"
    ],
    [
      "▁s",
      "ound"
    ],
    [
      "▁l",
      "ab"
    ],
    [
      "▁y",
      "oga"
    ],
    [
      "▁sc",
      "reen"
    ],
    [
      "th",
      "e"
    ],
    [
      "▁t",
      "urn"
    ],
    [
      "▁of",
      "fer"
    ],
    [
      "▁g",
      "u"
    ],
    [
      "▁th",
      "ird"
    ],
    [
      "c",
      "om"
    ],
    [
      "at",
      "ive"
    ],
    [
      "▁t",
      "ong"
    ],
    [
      "▁ex",
      "ce"
    ],
    [
      "▁\"N",
      "ow"
    ],
    [
      "ks",
      "cape"
    ],
    [
      "▁mak",
      "ing"
    ],
    [
      "▁p",
      "anel"
    ],
    [
      "▁beh",
      "old,"
    ],
    [
      "p",
      "r"
    ],
    [
      "▁field",
      "s"
    ],
    [
      "▁To",
      "ol"
    ],
    [
      "▁tak",
      "en"
    ],
    [
      "a",
      ".\"\"\""
    ],
    [
      "▁dest",
      "roy"
    ],
    [
      "o",
      "ck"
    ],
    [
      "▁l",
      "ot"
    ],
    [
      "▁for",
      "g"
    ],
    [
      "bs",
      "erve"
    ],
    [
      "an",
      "ch"
    ],
    [
      "--",
      "--"
    ],
    [
      "▁st",
      "or"
    ],
    [
      "▁s",
      "ong"
    ],
    [
      "▁you",
      ".\"\"\""
    ],
    [
      "▁P",
      "eter"
    ],
    [
      "a",
      "us"
    ],
    [
      "▁dem",
      "on"
    ],
    [
      "▁ex",
      "hal"
    ],
    [
      "▁requ",
      "ired"
    ],
    [
      "▁st",
      "ood"
    ],
    [
      "ic",
      "t"
    ],
    [
      "▁\"",
      "Y"
    ],
    [
      "ater",
      "ial"
    ],
    [
      "▁s",
      "ur"
    ],
    [
      "▁pe",
      "ace"
    ],
    [
      "▁ch",
      "urch"
    ],
    [
      "f",
      "ull"
    ],
    [
      "▁de",
      "velop"
    ],
    [
      "c",
      "es"
    ],
    [
      "▁em",
      "ail"
    ],
    [
      "T",
      "e"
    ],
    [
      "▁d",
      "i"
    ],
    [
      "▁project",
      "."
    ],
    [
      "…",
      "…"
    ],
    [
      "▁in",
      "itial"
    ],
    [
      "▁s",
      "id"
    ],
    [
      "▁sh",
      "ar"
    ],
    [
      "▁or",
      "ig"
    ],
    [
      "n",
      "al"
    ],
    [
      "▁sh",
      "alt"
    ],
    [
      "▁\"\"\"",
      "J"
    ],
    [
      "▁N",
      "ote"
    ],
    [
      "▁say",
      ","
    ],
    [
      "▁gr",
      "ad"
    ],
    [
      "▁g",
      "re"
    ],
    [
      "▁detail",
      "s,"
    ],
    [
      "▁p",
      "aint"
    ],
    [
      "▁sh",
      "ort"
    ],
    [
      "▁P",
      "har"
    ],
    [
      "▁M",
      "ah"
    ],
    [
      "▁act",
      "iv"
    ],
    [
      "▁b",
      "orn"
    ],
    [
      "▁K",
      "eep"
    ],
    [
      "▁per",
      "f"
    ],
    [
      "▁mult",
      "it"
    ],
    [
      "▁f",
      "ul"
    ],
    [
      "▁struct",
      "ure"
    ],
    [
      "▁st",
      "ren"
    ],
    [
      "s",
      "p"
    ],
    [
      "-",
      "b"
    ],
    [
      "b",
      "t"
    ],
    [
      "▁Jesus",
      ","
    ],
    [
      "▁In",
      "kscape"
    ],
    [
      "▁co",
      "ok"
    ],
    [
      "s",
      "or"
    ],
    [
      "▁Cl",
      "ose"
    ],
    [
      "ic",
      "e,"
    ],
    [
      "▁wor",
      "ship"
    ],
    [
      "I",
      "ON"
    ],
    [
      "▁\"",
      "\"\"\""
    ],
    [
      "ir",
      "m"
    ],
    [
      "m",
      "ail"
    ],
    [
      "▁fe",
      "ll"
    ],
    [
      "▁a",
      "ut"
    ],
    [
      "▁le",
      "ad"
    ],
    [
      "s",
      "poken"
    ],
    [
      "▁f",
      "il"
    ],
    [
      "▁cle",
      "ar"
    ],
    [
      "▁m",
      "on"
    ],
    [
      "▁fe",
      "ar"
    ],
    [
      "▁B",
      "re"
    ],
    [
      "▁G",
      "r"
    ],
    [
      "▁ar",
      "ms"
    ],
    [
      "▁clas",
      "s."
    ],
    [
      "▁t",
      "ree"
    ],
    [
      "▁s",
      "ize"
    ],
    [
      "▁se",
      "par"
    ],
    [
      "ro",
      "ss"
    ],
    [
      "▁d",
      "well"
    ],
    [
      "▁ra",
      "ise"
    ],
    [
      "-tutorial",
      ".org"
    ],
    [
      "▁n",
      "ight"
    ],
    [
      "th",
      "iti"
    ],
    [
      "▁f",
      "ree"
    ],
    [
      "e",
      "h"
    ],
    [
      "▁ob",
      "t"
    ],
    [
      "▁ro",
      "ot"
    ],
    [
      "▁R",
      "am"
    ],
    [
      "ol",
      "k"
    ],
    [
      "▁1",
      "1"
    ],
    [
      "▁o",
      "ld"
    ],
    [
      "▁\"I",
      "t"
    ],
    [
      "▁C",
      "omp"
    ],
    [
      "▁add",
      "ress"
    ],
    [
      "▁are",
      "a"
    ],
    [
      "O",
      "ne"
    ],
    [
      "▁com",
      "put"
    ],
    [
      "▁tru",
      "th"
    ],
    [
      "▁great",
      "er"
    ],
    [
      "▁c",
      "r"
    ],
    [
      "▁way",
      ","
    ],
    [
      "▁f",
      "in"
    ],
    [
      "▁terminal",
      "."
    ],
    [
      "▁us",
      ","
    ],
    [
      "ri",
      "ption"
    ],
    [
      "▁ask",
      "ed"
    ],
    [
      "▁tru",
      "e"
    ],
    [
      "▁gr",
      "ow"
    ],
    [
      "▁get",
      "s"
    ],
    [
      "▁belie",
      "ved"
    ],
    [
      "▁n",
      "orm"
    ],
    [
      "ous",
      "and"
    ],
    [
      "x",
      "y"
    ],
    [
      "▁dev",
      "il"
    ],
    [
      "▁mo",
      "le"
    ],
    [
      "▁open",
      "s."
    ],
    [
      "▁int",
      "eg"
    ],
    [
      "▁l",
      "and"
    ],
    [
      "u",
      "g"
    ],
    [
      "▁default",
      ","
    ],
    [
      "is",
      "e,"
    ],
    [
      "▁man",
      "if"
    ],
    [
      "▁ind",
      "ex"
    ],
    [
      "▁p",
      "as"
    ],
    [
      "▁Phar",
      "ise"
    ],
    [
      "▁t",
      "it"
    ],
    [
      "▁work",
      "sh"
    ],
    [
      "▁com",
      "ing"
    ],
    [
      "m",
      "ark"
    ],
    [
      "▁f",
      "ather"
    ],
    [
      "ation",
      "al"
    ],
    [
      "en",
      "thes"
    ],
    [
      "ath",
      "er,"
    ],
    [
      "pe",
      "nd"
    ],
    [
      "s",
      ":"
    ],
    [
      "▁b",
      "apt"
    ],
    [
      "▁follow",
      "ed"
    ],
    [
      "A",
      "MP"
    ],
    [
      "AMP",
      "P"
    ],
    [
      "▁e",
      "d"
    ],
    [
      "▁ele",
      "ments"
    ],
    [
      "▁env",
      "ironment"
    ],
    [
      "▁wi",
      "d"
    ],
    [
      "▁FrontAccount",
      "ing"
    ],
    [
      "▁do",
      "cument"
    ],
    [
      "ang",
      "le"
    ],
    [
      "or",
      "ies"
    ],
    [
      "▁\"\"\"Th",
      "erefore"
    ],
    [
      "l",
      "f"
    ],
    [
      "ard",
      "en"
    ],
    [
      "h",
      "er"
    ],
    [
      "▁sim",
      "ple"
    ],
    [
      "in",
      "ed"
    ],
    [
      "a",
      "ir"
    ],
    [
      "i",
      "pp"
    ],
    [
      "▁brows",
      "er"
    ],
    [
      "ab",
      "b"
    ],
    [
      "▁b",
      "enef"
    ],
    [
      "▁vo",
      "ice"
    ],
    [
      "▁dra",
      "g"
    ],
    [
      "▁in",
      "hal"
    ],
    [
      "▁work",
      "ing"
    ],
    [
      "▁thou",
      "ght"
    ],
    [
      "▁partic",
      "ular"
    ],
    [
      "▁using",
      ":"
    ],
    [
      "ant",
      "s"
    ],
    [
      "▁mou",
      "th"
    ],
    [
      "▁r",
      "ot"
    ],
    [
      "▁tutorial",
      "s"
    ],
    [
      "▁to",
      "ld"
    ],
    [
      "▁L",
      "a"
    ],
    [
      "▁for",
      "ward"
    ],
    [
      "▁O",
      "bserve"
    ],
    [
      "▁rem",
      "ove"
    ],
    [
      "▁Arjun",
      "a"
    ],
    [
      "▁field",
      ","
    ],
    [
      "▁so",
      "ft"
    ],
    [
      "▁par",
      "enthes"
    ],
    [
      "▁X",
      "AMPP"
    ],
    [
      "▁bre",
      "ad"
    ],
    [
      "▁incre",
      "ase"
    ],
    [
      "▁P",
      "re"
    ],
    [
      "▁con",
      "n"
    ],
    [
      "t",
      "ings"
    ],
    [
      "▁Man",
      "ag"
    ],
    [
      "al",
      "ance"
    ],
    [
      "▁see",
      "k"
    ],
    [
      "ate",
      "ly"
    ],
    [
      "rib",
      "ut"
    ],
    [
      "▁\"\"\"",
      "F"
    ],
    [
      "▁worksh",
      "ops"
    ],
    [
      "'",
      ".\""
    ],
    [
      "▁see",
      ","
    ],
    [
      "▁comm",
      "on"
    ],
    [
      "▁m",
      "aterial"
    ],
    [
      "▁O",
      "S"
    ],
    [
      "▁c",
      "ase"
    ],
    [
      "ence",
      ","
    ],
    [
      "▁o",
      "th"
    ],
    [
      "▁say",
      "ing"
    ],
    [
      "▁th",
      "igh"
    ],
    [
      "ol",
      "og"
    ],
    [
      "re",
      "me"
    ],
    [
      "spoken",
      "-tutorial.org"
    ],
    [
      "▁S",
      "im"
    ],
    [
      "▁th",
      "ousand"
    ],
    [
      "\"",
      "."
    ],
    [
      "o",
      "int"
    ],
    [
      "d",
      "r"
    ],
    [
      "an",
      "a."
    ],
    [
      "▁us",
      "ers"
    ],
    [
      "A",
      "T"
    ],
    [
      "▁f",
      "ace"
    ],
    [
      "▁b",
      "est"
    ],
    [
      "av",
      "ig"
    ],
    [
      "▁pl",
      "us"
    ],
    [
      "▁fill",
      "ed"
    ],
    [
      "▁Wh",
      "en"
    ],
    [
      "▁poss",
      "ible"
    ],
    [
      "▁A",
      "ccount"
    ],
    [
      "▁Re",
      "peat"
    ],
    [
      "es",
      "h"
    ],
    [
      "ment",
      ","
    ],
    [
      "▁Teach",
      "er"
    ],
    [
      "▁count",
      "ry"
    ],
    [
      "▁come",
      "th"
    ],
    [
      "▁wit",
      "ness"
    ],
    [
      "l",
      "ight"
    ],
    [
      "▁H",
      "oly"
    ],
    [
      "▁mean",
      "ing"
    ],
    [
      "▁unt",
      "il"
    ],
    [
      "▁ne",
      "ar"
    ],
    [
      "kt",
      "op"
    ],
    [
      "▁ch",
      "est"
    ],
    [
      "▁de",
      "c"
    ],
    [
      "▁c",
      "are"
    ],
    [
      "▁re",
      "ct"
    ],
    [
      "pl",
      "oad"
    ],
    [
      "▁m",
      "ask"
    ],
    [
      "w",
      "or"
    ],
    [
      "▁again",
      ","
    ],
    [
      "▁sl",
      "owly"
    ],
    [
      "▁manif",
      "est"
    ],
    [
      "▁u",
      "nd"
    ],
    [
      "a",
      "e"
    ],
    [
      "▁user",
      "name"
    ],
    [
      "re",
      "am"
    ],
    [
      "▁\"\"\"",
      "R"
    ],
    [
      "▁demon",
      "str"
    ],
    [
      "▁wi",
      "f"
    ],
    [
      "▁h",
      "o"
    ],
    [
      "j",
      "o"
    ],
    [
      "▁Th",
      "ou"
    ],
    [
      "d",
      "em"
    ],
    [
      "ie",
      "ld"
    ],
    [
      "▁M",
      "ake"
    ],
    [
      "▁ful",
      "f"
    ],
    [
      "rit",
      "e"
    ],
    [
      "r",
      "odu"
    ],
    [
      "▁Ad",
      "min"
    ],
    [
      "▁O",
      "K"
    ],
    [
      "▁f",
      "inal"
    ],
    [
      "▁S",
      "o,"
    ],
    [
      "ot",
      "ion"
    ],
    [
      "▁thing",
      "s,"
    ],
    [
      "at",
      "a"
    ],
    [
      "▁sy",
      "n"
    ],
    [
      "▁muscl",
      "es"
    ],
    [
      "▁c",
      "ell"
    ],
    [
      "▁\"\"\"",
      "G"
    ],
    [
      "▁applic",
      "ation"
    ],
    [
      "iv",
      "es"
    ],
    [
      "R",
      "L"
    ],
    [
      "▁S",
      "er"
    ],
    [
      "▁Wh",
      "y"
    ],
    [
      "ab",
      "h"
    ],
    [
      "al",
      "se"
    ],
    [
      "ac",
      "ity"
    ],
    [
      "-",
      "s"
    ],
    [
      "▁r",
      "ul"
    ],
    [
      "▁O",
      "n"
    ],
    [
      "▁ent",
      "ire"
    ],
    [
      "▁Pr",
      "an"
    ],
    [
      "w",
      "are"
    ],
    [
      "▁g",
      "reen"
    ],
    [
      "in",
      "ue"
    ],
    [
      "ra",
      "ph"
    ],
    [
      "▁so",
      "il"
    ],
    [
      "rib",
      "e"
    ],
    [
      "▁al",
      "ong"
    ],
    [
      "▁ser",
      "v"
    ],
    [
      "g",
      "ed"
    ],
    [
      "▁so",
      ","
    ],
    [
      "▁bl",
      "ess"
    ],
    [
      "▁dis",
      "eas"
    ],
    [
      "▁vis",
      "ible"
    ],
    [
      "▁f",
      "ast"
    ],
    [
      "▁n",
      "on"
    ],
    [
      "▁go",
      "spe"
    ],
    [
      "▁gospe",
      "l"
    ],
    [
      "▁say",
      "s"
    ],
    [
      "▁s",
      "le"
    ],
    [
      "▁su",
      "re"
    ],
    [
      "▁r",
      "ich"
    ],
    [
      "▁se",
      "lf"
    ],
    [
      "▁world",
      ","
    ],
    [
      "▁id",
      "ent"
    ],
    [
      "▁link",
      "."
    ],
    [
      "e",
      "et"
    ],
    [
      "▁col",
      "umn"
    ],
    [
      "▁It",
      "em"
    ],
    [
      "▁f",
      "ig"
    ],
    [
      "▁ne",
      "ver"
    ],
    [
      "c",
      "ed"
    ],
    [
      "▁method",
      "s"
    ],
    [
      "ic",
      "s"
    ],
    [
      "▁br",
      "ings"
    ],
    [
      "ow",
      "ed"
    ],
    [
      "tt",
      "p"
    ],
    [
      "▁\"\"\"A",
      "s"
    ],
    [
      "▁prot",
      "ect"
    ],
    [
      "ose",
      ","
    ],
    [
      "▁to",
      ":"
    ],
    [
      "▁la",
      "id"
    ],
    [
      "▁m",
      "ilk"
    ],
    [
      "▁H",
      "is"
    ],
    [
      "▁ex",
      "erc"
    ],
    [
      "▁s",
      "ou"
    ],
    [
      "▁cond",
      "u"
    ],
    [
      "▁P",
      "h"
    ],
    [
      "ci",
      "ent"
    ],
    [
      "▁cur",
      "ly"
    ],
    [
      "▁e",
      "ld"
    ],
    [
      "ent",
      "r"
    ],
    [
      "▁ch",
      "ari"
    ],
    [
      "ain",
      ","
    ],
    [
      "▁j",
      "oy"
    ],
    [
      "uth",
      "or"
    ],
    [
      "▁\"\"\"",
      "C"
    ],
    [
      "at",
      "ter"
    ],
    [
      "▁menu",
      "."
    ],
    [
      "▁p",
      "ub"
    ],
    [
      "▁P",
      "at"
    ],
    [
      "ir",
      "t"
    ],
    [
      "▁G",
      "host"
    ],
    [
      "▁\"\"\"Th",
      "is"
    ],
    [
      "m",
      "an"
    ],
    [
      "ing",
      ".\"\"\""
    ],
    [
      "▁typ",
      "ing"
    ],
    [
      "▁categ",
      "ory"
    ],
    [
      "▁\"Y",
      "ou"
    ],
    [
      "▁t",
      "en"
    ],
    [
      "▁perf",
      "ect"
    ],
    [
      "er",
      "n"
    ],
    [
      "▁s",
      "ol"
    ],
    [
      "▁ro",
      "ll"
    ],
    [
      "v",
      "es,"
    ],
    [
      "▁wh",
      "y"
    ],
    [
      "n",
      "ow"
    ],
    [
      "▁D",
      "ra"
    ],
    [
      "▁dou",
      "bt"
    ],
    [
      "▁st",
      "retch"
    ],
    [
      "-",
      "box"
    ],
    [
      "▁support",
      "ed"
    ],
    [
      "ic",
      "e."
    ],
    [
      "▁tru",
      "st"
    ],
    [
      "▁cert",
      "ific"
    ],
    [
      "ar",
      "n"
    ],
    [
      "▁1",
      "6"
    ],
    [
      "▁el",
      "se"
    ],
    [
      "▁again",
      "."
    ],
    [
      "▁cont",
      "act"
    ],
    [
      "un",
      "k"
    ],
    [
      "▁step",
      "s"
    ],
    [
      "▁bec",
      "omes"
    ],
    [
      "▁g",
      "arden"
    ],
    [
      "▁Ch",
      "eck"
    ],
    [
      "▁to",
      "o"
    ],
    [
      "Te",
      "X"
    ],
    [
      "▁stren",
      "gth"
    ],
    [
      "▁c",
      "as"
    ],
    [
      "▁be",
      "ar"
    ],
    [
      "▁fe",
      "el"
    ],
    [
      "▁Se",
      "arch"
    ],
    [
      "▁key",
      "word"
    ],
    [
      "▁h",
      "ttp"
    ],
    [
      "▁men",
      ","
    ],
    [
      "R",
      "D"
    ],
    [
      "▁f",
      "ac"
    ],
    [
      "▁G",
      "ener"
    ],
    [
      "▁U",
      "n"
    ],
    [
      "▁teach",
      "er"
    ],
    [
      "▁file",
      ".\""
    ],
    [
      "▁book",
      "."
    ],
    [
      "o",
      "om"
    ],
    [
      "▁pro",
      "f"
    ],
    [
      "▁m",
      "erc"
    ],
    [
      "f",
      "ort"
    ],
    [
      "▁am",
      "ount"
    ],
    [
      "▁corn",
      "er"
    ],
    [
      "▁J",
      "ud"
    ],
    [
      "t",
      "ion"
    ],
    [
      "▁V",
      "y"
    ],
    [
      "▁Y",
      "og"
    ],
    [
      "▁for",
      "est"
    ],
    [
      "▁ke",
      "pt"
    ],
    [
      "▁A",
      "pp"
    ],
    [
      "▁R",
      "un"
    ],
    [
      "o",
      "b"
    ],
    [
      "▁happ",
      "en"
    ],
    [
      "in",
      "e,"
    ],
    [
      "ment",
      "."
    ],
    [
      "ME",
      "I"
    ],
    [
      "MEI",
      "CT"
    ],
    [
      "▁A",
      "g"
    ],
    [
      "l",
      "ok"
    ],
    [
      "▁method",
      "."
    ],
    [
      "▁de",
      "ep"
    ],
    [
      "ud",
      "d"
    ],
    [
      "▁requ",
      "ire"
    ],
    [
      "▁organis",
      "ms"
    ],
    [
      "▁com",
      "e,"
    ],
    [
      "▁obser",
      "ve"
    ],
    [
      "▁s",
      "old"
    ],
    [
      "▁o",
      "cc"
    ],
    [
      "▁happ",
      "ens"
    ],
    [
      "un",
      "ch"
    ],
    [
      "▁f",
      "alse"
    ],
    [
      "▁question",
      "s"
    ],
    [
      "▁incl",
      "ud"
    ],
    [
      "▁h",
      "oly"
    ],
    [
      "ak",
      "sh"
    ],
    [
      "▁heav",
      "en,"
    ],
    [
      "▁tw",
      "el"
    ],
    [
      "▁\"\"\"",
      "•"
    ],
    [
      "▁p",
      "h"
    ],
    [
      "▁charact",
      "er"
    ],
    [
      "s",
      "ert"
    ],
    [
      "▁nam",
      "es"
    ],
    [
      "▁etc",
      "."
    ],
    [
      "▁A",
      "fter"
    ],
    [
      "▁dat",
      "abase"
    ],
    [
      "on",
      "s"
    ],
    [
      "▁s",
      "ac"
    ],
    [
      "cus",
      "s"
    ],
    [
      "▁str",
      "ong"
    ],
    [
      "▁b",
      "ig"
    ],
    [
      "▁up",
      ","
    ],
    [
      "▁anim",
      "als"
    ],
    [
      "le",
      "an"
    ],
    [
      "▁co",
      "ll"
    ],
    [
      "▁Q",
      "u"
    ],
    [
      "▁qu",
      "ick"
    ],
    [
      "▁qu",
      "al"
    ],
    [
      "E",
      "R"
    ],
    [
      "g",
      "er"
    ],
    [
      "▁L",
      "e"
    ],
    [
      ")",
      ".\"\"\""
    ],
    [
      "an",
      "eous"
    ],
    [
      "l",
      "s"
    ],
    [
      "/",
      "/"
    ],
    [
      "▁S",
      "thiti"
    ],
    [
      "ang",
      "u"
    ],
    [
      "▁st",
      "op"
    ],
    [
      "▁page",
      ".\""
    ],
    [
      "▁norm",
      "al"
    ],
    [
      "▁prop",
      "er"
    ],
    [
      "s",
      "es"
    ],
    [
      "▁S",
      "anskrit"
    ],
    [
      "▁n",
      "ut"
    ],
    [
      "▁S",
      "ub"
    ],
    [
      "▁ex",
      "am"
    ],
    [
      "full",
      "y"
    ],
    [
      "▁p",
      "leas"
    ],
    [
      "▁command",
      "."
    ],
    [
      "▁V",
      "ed"
    ],
    [
      "▁R",
      "aj"
    ],
    [
      "▁wom",
      "an"
    ],
    [
      "▁\"\"\"Wh",
      "o"
    ],
    [
      "▁gl",
      "or"
    ],
    [
      "▁cont",
      "ains"
    ],
    [
      "us",
      "b"
    ],
    [
      "usb",
      "and"
    ],
    [
      "▁ap",
      "ost"
    ],
    [
      "▁B",
      "rah"
    ],
    [
      "▁twel",
      "ve"
    ],
    [
      "ation",
      ".\"\"\""
    ],
    [
      "▁use",
      "ful"
    ],
    [
      "▁G",
      "al"
    ],
    [
      "▁open",
      "ed"
    ],
    [
      "▁I",
      "nter"
    ],
    [
      "▁ele",
      "ment"
    ],
    [
      "I",
      "N"
    ],
    [
      "ever",
      ","
    ],
    [
      "▁Sal",
      "es"
    ],
    [
      "▁imm",
      "edi"
    ],
    [
      "r",
      "ight"
    ],
    [
      "▁S",
      "ome"
    ],
    [
      "▁thou",
      "gh"
    ],
    [
      "▁f",
      "ar"
    ],
    [
      "▁w",
      "is"
    ],
    [
      "▁\"U",
      "nder"
    ],
    [
      "▁me",
      "."
    ],
    [
      "▁n",
      "ow,"
    ],
    [
      "▁G",
      "I"
    ],
    [
      "▁p",
      "ot"
    ],
    [
      "▁tak",
      "es"
    ],
    [
      "▁t",
      "ag"
    ],
    [
      "m",
      "ission"
    ],
    [
      "▁cont",
      "inu"
    ],
    [
      "A",
      "S"
    ],
    [
      "▁M",
      "os"
    ],
    [
      "▁th",
      "ine"
    ],
    [
      "▁N",
      "et"
    ],
    [
      "▁\"C",
      "lick"
    ],
    [
      "▁\"\"\"J",
      "esus"
    ],
    [
      "▁param",
      "et"
    ],
    [
      "ist",
      "s"
    ],
    [
      "in",
      "ter"
    ],
    [
      "▁Bre",
      "ath"
    ],
    [
      "▁\"\"\"Th",
      "at"
    ],
    [
      "▁d",
      "en"
    ],
    [
      "▁page",
      ","
    ],
    [
      "ud",
      "ge"
    ],
    [
      ")",
      ","
    ],
    [
      "▁un",
      "c"
    ],
    [
      "▁earli",
      "er"
    ],
    [
      "▁h",
      "usband"
    ],
    [
      "▁l",
      "est"
    ],
    [
      "▁energ",
      "y"
    ],
    [
      "▁stud",
      "ents"
    ],
    [
      "▁re",
      "le"
    ],
    [
      ":",
      "//"
    ],
    [
      "ri",
      "es"
    ],
    [
      "hy",
      "s"
    ],
    [
      "▁cons",
      "id"
    ],
    [
      "vern",
      "ment"
    ],
    [
      "▁press",
      "ing"
    ],
    [
      "▁co",
      "ver"
    ],
    [
      "or",
      ","
    ],
    [
      "-",
      "up"
    ],
    [
      "▁numb",
      "ers"
    ],
    [
      "▁incl",
      "ude"
    ],
    [
      "▁\"\"\"",
      "T"
    ],
    [
      "g",
      "o"
    ],
    [
      "▁se",
      "a"
    ],
    [
      "▁arg",
      "ument"
    ],
    [
      "▁beg",
      "an"
    ],
    [
      "▁imp",
      "ro"
    ],
    [
      "▁pur",
      "p"
    ],
    [
      "e",
      "ch"
    ],
    [
      "▁log",
      "in"
    ],
    [
      "at",
      "i"
    ],
    [
      "H",
      "RD"
    ],
    [
      "▁m",
      "ission"
    ],
    [
      "▁bar",
      ","
    ],
    [
      "▁re",
      "jo"
    ],
    [
      "ver",
      "y"
    ],
    [
      "▁y",
      "og"
    ],
    [
      "um",
      "ents"
    ],
    [
      "▁E",
      "n"
    ],
    [
      "▁R",
      "el"
    ],
    [
      "re",
      "w"
    ],
    [
      "▁it",
      "'s"
    ],
    [
      "▁\"\"\"Wh",
      "erefore"
    ],
    [
      "f",
      "or"
    ],
    [
      "ak",
      "a"
    ],
    [
      "▁who",
      "soever"
    ],
    [
      "▁s",
      "ens"
    ],
    [
      "j",
      "oy"
    ],
    [
      "▁Sw",
      "itch"
    ],
    [
      "▁key",
      "s"
    ],
    [
      "▁C",
      "ur"
    ],
    [
      "at",
      "ures"
    ],
    [
      "l",
      "n"
    ],
    [
      "age",
      "."
    ],
    [
      "▁re",
      "v"
    ],
    [
      "ch",
      "n"
    ],
    [
      "▁option",
      "."
    ],
    [
      "ar",
      "v"
    ],
    [
      "▁ser",
      "ver"
    ],
    [
      "itt",
      "ing"
    ],
    [
      "▁multi",
      "ple"
    ],
    [
      "al",
      "a"
    ],
    [
      "▁a",
      "ge"
    ],
    [
      "▁e",
      "ither"
    ],
    [
      "ress",
      "ion"
    ],
    [
      "▁no",
      "str"
    ],
    [
      "▁nostr",
      "il"
    ],
    [
      "a",
      "w"
    ],
    [
      "▁cod",
      "e."
    ],
    [
      "▁h",
      "on"
    ],
    [
      "▁g",
      "ift"
    ],
    [
      "▁rem",
      "o"
    ],
    [
      "▁Ch",
      "o"
    ],
    [
      "om",
      "atic"
    ],
    [
      "▁F",
      "ather,"
    ],
    [
      "▁kn",
      "ew"
    ],
    [
      "▁all",
      ","
    ],
    [
      "as",
      "es"
    ],
    [
      "▁rele",
      "vant"
    ],
    [
      "it",
      "ed"
    ],
    [
      "▁M",
      "HRD"
    ],
    [
      "og",
      "en"
    ],
    [
      "▁dis",
      "cuss"
    ],
    [
      "▁\"",
      "R"
    ],
    [
      "▁decl",
      "ared"
    ],
    [
      "▁n",
      "atur"
    ],
    [
      "▁see",
      "ing"
    ],
    [
      "▁run",
      "ning"
    ],
    [
      "▁O",
      "per"
    ],
    [
      "▁f",
      "ur"
    ],
    [
      "▁do",
      "ct"
    ],
    [
      "▁clo",
      "th"
    ],
    [
      "▁Y",
      "e"
    ],
    [
      "▁com",
      "fort"
    ],
    [
      "▁discipl",
      "es,"
    ],
    [
      "▁B",
      "l"
    ],
    [
      "▁\"B",
      "y"
    ],
    [
      "▁med",
      "it"
    ],
    [
      "▁T",
      "ext"
    ],
    [
      "▁\"F",
      "irst"
    ],
    [
      "▁g",
      "ar"
    ],
    [
      "▁l",
      "ar"
    ],
    [
      "anc",
      "es"
    ],
    [
      "▁reg",
      "ard"
    ],
    [
      "▁kind",
      "ness"
    ],
    [
      "▁p",
      "ackage"
    ],
    [
      "▁him",
      "."
    ],
    [
      "▁\"\"\"Th",
      "ere"
    ],
    [
      "▁practic",
      "es"
    ],
    [
      "▁w",
      "a"
    ],
    [
      "▁Go",
      "vernment"
    ],
    [
      "▁b",
      "ird"
    ],
    [
      "▁m",
      "ention"
    ],
    [
      "t",
      "o"
    ],
    [
      "ru",
      "ction"
    ],
    [
      "▁sp",
      "read"
    ],
    [
      "▁pre",
      "fer"
    ],
    [
      "▁cont",
      "ent"
    ],
    [
      "▁st",
      "ory"
    ],
    [
      "▁up",
      "."
    ],
    [
      "▁t",
      "alk"
    ],
    [
      "▁M",
      "o"
    ],
    [
      "udg",
      "et"
    ],
    [
      "▁charact",
      "ers"
    ],
    [
      "2",
      "."
    ],
    [
      "▁\"B",
      "ut"
    ],
    [
      "lo",
      "ck"
    ],
    [
      "d",
      "f"
    ],
    [
      "mb",
      "ol"
    ],
    [
      "▁st",
      "ore"
    ],
    [
      "▁S",
      "at"
    ],
    [
      "▁br",
      "ight"
    ],
    [
      "▁righteous",
      "ness"
    ],
    [
      "ou",
      "n"
    ],
    [
      "av",
      "a."
    ],
    [
      "og",
      "le"
    ],
    [
      "▁\"\"\"",
      "To"
    ],
    [
      "▁p",
      "ow"
    ],
    [
      "k",
      "sh"
    ],
    [
      "is",
      "m"
    ],
    [
      "▁be",
      "nd"
    ],
    [
      "▁pr",
      "a"
    ],
    [
      "▁that",
      "."
    ],
    [
      "▁http",
      "://"
    ],
    [
      "▁T",
      "yp"
    ],
    [
      "▁GI",
      "MP"
    ],
    [
      "0",
      "1"
    ],
    [
      "▁qu",
      "iz"
    ],
    [
      "▁link",
      ".\""
    ],
    [
      "▁on",
      "line"
    ],
    [
      "▁tre",
      "es"
    ],
    [
      "▁rel",
      "ated"
    ],
    [
      "▁clo",
      "sing"
    ],
    [
      "▁deliver",
      "ed"
    ],
    [
      "▁be",
      "ast"
    ],
    [
      "▁Wh",
      "ich"
    ],
    [
      "▁S",
      "ur"
    ],
    [
      "▁lin",
      "e,"
    ],
    [
      "▁conn",
      "ect"
    ],
    [
      "▁fulf",
      "ill"
    ],
    [
      "▁bo",
      "y"
    ],
    [
      "ar",
      "as"
    ],
    [
      "f",
      "ig"
    ],
    [
      "ity",
      "."
    ],
    [
      "▁fo",
      "ot"
    ],
    [
      "▁con",
      "v"
    ],
    [
      "▁f",
      "olk"
    ],
    [
      "▁n",
      "one"
    ],
    [
      "▁d",
      "uring"
    ],
    [
      "▁r",
      "ag"
    ],
    [
      "is",
      "es"
    ],
    [
      "▁wis",
      "dom"
    ],
    [
      "▁chari",
      "ot"
    ],
    [
      "▁re",
      "ach"
    ],
    [
      "-",
      "in"
    ],
    [
      "r",
      "ut"
    ],
    [
      "ert",
      "ies"
    ],
    [
      "▁conc",
      "entr"
    ],
    [
      "▁v",
      "ill"
    ],
    [
      "▁ab",
      "dom"
    ],
    [
      "▁install",
      "ed"
    ],
    [
      "▁begin",
      "ning"
    ],
    [
      "▁jo",
      "int"
    ],
    [
      "g",
      "n"
    ],
    [
      "▁year",
      "s"
    ],
    [
      "▁MHRD",
      ","
    ],
    [
      "▁rememb",
      "er"
    ],
    [
      "▁C",
      "++"
    ],
    [
      "▁S",
      "un"
    ],
    [
      "▁al",
      "ign"
    ],
    [
      "▁Is",
      "ra"
    ],
    [
      "▁Isra",
      "el"
    ],
    [
      "u",
      "ce"
    ],
    [
      "an",
      "am"
    ],
    [
      "▁ac",
      "cept"
    ],
    [
      "▁h",
      "or"
    ],
    [
      "▁A",
      "v"
    ],
    [
      "▁D",
      "is"
    ],
    [
      "ar",
      "th"
    ],
    [
      "▁W",
      "rite"
    ],
    [
      "▁\"\"\"",
      "V"
    ],
    [
      "in",
      "ce"
    ],
    [
      "ra",
      "."
    ],
    [
      "▁g",
      "ather"
    ],
    [
      "o.",
      "txt"
    ],
    [
      "N",
      "D"
    ],
    [
      "▁ne",
      "cess"
    ],
    [
      "b",
      "on"
    ],
    [
      "á",
      "s"
    ],
    [
      "y",
      "th"
    ],
    [
      "o",
      "id"
    ],
    [
      "▁v",
      "ert"
    ],
    [
      "▁j",
      "udge"
    ],
    [
      "in",
      "e."
    ],
    [
      "at",
      "ors"
    ],
    [
      "rah",
      "am"
    ],
    [
      "um",
      "c"
    ],
    [
      "▁\"\"\"",
      "K"
    ],
    [
      "▁example",
      ","
    ],
    [
      "ar",
      ","
    ],
    [
      "i",
      "an"
    ],
    [
      "p",
      "ort"
    ],
    [
      "▁aut",
      "omatic"
    ],
    [
      "▁l",
      "ower"
    ],
    [
      "▁l",
      "ord"
    ],
    [
      "▁C",
      "ol"
    ],
    [
      "▁to",
      "wards"
    ],
    [
      "▁i.",
      "e."
    ],
    [
      "▁him",
      ":"
    ],
    [
      "▁in",
      "c"
    ],
    [
      "▁\"And",
      ","
    ],
    [
      "▁look",
      "s"
    ],
    [
      "▁pub",
      "lic"
    ],
    [
      "al",
      ","
    ],
    [
      "e",
      "k"
    ],
    [
      "▁P",
      "ract"
    ],
    [
      "▁sac",
      "r"
    ],
    [
      "am",
      "b"
    ],
    [
      "▁Manag",
      "er"
    ],
    [
      "▁c",
      "re"
    ],
    [
      "▁leav",
      "es"
    ],
    [
      "pl",
      "es"
    ],
    [
      "▁colour",
      "s"
    ],
    [
      "th",
      "y"
    ],
    [
      "▁A",
      "ss"
    ],
    [
      "om",
      "et"
    ],
    [
      "ad",
      "d"
    ],
    [
      "▁bre",
      "ak"
    ],
    [
      "▁c",
      "ross"
    ],
    [
      "v",
      "ed,"
    ],
    [
      "▁br",
      "anch"
    ],
    [
      "▁semicolon",
      ".\""
    ],
    [
      "▁Ab",
      "raham"
    ],
    [
      "▁re",
      "ason"
    ],
    [
      "▁H",
      "er"
    ],
    [
      "▁su",
      "p"
    ],
    [
      "▁circ",
      "le"
    ],
    [
      "▁Des",
      "ktop"
    ],
    [
      "▁po",
      "ll"
    ],
    [
      "▁H",
      "im"
    ],
    [
      "▁reg",
      "ion"
    ],
    [
      "▁open",
      "ing"
    ],
    [
      "ess",
      "ion"
    ],
    [
      "um",
      "an"
    ],
    [
      "an",
      "e"
    ],
    [
      "▁s",
      "ix"
    ],
    [
      "▁pas",
      "s,"
    ],
    [
      "▁l",
      "angu"
    ],
    [
      "▁wat",
      "er,"
    ],
    [
      "▁e",
      "st"
    ],
    [
      "ath",
      "a"
    ],
    [
      "▁te",
      "chn"
    ],
    [
      "▁be",
      "ings"
    ],
    [
      "▁U",
      "ser"
    ],
    [
      "▁h",
      "y"
    ],
    [
      "▁Fr",
      "om"
    ],
    [
      "E",
      "ST"
    ],
    [
      "u",
      "le"
    ],
    [
      "▁th",
      "read"
    ],
    [
      "▁p",
      "ort"
    ],
    [
      "त",
      "्"
    ],
    [
      "▁h",
      "ard"
    ],
    [
      "i",
      "es,"
    ],
    [
      "D",
      "etail"
    ],
    [
      "▁c",
      "ustom"
    ],
    [
      "▁con",
      "vert"
    ],
    [
      "ent",
      "ly"
    ],
    [
      "▁ho",
      "pe"
    ],
    [
      "'",
      "ll"
    ],
    [
      "rib",
      "es"
    ],
    [
      "▁Sc",
      "roll"
    ],
    [
      "▁summariz",
      "es"
    ],
    [
      "i",
      "as"
    ],
    [
      "▁out",
      ","
    ],
    [
      "▁tim",
      "es"
    ],
    [
      "Q",
      "L"
    ],
    [
      "▁Pl",
      "ace"
    ],
    [
      "▁p",
      "hys"
    ],
    [
      "▁orig",
      "inal"
    ],
    [
      "aint",
      "ain"
    ],
    [
      "त",
      "ि"
    ],
    [
      "▁\"",
      "P"
    ],
    [
      "▁tool",
      "."
    ],
    [
      "h",
      "i"
    ],
    [
      "▁appear",
      "s."
    ],
    [
      "ploy",
      "ee"
    ],
    [
      "▁S",
      "it"
    ],
    [
      "▁them",
      "selves"
    ],
    [
      "▁s",
      "ight"
    ],
    [
      "▁me",
      "at"
    ],
    [
      "sel",
      "ves,"
    ],
    [
      "▁m",
      "ach"
    ],
    [
      "▁\"F",
      "rom"
    ],
    [
      "▁f",
      "ath"
    ],
    [
      "▁oth",
      "ers"
    ],
    [
      "▁ne",
      "ck"
    ],
    [
      "▁fl",
      "ower"
    ],
    [
      "av",
      "id"
    ],
    [
      "▁giv",
      "ing"
    ],
    [
      "ult",
      "aneous"
    ],
    [
      "▁dev",
      "ote"
    ],
    [
      "▁h",
      "arm"
    ],
    [
      "▁tit",
      "le"
    ],
    [
      "▁F",
      "irst"
    ],
    [
      "▁l",
      "ater"
    ],
    [
      "▁certific",
      "ates"
    ],
    [
      "al",
      "i"
    ],
    [
      "▁indic",
      "ates"
    ],
    [
      "ION",
      "S"
    ],
    [
      "ic",
      "es"
    ],
    [
      "▁min",
      "us"
    ],
    [
      "▁Christ",
      ".\"\"\""
    ],
    [
      "▁B",
      "u"
    ],
    [
      "▁respect",
      "ive"
    ],
    [
      "▁th",
      "r"
    ],
    [
      "▁down",
      ","
    ],
    [
      "▁it",
      "self"
    ],
    [
      "▁sy",
      "mbol"
    ],
    [
      "on",
      "."
    ],
    [
      "▁website",
      ".\""
    ],
    [
      "ence",
      "."
    ],
    [
      "▁m",
      "id"
    ],
    [
      "▁e",
      "ss"
    ],
    [
      "▁c",
      "ult"
    ],
    [
      "▁was",
      "h"
    ],
    [
      "▁fi",
      "x"
    ],
    [
      "▁bl",
      "ind"
    ],
    [
      "A",
      "C"
    ],
    [
      "▁pal",
      "m"
    ],
    [
      "▁C",
      "al"
    ],
    [
      "▁St",
      "art"
    ],
    [
      "▁we",
      "ight"
    ],
    [
      "a",
      "ut"
    ],
    [
      "ag",
      "og"
    ],
    [
      "▁c",
      "aus"
    ],
    [
      "▁In",
      "st"
    ],
    [
      "▁Gal",
      "ile"
    ],
    [
      "▁Cl",
      "ass"
    ],
    [
      "▁tim",
      "e,"
    ],
    [
      "▁C",
      "our"
    ],
    [
      "act",
      "er"
    ],
    [
      "▁anim",
      "al"
    ],
    [
      "'",
      ","
    ],
    [
      "xy",
      "g"
    ],
    [
      "▁W",
      "ith"
    ],
    [
      "▁less",
      "on,"
    ],
    [
      "umb",
      "er"
    ],
    [
      "u",
      "ght"
    ],
    [
      "▁.",
      "\""
    ],
    [
      "▁B",
      "udget"
    ],
    [
      "▁B",
      "y"
    ],
    [
      "i",
      "ers"
    ],
    [
      "▁b",
      "ri"
    ],
    [
      "▁n",
      "um"
    ],
    [
      "▁tim",
      "e."
    ],
    [
      "nt",
      "ax"
    ],
    [
      "▁R",
      "em"
    ],
    [
      "▁button",
      ".\""
    ],
    [
      "▁you",
      "ng"
    ],
    [
      "▁g",
      "one"
    ],
    [
      "▁W",
      "ind"
    ],
    [
      "-",
      "f"
    ],
    [
      "ul",
      "ation"
    ],
    [
      "▁ear",
      "th,"
    ],
    [
      "▁to",
      "day"
    ],
    [
      "▁syn",
      "agog"
    ],
    [
      "▁comp",
      "on"
    ],
    [
      "▁K",
      "ing"
    ],
    [
      "▁priest",
      "s"
    ],
    [
      "▁day",
      ","
    ],
    [
      "▁c",
      "ows"
    ],
    [
      "ent",
      "ial"
    ],
    [
      "▁ex",
      "h"
    ],
    [
      "▁\"\"\"The",
      "y"
    ],
    [
      "m",
      "it"
    ],
    [
      "▁it",
      ".\"\"\""
    ],
    [
      "▁jo",
      "in"
    ],
    [
      "t",
      "en,"
    ],
    [
      "w",
      "ith"
    ],
    [
      "ak",
      "e,"
    ],
    [
      "▁integ",
      "er"
    ],
    [
      "▁immedi",
      "ately"
    ],
    [
      "▁people",
      ","
    ],
    [
      "▁te",
      "am"
    ],
    [
      "▁b",
      "ow"
    ],
    [
      "▁Man",
      "y"
    ],
    [
      "▁fur",
      "ther"
    ],
    [
      "▁z",
      "oom"
    ],
    [
      "▁judg",
      "ment"
    ],
    [
      "▁box",
      ","
    ],
    [
      "▁summariz",
      "e."
    ],
    [
      "▁kne",
      "es"
    ],
    [
      "ri",
      "ve"
    ],
    [
      "▁inst",
      "ance"
    ],
    [
      "it",
      "am"
    ],
    [
      "er",
      "y"
    ],
    [
      "▁vari",
      "abl"
    ],
    [
      "am",
      "es"
    ],
    [
      "▁name",
      "."
    ],
    [
      "▁e",
      "ternal"
    ],
    [
      "▁hand",
      ","
    ],
    [
      "▁D",
      "har"
    ],
    [
      "▁w",
      "ays"
    ],
    [
      "▁V",
      "ish"
    ],
    [
      "ch",
      "o"
    ],
    [
      "A",
      "NA"
    ],
    [
      "d",
      "er"
    ],
    [
      "▁sou",
      "l"
    ],
    [
      "▁ad",
      "j"
    ],
    [
      "at",
      "ory"
    ],
    [
      "ad",
      "i"
    ],
    [
      "▁back",
      "ground"
    ],
    [
      "er",
      "ning"
    ],
    [
      "▁m",
      "ode"
    ],
    [
      "▁ra",
      "ised"
    ],
    [
      "▁b",
      "ord"
    ],
    [
      "av",
      "ing"
    ],
    [
      "dem",
      "o.txt"
    ],
    [
      "▁en",
      "joy"
    ],
    [
      "a",
      "ur"
    ],
    [
      "▁s",
      "ick"
    ],
    [
      "▁bas",
      "ed"
    ],
    [
      "ity",
      ","
    ],
    [
      "▁param",
      "eter"
    ],
    [
      "▁God",
      "."
    ],
    [
      "▁sle",
      "ep"
    ],
    [
      "▁L",
      "og"
    ],
    [
      "an",
      "ah:"
    ],
    [
      "▁slid",
      "er"
    ],
    [
      "a",
      "ction"
    ],
    [
      "per",
      "i"
    ],
    [
      "▁F",
      "ill"
    ],
    [
      "▁st",
      "itch"
    ],
    [
      "▁1",
      "00"
    ],
    [
      "▁B",
      "r"
    ],
    [
      "▁spec",
      "ial"
    ],
    [
      "▁u",
      "t"
    ],
    [
      "▁pre",
      "par"
    ],
    [
      "▁admin",
      "istr"
    ],
    [
      "c",
      "ut"
    ],
    [
      "▁techn",
      "iqu"
    ],
    [
      "o",
      "ver"
    ],
    [
      "▁\"S",
      "poken"
    ],
    [
      "▁m",
      "emb"
    ],
    [
      "xyg",
      "en"
    ],
    [
      "▁\"",
      "T"
    ],
    [
      "▁a",
      "uthor"
    ],
    [
      "▁dire",
      "ction"
    ],
    [
      "▁pop",
      "-up"
    ],
    [
      "▁\"",
      "M"
    ],
    [
      "A",
      "ST"
    ],
    [
      "▁move",
      "ments"
    ],
    [
      "▁name",
      ","
    ],
    [
      "▁edit",
      "or"
    ],
    [
      "▁U",
      "RL"
    ],
    [
      "ci",
      "ence"
    ],
    [
      "▁u",
      "pload"
    ],
    [
      "c",
      "ription"
    ],
    [
      "▁\"A",
      "l"
    ],
    [
      "ad",
      "ition"
    ],
    [
      "a",
      ":"
    ],
    [
      "▁U",
      "se"
    ],
    [
      "▁canv",
      "as"
    ],
    [
      "▁mount",
      "ain"
    ],
    [
      "▁dead",
      ","
    ],
    [
      "▁en",
      "em"
    ],
    [
      "▁j",
      "ava"
    ],
    [
      "..",
      ".."
    ],
    [
      "▁Pharise",
      "es"
    ],
    [
      "▁per",
      "mission"
    ],
    [
      "▁body",
      ","
    ],
    [
      "iver",
      "se"
    ],
    [
      "▁multit",
      "ude"
    ],
    [
      "▁natur",
      "al"
    ],
    [
      "em",
      "pt"
    ],
    [
      "▁h",
      "er,"
    ],
    [
      "▁shar",
      "pen"
    ],
    [
      "▁med",
      "ic"
    ],
    [
      "▁in",
      "f"
    ],
    [
      "▁fru",
      "its"
    ],
    [
      "age",
      ","
    ],
    [
      "▁vert",
      "ical"
    ],
    [
      "▁your",
      "selves"
    ],
    [
      "▁butt",
      "ock"
    ],
    [
      "▁some",
      "thing"
    ],
    [
      "ation",
      ".\""
    ],
    [
      "▁there",
      "."
    ],
    [
      "▁b",
      "es"
    ],
    [
      "▁\"\"\"Wh",
      "ile"
    ],
    [
      "sh",
      "ipp"
    ],
    [
      "▁16",
      ".04"
    ],
    [
      "▁2",
      "5"
    ],
    [
      "▁De",
      "v"
    ],
    [
      "▁se",
      "ason"
    ],
    [
      "▁C",
      "ode"
    ],
    [
      "▁st",
      "ill"
    ],
    [
      "▁sub",
      "ject"
    ],
    [
      "▁law",
      ","
    ],
    [
      "1",
      "."
    ],
    [
      "▁3",
      "0"
    ],
    [
      "▁fe",
      "atures"
    ],
    [
      "are",
      "th"
    ],
    [
      "▁function",
      "s"
    ],
    [
      "pl",
      "ay"
    ],
    [
      "in",
      "ation"
    ],
    [
      "▁Q",
      "U"
    ],
    [
      "▁QU",
      "EST"
    ],
    [
      "ow",
      "ever,"
    ],
    [
      "▁me",
      "as"
    ],
    [
      "▁Net",
      "be"
    ],
    [
      "e",
      "al"
    ],
    [
      "▁\"W",
      "ith"
    ],
    [
      "▁st",
      "one"
    ],
    [
      "▁Wh",
      "ile"
    ],
    [
      "▁right",
      "-click"
    ],
    [
      "▁\"\"\"Wh",
      "ich"
    ],
    [
      "yth",
      "on"
    ],
    [
      "u",
      "nt"
    ],
    [
      "p",
      "ly"
    ],
    [
      "▁to",
      "ward"
    ],
    [
      "▁rem",
      "ain"
    ],
    [
      "▁sh",
      "ell"
    ],
    [
      "P",
      "AC"
    ],
    [
      "▁wor",
      "shipp"
    ],
    [
      "▁As",
      "anas"
    ],
    [
      "▁gr",
      "ay"
    ],
    [
      "il",
      "ed"
    ],
    [
      "wh",
      "ere"
    ],
    [
      "▁grad",
      "ient"
    ],
    [
      "▁Krish",
      "n"
    ],
    [
      "▁tr",
      "unk"
    ],
    [
      "ll",
      "o"
    ],
    [
      "▁start",
      "ing"
    ],
    [
      "▁automatic",
      "ally"
    ],
    [
      "▁flo",
      "or"
    ],
    [
      "▁ey",
      "es."
    ],
    [
      "▁\"\"\"Th",
      "ese"
    ],
    [
      "▁s",
      "aint"
    ],
    [
      "▁att",
      "ach"
    ],
    [
      "h",
      "old"
    ],
    [
      "▁tab",
      "."
    ],
    [
      "i",
      "um"
    ],
    [
      "s",
      ";"
    ],
    [
      "b",
      "ed"
    ],
    [
      "ag",
      "es."
    ],
    [
      "r",
      "ay"
    ],
    [
      "▁G",
      "ive"
    ],
    [
      "n",
      "u"
    ],
    [
      "▁QUEST",
      "IONS"
    ],
    [
      "▁\"",
      "E"
    ],
    [
      "▁min",
      "ister"
    ],
    [
      "▁o",
      "ught"
    ],
    [
      "rodu",
      "ction"
    ],
    [
      "▁R",
      "ec"
    ],
    [
      "▁what",
      "soever"
    ],
    [
      "▁command",
      "ment"
    ],
    [
      "▁mak",
      "es"
    ],
    [
      "s,",
      "\"\"\""
    ],
    [
      "▁pro",
      "ce"
    ],
    [
      "▁re",
      "al"
    ],
    [
      "▁rep",
      "ent"
    ],
    [
      "▁Gent",
      "iles"
    ],
    [
      "▁d",
      "ance"
    ],
    [
      "▁f",
      "ish"
    ],
    [
      "▁P",
      "ath"
    ],
    [
      "▁\"A",
      "fter"
    ],
    [
      "▁tr",
      "adition"
    ],
    [
      "▁D",
      "avid"
    ],
    [
      "▁Cho",
      "ose"
    ],
    [
      "▁exp",
      "and"
    ],
    [
      "▁soft",
      "ware"
    ],
    [
      "is",
      "on"
    ],
    [
      "▁not",
      "ice"
    ],
    [
      "av",
      "as"
    ],
    [
      "▁beh",
      "ind"
    ],
    [
      "rib",
      "ute"
    ],
    [
      "▁des",
      "ire"
    ],
    [
      "▁res",
      "p"
    ],
    [
      "▁bl",
      "ue"
    ],
    [
      "▁up",
      "d"
    ],
    [
      "▁b",
      "ir"
    ],
    [
      "▁writ",
      "ten,"
    ],
    [
      "▁mole",
      "c"
    ],
    [
      "▁Bh",
      "ag"
    ],
    [
      "▁lin",
      "e."
    ],
    [
      "▁man",
      "ner"
    ],
    [
      "▁mon",
      "th"
    ],
    [
      "▁command",
      "s"
    ],
    [
      "il",
      "y,"
    ],
    [
      "▁F",
      "e"
    ],
    [
      "wor",
      "k"
    ],
    [
      "▁l",
      "s"
    ],
    [
      "own",
      "load"
    ],
    [
      "p",
      "ro"
    ],
    [
      "▁loc",
      "al"
    ],
    [
      "▁cap",
      "ital"
    ],
    [
      "▁ap",
      "art"
    ],
    [
      "our",
      "ces"
    ],
    [
      "on",
      "es"
    ],
    [
      "is",
      "ing"
    ],
    [
      "▁\"S",
      "o"
    ],
    [
      "▁canv",
      "as."
    ],
    [
      "▁m",
      "em"
    ],
    [
      "▁c",
      "ry"
    ],
    [
      "▁A",
      "p"
    ],
    [
      "▁be",
      "aut"
    ],
    [
      "▁l",
      "ung"
    ],
    [
      "a",
      "id"
    ],
    [
      "▁Cal",
      "cul"
    ],
    [
      "abb",
      "ath"
    ],
    [
      "g",
      "es"
    ],
    [
      "▁read",
      "y"
    ],
    [
      "▁himself",
      ","
    ],
    [
      "▁su",
      "gg"
    ],
    [
      "im",
      "p"
    ],
    [
      "▁set",
      "tings"
    ],
    [
      "Th",
      "e"
    ],
    [
      "▁com",
      "b"
    ],
    [
      "▁rep",
      "res"
    ],
    [
      "▁rect",
      "angle"
    ],
    [
      "▁b",
      "ur"
    ],
    [
      "▁mark",
      "s"
    ],
    [
      "▁b",
      "alance"
    ],
    [
      "▁us",
      "."
    ],
    [
      "r",
      "ine"
    ],
    [
      "i",
      "a,"
    ],
    [
      "▁another",
      ","
    ],
    [
      "▁L",
      "ay"
    ],
    [
      "▁F",
      "in"
    ],
    [
      "▁file",
      ","
    ],
    [
      "ion",
      ","
    ],
    [
      "▁A",
      "rr"
    ],
    [
      "▁statement",
      "."
    ],
    [
      "▁div",
      "ided"
    ],
    [
      "▁differ",
      "ence"
    ],
    [
      "▁c",
      "ried"
    ],
    [
      "w",
      "ay"
    ],
    [
      "▁C",
      "om"
    ],
    [
      "▁chang",
      "ed"
    ],
    [
      "▁L",
      "ist"
    ],
    [
      "up",
      "lic"
    ],
    [
      "▁fing",
      "ers"
    ],
    [
      "▁w",
      "ond"
    ],
    [
      "on",
      "y"
    ],
    [
      "▁s",
      "ite"
    ],
    [
      "▁E",
      "m"
    ],
    [
      "ultaneous",
      "ly"
    ],
    [
      "▁s",
      "abbath"
    ],
    [
      "c",
      "ore"
    ],
    [
      "▁item",
      "s"
    ],
    [
      "▁friend",
      "ship"
    ],
    [
      "▁sh",
      "lok"
    ],
    [
      "av",
      "i"
    ],
    [
      "H",
      "E"
    ],
    [
      "▁non",
      "-"
    ],
    [
      "▁un",
      "iverse"
    ],
    [
      "I",
      "T"
    ],
    [
      "il",
      "ate"
    ],
    [
      "w",
      "w"
    ],
    [
      "▁a",
      "f"
    ],
    [
      "▁c",
      "up"
    ],
    [
      "h",
      ":"
    ],
    [
      "▁control",
      "s"
    ],
    [
      "u",
      "es"
    ],
    [
      "▁need",
      "le"
    ],
    [
      "▁cont",
      "ain"
    ],
    [
      "r",
      "op"
    ],
    [
      "▁necess",
      "ary"
    ],
    [
      "▁Jerusalem",
      ","
    ],
    [
      "▁pl",
      "an"
    ],
    [
      "▁U",
      "s"
    ],
    [
      "▁ex",
      "cept"
    ],
    [
      "▁etc",
      ".\""
    ],
    [
      "em",
      "o"
    ],
    [
      "▁record",
      "s"
    ],
    [
      "l",
      "ing"
    ],
    [
      "▁wat",
      "er."
    ],
    [
      "▁b",
      "and"
    ],
    [
      "▁T",
      "ad"
    ],
    [
      "▁Her",
      "od"
    ],
    [
      "▁pass",
      "ed"
    ],
    [
      "▁fac",
      "ing"
    ],
    [
      "▁Oper",
      "ating"
    ],
    [
      "▁arr",
      "ow"
    ],
    [
      "▁print",
      "ln"
    ],
    [
      "▁E",
      "very"
    ],
    [
      "▁together",
      ","
    ],
    [
      "▁tong",
      "ue"
    ],
    [
      "▁preach",
      "ed"
    ],
    [
      "▁tem",
      "pt"
    ],
    [
      "▁be",
      "lo"
    ],
    [
      "▁C",
      "a"
    ],
    [
      "▁import",
      "ance"
    ],
    [
      "▁mo",
      "ving"
    ],
    [
      "▁My",
      "S"
    ],
    [
      "▁al",
      "ph"
    ],
    [
      "▁l",
      "ik"
    ],
    [
      "▁Sh",
      "ift"
    ],
    [
      "▁Cour",
      "se"
    ],
    [
      "▁w",
      "all"
    ],
    [
      "▁gr",
      "and"
    ],
    [
      "idd",
      "le"
    ],
    [
      "▁m",
      "atch"
    ],
    [
      "▁loc",
      "ate"
    ],
    [
      "▁'",
      "S"
    ],
    [
      "▁t",
      "aught"
    ],
    [
      "▁w",
      "ish"
    ],
    [
      "▁t",
      "ast"
    ],
    [
      "_",
      "n"
    ],
    [
      "ally",
      ","
    ],
    [
      "▁M",
      "other"
    ],
    [
      "ur",
      "u"
    ],
    [
      "im",
      "ension"
    ],
    [
      "▁cal",
      "cul"
    ],
    [
      "▁P",
      "ackage"
    ],
    [
      "▁spec",
      "ific"
    ],
    [
      "▁ser",
      "ve"
    ],
    [
      "▁dev",
      "otion"
    ],
    [
      "▁l",
      "en"
    ],
    [
      "▁bu",
      "y"
    ],
    [
      "▁stor",
      "ed"
    ],
    [
      "▁option",
      ".\""
    ],
    [
      "▁\"First",
      ","
    ],
    [
      "▁fo",
      "cus"
    ],
    [
      "il",
      "s"
    ],
    [
      "▁He",
      "llo"
    ],
    [
      "▁stud",
      "ying"
    ],
    [
      "▁up",
      "per"
    ],
    [
      "▁\"\"\"S",
      "o"
    ],
    [
      "▁0",
      "."
    ],
    [
      "o",
      "ll"
    ],
    [
      "▁Pract",
      "ice"
    ],
    [
      "▁past",
      "e"
    ],
    [
      "▁p",
      "ix"
    ],
    [
      "▁Save",
      "."
    ],
    [
      "▁alph",
      "ab"
    ],
    [
      "▁move",
      "ment"
    ],
    [
      "▁\"\"\"L",
      "et"
    ],
    [
      "▁nut",
      "ri"
    ],
    [
      "▁screen",
      "."
    ],
    [
      "▁f",
      "und"
    ],
    [
      "▁p",
      "ict"
    ],
    [
      "E",
      "X"
    ],
    [
      "▁wi",
      "ld"
    ],
    [
      "u",
      "ff"
    ],
    [
      "en",
      "se"
    ],
    [
      "em",
      "ents"
    ],
    [
      "▁c",
      "at"
    ],
    [
      "▁re",
      "pl"
    ],
    [
      "▁you",
      ":"
    ],
    [
      "▁com",
      "ment"
    ],
    [
      "▁organis",
      "m"
    ],
    [
      "g",
      "r"
    ],
    [
      "▁system",
      "."
    ],
    [
      "▁get",
      "ting"
    ],
    [
      "▁output",
      "."
    ],
    [
      "▁Ass",
      "ign"
    ],
    [
      "▁proce",
      "ed"
    ],
    [
      "▁de",
      "ce"
    ],
    [
      "ure",
      ","
    ],
    [
      "our",
      "nal"
    ],
    [
      "▁sh",
      "ap"
    ],
    [
      "▁B",
      "ack"
    ],
    [
      "▁K",
      "T"
    ],
    [
      "▁P",
      "e"
    ],
    [
      "▁hon",
      "our"
    ],
    [
      "▁stand",
      "ing"
    ],
    [
      "ar",
      "eness"
    ],
    [
      "▁s",
      "il"
    ],
    [
      "▁s",
      "we"
    ],
    [
      "m",
      "ost"
    ],
    [
      "▁interface",
      "."
    ],
    [
      "▁Dra",
      "w"
    ],
    [
      "al",
[...]
