{
  "token2id": {
    "<pad>": 0,
    "<unk>": 1,
    "<sos>": 2,
    "<eos>": 3,
    "\"": 4,
    "C": 5,
    "t": 6,
    "r": 7,
    "l": 8,
    ",": 9,
    "S": 10,
    "न": 11,
    "ु": 12,
    "त": 13,
    "्": 14,
    "व": 15,
    "ा": 16,
    "र": 17,
    "क": 18,
    "ष": 19,
    "।": 20,
    "▁\"": 21,
    "▁S": 22,
    "▁न": 23,
    "▁र": 24,
    "▁।": 25,
    "ग": 26,
    "ः": 27,
    "छ": 28,
    "ए": 29,
    "ं": 30,
    "प": 31,
    "ठ": 32,
    "य": 33,
    "ि": 34,
    "▁ग": 35,
    "▁छ": 36,
    "▁ए": 37,
    "▁प": 38,
    "च": 39,
    "ल": 40,
    "म": 41,
    "द": 42,
    "अ": 43,
    "स": 44,
    "श": 45,
    "े": 46,
    "ी": 47,
    "ण": 48,
    "इ": 49,
    "भ": 50,
    "▁च": 51,
    "▁क": 52,
    "▁म": 53,
    "▁अ": 54,
    "▁स": 55,
    "▁इ": 56,
    "o": 57,
    "s": 58,
    "ो": 59,
    "▁व": 60,
    "▁C": 61,
    "▁त": 62,
    "उ": 63,
    "ह": 64,
    ":": 65,
    "-": 66,
    "(": 67,
    ")": 68,
    "▁उ": 69,
    "▁य": 70,
    "▁ल": 71,
    "▁(": 72,
    "ृ": 73,
    "ू": 74,
    "ऽ": 75,
    "▁श": 76,
    "▁द": 77,
    "थ": 78,
    "ध": 79,
    "ङ": 80,
    "▁ध": 81,
    "▁भ": 82,
    "ट": 83,
    "ख": 84,
    "ब": 85,
    "▁ब": 86,
    "ौ": 87,
    "ै": 88,
    "ज": 89,
    "ञ": 90,
    "▁ज": 91,
    "c": 92,
    "m": 93,
    "i": 94,
    "n": 95,
    "p": 96,
    "v": 97,
    "▁p": 98,
    "y": 99,
    "e": 100,
    "आ": 101,
    "▁t": 102,
    "▁आ": 103,
    "औ": 104,
    "▁ह": 105,
    "घ": 106,
    "f": 107,
    "w": 108,
    "h": 109,
    "a": 110,
    "▁n": 111,
    "▁c": 112,
    "फ": 113,
    "़": 114,
    "▁फ": 115,
    "'": 116,
    "R": 117,
    "g": 118,
    "A": 119,
    "W": 120,
    "T": 121,
    "P": 122,
    "▁,": 123,
    "▁P": 124,
    "ओ": 125,
    "▁ख": 126,
    "/": 127,
    "k": 128,
    "u": 129,
    ".": 130,
    "▁:": 131,
    "▁h": 132,
    "ई": 133,
    "▁ई": 134,
    "▁s": 135,
    "▁l": 136,
    "d": 137,
    "▁a": 138,
    "ड": 139,
    "▁घ": 140,
    "G": 141,
    "B": 142,
    "▁ट": 143,
    "▁R": 144,
    "3": 145,
    "?": 146,
    "▁3": 147,
    "▁?": 148,
    "H": 149,
    "M": 150,
    "L": 151,
    "b": 152,
    "j": 153,
    "▁H": 154,
    "▁r": 155,
    "▁o": 156,
    "▁'": 157,
    "▁d": 158,
    "X": 159,
    "x": 160,
    "▁X": 161,
    "▁e": 162,
    "▁ऽ": 163,
    "5": 164,
    "1": 165,
    "9": 166,
    "Q": 167,
    "▁5": 168,
    "▁A": 169,
    "▁M": 170,
    "6": 171,
    "▁6": 172,
    "I": 173,
    "▁G": 174,
    "+": 175,
    "▁-": 176,
    "▁+": 177,
    "E": 178,
    "▁E": 179,
    "ऐ": 180,
    "▁ऐ": 181,
    "\\": 182,
    "▁ड": 183,
    "ढ": 184,
    "▁ओ": 185,
    "Y": 186,
    "▁Y": 187,
    "▁.": 188,
    "▁i": 189,
    "▁औ": 190,
    "2": 191,
    "▁2": 192,
    "▁T": 193,
    "0": 194,
    "▁0": 195,
    "|": 196,
    "▁|": 197,
    "q": 198,
    "z": 199,
    "▁q": 200,
    "7": 201,
    "…": 202,
    "▁1": 203,
    "▁ष": 204,
    ";": 205,
    "F": 206,
    "4": 207,
    "▁F": 208,
    "O": 209,
    "▁L": 210,
    "▁W": 211,
    "▁;": 212,
    "D": 213,
    "N": 214,
    "▁D": 215,
    "▁m": 216,
    "▁ङ": 217,
    "▁N": 218,
    "▁b": 219,
    "–": 220,
    "▁–": 221,
    "▁f": 222,
    "▁y": 223,
    "▁g": 224,
    "▁u": 225,
    "ऋ": 226,
    "▁ऋ": 227,
    "{": 228,
    "}": 229,
    "—": 230,
    "ऊ": 231,
    "▁ऊ": 232,
    "▁I": 233,
    "V": 234,
    "▁w": 235,
    "U": 236,
    "▁U": 237,
    "▁7": 238,
    "▁v": 239,
    "▁B": 240,
    "ँ": 241,
    "ऑ": 242,
    "▁ऑ": 243,
    "▁ण": 244,
    "▁थ": 245,
    "K": 246,
    "▁K": 247,
    "ॄ": 248,
    "Z": 249,
    "@": 250,
    "▁@": 251,
    "▁O": 252,
    "झ": 253,
    "_": 254,
    ">": 255,
    "▁>": 256,
    "!": 257,
    "▁!": 258,
    "=": 259,
    "▁x": 260,
    "ॉ": 261,
    "*": 262,
    "▁Q": 263,
    "J": 264,
    "▁J": 265,
    "॥": 266,
    "▁॥": 267,
    "▁9": 268,
    "<": 269,
    "▁<": 270,
    "8": 271,
    "७": 272,
    "८": 273,
    "▁७": 274,
    "▁८": 275,
    "▁4": 276,
    "▁ढ": 277,
    "▁झ": 278,
    "▁=": 279,
    "▁)": 280,
    "？": 281,
    "▁？": 282,
    "%": 283,
    "▁Z": 284,
    "•": 285,
    "▁•": 286,
    "▁\\": 287,
    "▁k": 288,
    "▁/": 289,
    "[": 290,
    "]": 291,
    "ॆ": 292,
    "ॅ": 293,
    "▁V": 294,
    "१": 295,
    "▁१": 296,
    "▁*": 297,
    "▁j": 298,
    "$": 299,
    "▁$": 300,
    "४": 301,
    "०": 302,
    "▁४": 303,
    "▁[": 304,
    "▁ठ": 305,
    "▁z": 306,
    "▁8": 307,
    "&": 308,
    "▁%": 309,
    "#": 310,
    "▁…": 311,
    "▁्": 312,
    "ळ": 313,
    "": 314,
    "▁&": 315,
    "ಜ": 316,
    "ಾ": 317,
    "ವ": 318,
    "ಸ": 319,
    "ರ": 320,
    "್": 321,
    "ಪ": 322,
    "ೇ": 323,
    "▁ಸ": 324,
    "▁ಪ": 325,
    "▁ळ": 326,
    "´": 327,
    "२": 328,
    "▁२": 329,
    "३": 330,
    "▁३": 331,
    "▁ं": 332,
    "▁०": 333,
    "›": 334,
    "▁›": 335,
    "▁—": 336,
    "°": 337,
    "೦": 338,
    "▁೦": 339,
    "६": 340,
    "¬": 341,
    "^": 342,
    "▁{": 343,
    "▁ै": 344,
    "ॐ": 345,
    "▁ॐ": 346,
    "ॊ": 347,
    "▁़": 348,
    "५": 349,
    "▁ि": 350,
    "▁}": 351,
    "μ": 352,
    "⅓": 353,
    "▁⅓": 354,
    "▁५": 355,
    "Ç": 356,
    "॰": 357,
    "Ÿ": 358,
    "॑": 359,
    "▁॑": 360,
    "▁_": 361,
    "▁°": 362,
    "~": 363,
    "ऎ": 364,
    "×": 365,
    "`": 366,
    "▁`": 367,
    "▁]": 368,
    "▁ू": 369,
    "▁#": 370,
    "▁६": 371,
    "ಅ": 372,
    "ಥ": 373,
    "▁ಅ": 374,
    "▁ऎ": 375,
    "₹": 376,
    "▁े": 377,
    "▁\"C": 378,
    "trl": 379,
    "▁नुत्वा": 380,
    "▁रक्षन्तु": 381,
    "▁गुरु": 382,
    "▁छात्र": 383,
    "ान्": 384,
    "▁एकवारं": 385,
    "▁पाठ": 386,
    "यति": 387,
    "▁चित्र": 388,
    "चाल": 389,
    "मिदं": 390,
    "▁पुनः": 391,
    "▁कर्तुं": 392,
    "▁मया": 393,
    "▁अस्याः": 394,
    "▁रा": 395,
    "शे": 396,
    "द्वयं": 397,
    "▁स्वीक": 398,
    "रण": 399,
    "ीय": 400,
    "मस्ति": 401,
    "▁इदम": 402,
    "तीव": 403,
    "▁सुलभ": 404,
    "▁वयं": 405,
    "▁Col": 406,
    "or": 407,
    "▁विकल्पं": 408,
    "▁तस्योपरि": 409,
    "▁नोदनेन": 410,
    "▁चिनुमः": 411,
    "▁\"\"\"अ": 412,
    "त्र": 413,
    "▁कानिचन": 414,
    "▁उदाहरण": 415,
    "ानि": 416,
    "▁पश्याम:": 417,
    "▁एक:": 418,
    "▁पर्व": 419,
    "त:": 420,
    "▁चत्वार": 421,
    "▁ग्राम": 422,
    "ा:": 423,
    "▁मार्ग": 424,
    "▁ये": 425,
    "क्ष्यं": 426,
    "ता": 427,
    "कां": 428,
    "▁प्रति": 429,
    "▁गच्छ": 430,
    "न्ति": 431,
    "▁\"\"\"": 432,
    "ना": 433,
    "हं": 434,
    "ोक": 435,
    "युक्त": 436,
    "ीकृत": 437,
    "स्तेन": 438,
    "▁केवल": 439,
    "महं": 440,
    "स्त": 441,
    "न्न": 442,
    "हि": 443,
    "▁किन्त": 444,
    "्वं": 445,
    "तो": 446,
    "▁यूयं": 447,
    "▁सर्व्व": 448,
    "ेऽपि": 449,
    "▁यतो": 450,
    "मत्र": 451,
    "स्मि": 452,
    "ंश्च": 453,
    "िद्": 454,
    "▁दोष": 455,
    "मार": 456,
    "ोप": 457,
    "यितुं": 458,
    "▁ने": 459,
    "च्छ": 460,
    "ामि": 461,
    "ंग": 462,
    "ष्ठं": 463,
    "▁परस्परं": 464,
    "▁मेल": 465,
    "यत": 466,
    "▁श्वासं": 467,
    "▁स्वीकु": 468,
    "र्या": 469,
    "त्,": 470,
    "▁शिर:": 471,
    "▁उत्थाप": 472,
    "येत्": 473,
    "▁वक्ष:": 474,
    "▁स्थ": 475,
    "लं": 476,
    "▁तथा": 477,
    "▁उद": 478,
    "रं": 479,
    "▁धनु": 480,
    "षा": 481,
    "कारं": 482,
    "▁कुर्यात": 483,
    "▁केवलं": 484,
    "▁कर": 485,
    "तलं": 486,
    "▁अङ्गु": 487,
    "ष्ठ": 488,
    "म्": 489,
    "▁एव": 490,
    "▁भूमि": 491,
    "▁स्प": 492,
    "ति": 493,
    "▁अतो": 494,
    "▁किमपि": 495,
    "▁परिवर्तनं": 496,
    "▁नाव": 497,
    "श्य": 498,
    "कम्": 499,
    "▁\"इ": 500,
    "दम्": 501,
    "▁एलिमेण्ट्": 502,
    "▁सङ्ख्या": 503,
    "▁वा": 504,
    "▁स्ट्रिङ्ग्": 505,
    "▁भवितुमर्हति": 506,
    "▁बाल:": 507,
    "▁एतासु": 508,
    "▁प्रीतिं": 509,
    "▁प्रदर्शयति": 510,
    "▁\"अस्मिन्": 511,
    "▁सरण": 512,
    "▁विव": 513,
    "रिष्य": 514,
    "माण": 515,
    "▁प्रधान": 516,
    "वै": 517,
    "शिष्ट": 518,
    "्यानि": 519,
    "▁इत्येतेषां": 520,
    "▁विषयान्": 521,
    "▁ज्ञास्यामः": 522,
    "▁अत्र": 523,
    "▁उपरि": 524,
    "ात": 525,
    "ाय": 526,
    "नानि": 527,
    "▁सन्ति": 528,
    "▁सः": 529,
    "▁विक्र": 530,
    "यम": 531,
    "नु": 532,
    "ृत्य": 533,
    "▁माध्य": 534,
    "स्थ": 535,
    "िकं": 536,
    "omm": 537,
    "is": 538,
    "ion": 539,
    "▁pro": 540,
    "▁प्राप्नोति": 541,
    "▁तत्पश्च": 542,
    "ाद्": 543,
    "▁द्वितीय": 544,
    "▁एको": 545,
    "▁दूत": 546,
    "▁उप": 547,
    "स्था": 548,
    "या": 549,
    "वदत्": 550,
    "▁पति": 551,
    "▁सा": 552,
    "▁महा": 553,
    "बा": 554,
    "बि": 555,
    "ल्": 556,
    "▁या": 557,
    "जातीय": 558,
    "▁स्वकी": 559,
    "यं": 560,
    "▁व्यभिचार": 561,
    "रूपं": 562,
    "▁क्रोध": 563,
    "▁अप": 564,
    "यत्": 565,
    "▁एते": 566,
    "▁गवाक्ष": 567,
    "ाः": 568,
    "▁ले": 569,
    "टे": 570,
    "क्": 571,
    "▁उपयुज्य": 572,
    "ypes": 573,
    "et": 574,
    "▁कर्तुम्": 575,
    "▁आवश्यक": 576,
    "नि": 577,
    "▁त्रीणि": 578,
    "▁सोप": 579,
    "ानानि": 580,
    "धि": 581,
    ":,": 582,
    "▁वृक्षा:": 583,
    "▁मिलित्वा": 584,
    "▁हो": 585,
    "म:": 586,
    "▁निर्": 587,
    "मि": 588,
    "न्य": 589,
    "था": 590,
    "▁हनु": 591,
    "मान्": 592,
    "ाग": 593,
    "रम्": 594,
    "▁इव": 595,
    "▁त्वां": 596,
    "ङ्घ": 597,
    "यित्वा": 598,
    "यम्": 599,
    "\"\"\"\"": 600,
    "▁इति": 601,
    "▁लिन": 602,
    "क्स": 603,
    "▁मध्ये": 604,
    "▁एक्लिप्": 605,
    "▁इत्यस्य": 606,
    "▁संस्थाप": 607,
    "नस्य": 608,
    "▁विषये": 609,
    "▁विद्यमान": 610,
    "ेऽस्मिन्": 611,
    "▁पाठे": 612,
    "▁भवतां": 613,
    "▁स्वागतम्": 614,
    "▁\"इदं": 615,
    "▁print": 616,
    "▁प्रत्येकस्य": 617,
    "▁पङ्क्त": 618,
    "्याः": 619,
    "▁अन्ते": 620,
    "▁new": 621,
    "line": 622,
    "▁char": 623,
    "ac": 624,
    "ter": 625,
    "▁इतीदं": 626,
    "▁मुद्राप": 627,
    "▁अपि": 628,
    "▁चे": 629,
    "दं": 630,
    "▁मम": 631,
    "▁प्रथम": 632,
    "चित्र": 633,
    "▁अपेक्ष": 634,
    "ितं": 635,
    "▁फ़": 636,
    "ितम्": 637,
    "▁प्राप्यते": 638,
    "▁\"'": 639,
    "an": 640,
    "ge": 641,
    "▁विकल्प": 642,
    "ः,": 643,
    "णीय": 644,
    "ानां": 645,
    "▁पृष्ट": 646,
    "▁श्र": 647,
    "ेण": 648,
    "ीं": 649,
    "▁चेतुं": 650,
    "▁साहाय्यं": 651,
    "▁करोति": 652,
    "न्तु": 653,
    "ing": 654,
    "omp": 655,
    "on": 656,
    "ent": 657,
    "▁इत्येत": 658,
    "ैः": 659,
    "▁युक्त": 660,
    "ेन": 661,
    "al": 662,
    "ett": 663,
    "▁इत्यनेन": 664,
    "▁युक्तं": 665,
    "▁वर्तते": 666,
    "▁राजा": 667,
    "▁दुष्ट": 668,
    "▁सेव": 669,
    "कं": 670,
    "▁बहि": 671,
    "ष्": 672,
    "करोति": 673,
    "▁एतस्मिन्": 674,
    "▁वात्सल्यं": 675,
    "▁प्रकटयति": 676,
    "▁भव": 677,
    "दभीष्टं": 678,
    "▁यत्किमपि": 679,
    "▁वेब्": 680,
    "▁ब्रौसर्": 681,
    "▁उपयोक्तुमर्हन्ति": 682,
    "▁भवन्तः": 683,
    "▁ततः": 684,
    "▁परं": 685,
    "▁ते": 686,
    "▁जै": 687,
    "तु": 688,
    "नाम्": 689,
    "नः": 690,
    "र्व्व": 691,
    "द्": 692,
    "▁विश्रामवार": 693,
    "स्य": 694,
    "थः": 695,
    "▁परिमाण": 696,
    "▁अर्थात्": 697,
    "▁प्रायेण": 698,
    "ार्": 699,
    "द्ध": 700,
    "क्र": 701,
    "शं": 702,
    "▁दु": 703,
    "स्थं": 704,
    "▁यिरूशालम्": 705,
    "नगरं": 706,
    "▁पराव": 707,
    "ृत": 708,
    "्या": 709,
    "गच्छ": 710,
    "न्": 711,
    "ब्जेक्ट्": 712,
    "स्": 713,
    "-इती": 714,
    "मानि": 715,
    "▁एक": 716,
    "ीकर्तुं": 717,
    "▁प्र": 718,
    "वि": 719,
    "भागं": 720,
    ",\"": 721,
    "▁तस्यां": 722,
    "▁आदरं": 723,
    "▁\"\"\"अपरं": 724,
    "▁ख्रीष्टेन": 725,
    "▁परीक्ष": 726,
    "पि": 727,
    "लि": 728,
    "▁नमस्कार": 729,
    "▁वद": 730,
    "त,": 731,
    "रि": 732,
    "ष्ट": 733,
    "ूल": 734,
    "▁परि": 735,
    "जन": 736,
    "ांश्च": 737,
    "▁ज्ञाप": 738,
    "ध्वं": 739,
    "▁तत्सम्बद्ध": 740,
    "पाठ": 741,
    "▁कृपया": 742,
    "▁अधस्तन": 743,
    "▁जालपुटं": 744,
    "▁पश्यन्तु": 745,
    "▁http://spoken-tutorial.org": 746,
    "▁किन्तु": 747,
    "ोत्": 748,
    "कृ": 749,
    "▁अर्थ": 750,
    "तः": 751,
    "▁स्वर्ग": 752,
    "ीयं": 753,
    "▁देश": 754,
    "का": 755,
    "ङ्क्ष": 756,
    "▁तस्माद्": 757,
    "▁ईश्वर": 758,
    "ान": 759,
    "ज्ज": 760,
    "मान": 761,
    "ेषाम्": 762,
    "▁नाम": 763,
    "▁गृह": 764,
    "ीतवान्": 765,
    "▁यतः": 766,
    "▁तेषां": 767,
    "▁कृते": 768,
    "▁नग": 769,
    "मेकं": 770,
    "ितवान्": 771,
    "ra": 772,
    "▁layer": 773,
    "▁इत्ये": 774,
    "स्मिन्": 775,
    "▁अहमत्र": 776,
    "▁भवते": 777,
    "▁दर्शयामि": 778,
    "▁धृत": 779,
    "ीनां": 780,
    "ाम": 781,
    "सी": 782,
    "▁अध": 783,
    "मा": 784,
    "▁भ्र": 785,
    "ात्र": 786,
    "ोः": 787,
    "▁कल": 788,
    "▁भी": 789,
    "नी": 790,
    "िन्": 791,
    "▁भवति": 792,
    "▁वामतः": 793,
    "▁पेनल्": 794,
    "ite": 795,
    "▁admin": 796,
    "istration": 797,
    "▁नुदन्तु": 798,
    "रिय": 799,
    "मः": 800,
    "▁समीपम्": 801,
    "▁आग": 802,
    "▁यिहूदीय": 803,
    "लोका": 804,
    "दा": 805,
    "▁यीश": 806,
    "ोर": 807,
    "ेत": 808,
    "त्": 809,
    "र्म्मा": 810,
    "▁बहवो": 811,
    "▁व्य": 812,
    "श्व": 813,
    "सन्": 814,
    ",\"\"\"": 815,
    "▁मानव": 816,
    "▁उपयोग": 817,
    "▁तत": 818,
    "▁सं": 819,
    "साध": 820,
    "नम्": 821,
    "▁भवत्सु": 822,
    "▁सौजन्यं": 823,
    "▁प्राचीन": 824,
    "समये": 825,
    "▁निर्दिष्ट": 826,
    "▁दि": 827,
    "शा": 828,
    "निर्": 829,
    "देशं": 830,
    "▁अद्य": 831,
    "▁वि": 832,
    "ज्ञान": 833,
    "ां": 834,
    "▁ददाति": 835,
    "▁चरण": 836,
    "▁वह्": 837,
    "निक": 838,
    "ण्डे": 839,
    "पित": 840,
    "सु": 841,
    "ित्त": 842,
    "सदृश": 843,
    "श्च": 844,
    "▁बहु": 845,
    "तुल": 846,
    "्यः": 847,
    "्रि": 848,
    "यो": 849,
    "न्ति,": 850,
    "▁तदा": 851,
    "क्षिण": 852,
    "▁के": 853,
    "चित्": 854,
    "▁पु": 855,
    "▁गत्वा": 856,
    "▁यद्य": 857,
    "▁घट": 858,
    "▁तत्": 859,
    "सर्व": 860,
    "▁प्रधानयाज": 861,
    "कान्": 862,
    "ितवन्तः": 863,
    "▁रे": 864,
    "को": 865,
    "र्": 866,
    "डिङ्ग्": 867,
    "▁प्रार": 868,
    "भे": 869,
    "▁एका": 870,
    "▁संवादपेटिका": 871,
    "▁उद्घट": 872,
    "ये": 873,
    "▁यत्र": 874,
    "ितस्य": 875,
    "▁सम्": 876,
    "पुट": 877,
    "▁प्रतिष्ठ": 878,
    "ाप": 879,
    "प्र": 880,
    "तिः": 881,
    "▁दृश्यते": 882,
    "▁अधुना": 883,
    "▁किं": 884,
    "▁पश्यामः": 885,
    "▁Save": 886,
    "▁\"पु": 887,
    "▁St": 888,
    "roke": 889,
    "aint": 890,
    "▁टेब्": 891,
    "प्रति": 892,
    "▁आगच्छाम": 893,
    "▁स्ट": 894,
    "्रो": 895,
    "वर्ण": 896,
    "ं,": 897,
    "-मध्ये": 898,
    "▁स्लै": 899,
    "डर्": 900,
    "▁चाल": 901,
    "▁परिवर्तितुं": 902,
    "▁शक्नुमः": 903,
    "स्मिन": 904,
    "ष्ण": 905,
    "वाय": 906,
    "ुं": 907,
    "▁भोजन": 908,
    "पा": 909,
    "ध्य": 910,
    "मेन": 911,
    "युज्यते": 912,
    "▁3.": 913,
    "बलेन": 914,
    "▁करणीय": 915,
    "ानाम": 916,
    "▁आसन": 917,
    "▁प्रारम्भ": 918,
    "िका": 919,
    "स्थिति": 920,
    "▁का": 921,
    "स्ति": 922,
    "▁HTML": 923,
    "▁res": 924,
    "se": 925,
    "▁इत्येतं": 926,
    "▁इत्यस्मै": 927,
    "ेष": 928,
    "णाय": 929,
    "▁object": 930,
    "▁उपयोगं": 931,
    "▁कुर्मः": 932,
    "▁\"प": 933,
    "ेनल्": 934,
    "▁मध्ये,": 935,
    "▁सै": 936,
    "लो": 937,
    "हे": 938,
    "क्से": 939,
    "ोट्": 940,
    "▁कन्": 941,
    "फ़": 942,
    "र्म": 943,
    "▁रचयितुं": 944,
    "▁कर्ष": 945,
    "यन्तु": 946,
    "▁भवान्": 947,
    "atur": 948,
    "ation": 949,
    "परिवर्त": 950,
    "नं": 951,
    "sw": 952,
    "itch": 953,
    "▁कर्तु": 954,
    "मपि": 955,
    "▁शक्नोति": 956,
    "df": 957,
    "▁आदेशः": 958,
    "▁उपलभ्य": 959,
    "क्त": 960,
    "स्थान": 961,
    "▁बहिराग": 962,
    "न्तुं": 963,
    "ोर्ट्-": 964,
    "ट्": 965,
    "▁कील": 966,
    "कस्य": 967,
    "▁Ctrl": 968,
    "▁व्यवस्थां": 969,
    "▁ex": 970,
    "it": 971,
    "▁पश्यत": 972,
    "▁मेघ": 973,
    "ैर": 974,
    "च्छति": 975,
    "▁तेन": 976,
    "ैक": 977,
    "क्षु": 978,
    "स्तं": 979,
    "▁द्रक्ष्य": 980,
    "▁तं": 981,
    "वन्त": 982,
    "स्ते": 983,
    "लोक": 984,
    "िष्यन्ते": 985,
    "▁तस्य": 986,
    "▁पृथिवी": 987,
    "▁सर्व्वे": 988,
    "ष्य": 989,
    "▁सत्य": 990,
    "मेन्": 991,
    "AMPP": 992,
    "▁5.": 993,
    ".1": 994,
    "▁द्वारा": 995,
    "▁प्राप्त": 996,
    "▁Ap": 997,
    "ache": 998,
    "▁MySQL": 999,
    "▁सु": 1000,
    "र्य": 1001,
    "ोद": 1002,
    "क्ष": 1003,
    "िष्य": 1004,
    "ध्वे": 1005,
    "▁एतत्": 1006,
    "▁सीक्वेन्स्": 1007,
    "▁आरम्भ": 1008,
    "ात्": 1009,
    "ेस्": 1010,
    "▁पर्यन्त": 1011,
    "▁एकं": 1012,
    "▁भाग": 1013,
    "▁उद्घाट": 1014,
    "्यू": 1015,
    "टोरिय": 1016,
    "टा": 1017,
    "▁इं": 1018,
    "टर": 1019,
    "▁ज्ञातवन्तः": 1020,
    "▁अस्माकं": 1021,
    "ङ्क": 1022,
    "▁सम्पूर्णं": 1023,
    "▁कृतवन्तः": 1024,
    "▁GIMP": 1025,
    "▁विषय": 1026,
    "के": 1027,
    "▁पाठेऽस्मिन्": 1028,
    "▁सर्व": 1029,
    "ेभ्यः": 1030,
    "▁शिमोन्": 1031,
    "रः": 1032,
    "▁यम": 1033,
    "▁गाल": 1034,
    "ील": 1035,
    "ानग": 1036,
    "वा": 1037,
    "▁नि": 1038,
    "ने": 1039,
    "▁सि": 1040,
    "वद": 1041,
    "ेः": 1042,
    "▁पुत्र": 1043,
    "ाव": 1044,
    "▁द्वौ": 1045,
    "▁शिष्य": 1046,
    "तेष": 1047,
    "्वे": 1048,
    "▁मिल": 1049,
    "ित": 1050,
    "ेषु": 1051,
    "रो": 1052,
    "कथयत्": 1053,
    "▁मत्स्य": 1054,
    "र्तुं": 1055,
    "▁जावा": 1056,
    "क्लास्": 1057,
    "▁स्व": 1058,
    "रूप": 1059,
    "चार": 1060,
    "▁शब्द": 1061,
    "▁वर्ण": 1062,
    "▁एवम्": 1063,
    "▁अस्ति": 1064,
    "▁र्": 1065,
    "▁अन्ति": 1066,
    "याः": 1067,
    "▁कर्सर्": 1068,
    "▁स्थाप": 1069,
    "▁Enter": 1070,
    "▁पश्चात्": 1071,
    "▁अधः": 1072,
    "▁यथा": 1073,
    "▁दर्शितं": 1074,
    "▁टङ्कयन्तु": 1075,
    "▁पादौ": 1076,
    "▁भवत:": 1077,
    "▁प्राय:": 1078,
    "▁कीट": 1079,
    "क:": 1080,
    "▁भवन्ति": 1081,
    "▁य:": 1082,
    "ड्": 1083,
    "▁सहायता": 1084,
    "▁कुर्वन्ति": 1085,
    "▁किञ्चन": 1086,
    "▁पाप": 1087,
    "-अ": 1088,
    "▁सन्देशं": 1089,
    "▁प्राप्नुमः": 1090,
    "रू": 1091,
    "▁डि": 1092,
    "रे": 1093,
    "क्ट": 1094,
    "▁पा": 1095,
    "▁\"c": 1096,
    "mp": 1097,
    "ht": 1098,
    "oc": 1099,
    "▁अग्र": 1100,
    "्येषु": 1101,
    "▁अङ्क": 1102,
    "▁अत्य": 1103,
    "न्तं": 1104,
    "▁तीक्ष्ण": 1105,
    "▁रङ्गसे": 1106,
    "चन": 1107,
    "कूर्च": 1108,
    "▁मृ": 1109,
    "ुः": 1110,
    "▁पश्यति": 1111,
    "▁अनन्तरं": 1112,
    "▁फिरूशि": 1113,
    "नो": 1114,
    "▁गृहे": 1115,
    "▁भोक्त": 1116,
    "▁गत": 1117,
    "▁वी": 1118,
    "ितुम्": 1119,
    "भिरे": 1120,
    "यु": 1121,
    "▁यः": 1122,
    "▁सम": 1123,
    "ती": 1124,
    "स्तस्मिन्": 1125,
    "▁युष्माभि": 1126,
    "▁र्य": 1127,
    "▁देव": 1128,
    "पू": 1129,
    "ानाम्": 1130,
    "▁इच्छ": 1131,
    "ास": 1132,
    "ाध": 1133,
    "▁काम": 1134,
    "कु": 1135,
    "त्स": 1136,
    "िता": 1137,
    "भिलाष": 1138,
    "द्य": 1139,
    "ङ्ग": 1140,
    "सम": 1141,
    "त्त": 1142,
    "ृण": 1143,
    "देव": 1144,
    "जा": 1145,
    "चरण": 1146,
    "ञ्च": 1147,
    "ाकार": 1148,
    "▁बाह": 1149,
    "ुल": 1150,
    "्यं": 1151,
    "▁पूर्व": 1152,
    "ितानि": 1153,
    "▁सर्वाणि": 1154,
    "▁विण्डो": 1155,
    "▁पि": 1156,
    "धाय": 1157,
    "▁नूतनं": 1158,
    "▁उद्घाटयन्तु": 1159,
    "▁एताः": 1160,
    "▁जन": 1161,
    "भाष": 1162,
    "▁अहं": 1163,
    "▁भक्त": 1164,
    "▁अस्मै": 1165,
    "▁आस": 1166,
    "नाय": 1167,
    "▁भवद्": 1168,
    "भि:": 1169,
    "▁श्व": 1170,
    "वत्": 1171,
    "वेश": 1172,
    "▁प्रयासं": 1173,
    "▁करणीयम्": 1174,
    "▁\"\"\"ततो": 1175,
    "▁पुनरपि": 1176,
    "▁दास": 1177,
    "▁इत्युक्त": 1178,
    "्वा": 1179,
    "▁प्रेष": 1180,
    "यामास": 1181,
    "मन्त्र": 1182,
    "ितान्": 1183,
    "▁पश्य": 1184,
    "ज्य": 1185,
    "मास": 1186,
    "ाद": 1187,
    "स्ते,": 1188,
    "▁निज": 1189,
    "व्": 1190,
    "दि": 1191,
    "पु": 1192,
    "न्त": 1193,
    "ून्": 1194,
    "▁मार": 1195,
    "▁सर्व्वं": 1196,
    "▁खाद्य": 1197,
    "द्र": 1198,
    "व्य": 1199,
    "ितवान्,": 1200,
    "वाह": 1201,
    "▁प्रत्येक": 1202,
    "▁विभाग": 1203,
    "▁योजन": 1204,
    "ीयम्": 1205,
    "gram": 1206,
    "▁इत्यस्मिन्": 1207,
    "ri": 1208,
    "ver": 1209,
    "▁रि": 1210,
    "जि": 1211,
    "टर्": 1212,
    "▁किञ्च": 1213,
    "▁समय": 1214,
    "ानन्तरं": 1215,
    "▁अध्याप": 1216,
    "▁अथवा": 1217,
    "शि": 1218,
    "▁गाय": 1219,
    "▁स्थग": 1220,
    "▁\"त": 1221,
    "तः,": 1222,
    "▁पुटस्य": 1223,
    "▁विद्यमानं": 1224,
    "▁बटन्": 1225,
    "▁क्लिक्": 1226,
    "र्वन्तु": 1227,
    "▁स्वहस्त": 1228,
    "तन्त्र": 1229,
    "तया": 1230,
    "ोल": 1231,
    "नम": 1232,
    "ुद्र": 1233,
    "ायां": 1234,
    "▁सामान्य": 1235,
    "्वास": 1236,
    "▁सह": 1237,
    "शरी": 1238,
    "▁विश्राम": 1239,
    "▁\"अ": 1240,
    "क्षर": 1241,
    "ाणि": 1242,
    "▁कोपि": 1243,
    "▁कुर्वन्तु": 1244,
    "▁केश": 1245,
    "ैल": 1246,
    "न्ते": 1247,
    "▁चेत": 1248,
    "▁अन": 1249,
    "▁दृढ": 1250,
    "णं": 1251,
    "▁मु": 1252,
    "मु": 1253,
    "ु:": 1254,
    "षे": 1255,
    "▁कृत": 1256,
    "वान": 1257,
    "▁बोध": 1258,
    "ितवान": 1259,
    "▁यत": 1260,
    "▁स्वा": 1261,
    "धिक": 1262,
    "बल": 1263,
    "वता": 1264,
    "नेन": 1265,
    "▁कदापि": 1266,
    "▁शत्र": 1267,
    "▁कर्त्त": 1268,
    "व्या": 1269,
    "▁तद्वद्": 1270,
    "▁वय": 1271,
    "▁बाल": 1272,
    "्य": 1273,
    "काले": 1274,
    "▁संसार": 1275,
    "स्या": 1276,
    "माल": 1277,
    "ाया": 1278,
    "स्म": 1279,
    "▁सम्पूर्ण": 1280,
    "▁तदेव": 1281,
    "▁दृश्य": 1282,
    "ताम्": 1283,
    "▁विशिष्ट": 1284,
    "सन्ध": 1285,
    "षु": 1286,
    "▁ध्यान": 1287,
    "न्द्र": 1288,
    "करण": 1289,
    "st": 1290,
    "ear": 1291,
    "ath": 1292,
    "भागे": 1293,
    "▁को": 1294,
    "सस्": 1295,
    "▁दृष्टुं": 1296,
    "▁\"s": 1297,
    "ystem": 1298,
    "▁dot": 1299,
    "▁out": 1300,
    "▁println": 1301,
    "▁ब्रेकेट्": 1302,
    "▁डबल्": 1303,
    "▁कोट्स्": 1304,
    "▁इत्यस्यान्तः": 1305,
    "od": 1306,
    "▁number": 1307,
    "▁सेमिकोलन्": 1308,
    "ीक": 1309,
    "िः": 1310,
    "▁राम": 1311,
    "▁संस्कृत": 1312,
    "▁भाष": 1313,
    "▁लिख": 1314,
    "▁कर्म्म": 1315,
    "णि": 1316,
    "कर": 1317,
    "▁व्या": 1318,
    "ार": 1319,
    "▁दुःख": 1320,
    "▁काल": 1321,
    "यामः": 1322,
    "र्ह": 1323,
    "स्माभि": 1324,
    "रा": 1325,
    "शी": 1326,
    "▁कथ्यते": 1327,
    "▁दूरी": 1328,
    "कृत": 1329,
    "्यते": 1330,
    "▁निन्द": 1331,
    "सा": 1332,
    "द्यते": 1333,
    "▁\"\"\"अथ": 1334,
    "▁तेभ्यः": 1335,
    "▁शास्त्र": 1336,
    "बोध": 1337,
    "िक": 1338,
    "ारं": 1339,
    "▁दत्वा": 1340,
    "▁एक्सिक्यूट्": 1341,
    "▁in": 1342,
    "▁(d": 1343,
    "ot": 1344,
    "▁slash": 1345,
    "▁टङ्कयित्वा": 1346,
    "▁\"तथा": 1347,
    "▁दक्षिण": 1348,
    "▁ड्राप्-डौन्": 1349,
    "▁\"A": 1350,
    "ut": 1351,
    "hor": 1352,
    "▁चिनोमि": 1353,
    "वार": 1354,
    "▁यत्": 1355,
    "▁अस्माभिः": 1356,
    "ex": 1357,
    "▁सञ्चिका": 1358,
    "▁व्यवस्थाप": 1359,
    "▁मेष": 1360,
    "ब्दं": 1361,
    "▁शृण": 1362,
    "्व": 1363,
    "▁तान": 1364,
    "▁जानामि": 1365,
    "▁पश्चाद्": 1366,
    "▁जलस्य": 1367,
    "▁स्रो": 1368,
    "ता:": 1369,
    "▁इदं": 1370,
    "▁जानाति": 1371,
    "▁स:": 1372,
    "▁बल": 1373,
    "शाल": 1374,
    "▁जलं": 1375,
    "▁आधार": 1376,
    "वान्": 1377,
    "तं": 1378,
    "ग्": 1379,
    "पुर": 1380,
    "ाण": 1381,
    "ड़": 1382,
    "▁विष्ण": 1383,
    "▁धेन": 1384,
    "वस्य": 1385,
    "▁रोग": 1386,
    "विष": 1387,
    "▁औषध": 1388,
    "उप": 1389,
    "▁विवरणं": 1390,
    "▁2.": 1391,
    "र्ज": 1392,
    "▁कथं": 1393,
    "▁पर्यावरण": 1394,
    "▁हान": 1395,
    "िकार": 1396,
    "▁कश्चित्": 1397,
    "ताः": 1398,
    "▁कथा": 1399,
    "▁श्रुत्वा": 1400,
    "▁पाल": 1401,
    "ते": 1402,
    "▁गे": 1403,
    "हनि": 1404,
    "त्रा": 1405,
    "ज्ञ": 1406,
    "ीयते": 1407,
    "yp": 1408,
    "▁नुदतु": 1409,
    "▁सङ्ग": 1410,
    "भिः": 1411,
    "▁विद्य": 1412,
    "▁एत": 1413,
    "च्च": 1414,
    "ुद": 1415,
    "▁दिन": 1416,
    "गम": 1417,
    "मार्ग": 1418,
    "तुः": 1419,
    "▁शेष": 1420,
    "▁ज्ञ": 1421,
    "ाति": 1422,
    "बन्ध": 1423,
    "ूनां": 1424,
    "▁समीपे": 1425,
    "▁मृग": 1426,
    "▁तदु": 1427,
    "दे": 1428,
    "ेश": 1429,
    "प्राप": 1430,
    "▁एतेषु": 1431,
    "▁\"\"\"य": 1432,
    "▁हठ": 1433,
    "योगस्य": 1434,
    "विध": 1435,
    "नाम": 1436,
    "▁अभ्यासं": 1437,
    "▁तस्या": 1438,
    "▁शारी": 1439,
    "▁मान": 1440,
    "▁क्षमता": 1441,
    "र्ध": 1442,
    "क्षण": 1443,
    "▁तिष्ठ": 1444,
    "न्तो": 1445,
    "▁जना": 1446,
    "▁पित": 1447,
    "▁अवद": 1448,
    "न्,": 1449,
    "▁त्व": 1450,
    "वश्य": 1451,
    "▁तेषाम": 1452,
    "दु": 1453,
    "च्चार": 1454,
    "मेव": 1455,
    "▁द्योतयति": 1456,
    "▁\"अहं": 1457,
    "▁बार्": 1458,
    "-को": 1459,
    "ेशन्": 1460,
    "▁संख्या": 1461,
    "00": 1462,
    "01": 1463,
    "▁टण्क": 1464,
    "यामि": 1465,
    "टम्": 1466,
    "▁अनेन": 1467,
    "▁आदौ": 1468,
    "▁चेक्": 1469,
    "औट्": 1470,
    "मासीत्": 1471,
    "▁आवा": 1472,
    "▁चिन्त": 1473,
    "वन्तौ": 1474,
    "▁द्वे": 1475,
    "▁फील्ड्स्": 1476,
    "▁दर्श": 1477,
    "िते": 1478,
    "▁अहम": 1479,
    "धुना": 1480,
    "डे": 1481,
    "ण्ट्": 1482,
    "in": 1483,
    "ha": 1484,
    "▁लोग": 1485,
    "▁करोमि": 1486,
    "▁एवं": 1487,
    "▁क्रियते": 1488,
    "▁चेत्": 1489,
    "▁\"S": 1490,
    "uper": 1491,
    "ibr": 1492,
    "ari": 1493,
    "▁क्रि": 1494,
    "मो": 1495,
    "्यु": 1496,
    "ल्-": 1497,
    "निमित्तं": 1498,
    "फ्": 1499,
    "▁दातुं": 1500,
    "दक्षिण": 1501,
    "▁मेन्यू": 1502,
    "मध्ये": 1503,
    "re": 1504,
    "view": 1505,
    "▁qu": 1506,
    "iz": 1507,
    "▁गण्डं": 1508,
    "▁अस्मिन्": 1509,
    "▁वयम्": 1510,
    "▁\"उ": 1511,
    "बु": 1512,
    "ण्टु": 1513,
    "▁11.10": 1514,
    "▁(ए": 1515,
    "दश": 1516,
    "--": 1517,
    "▁दश": 1518,
    "जे": 1519,
    "िके": 1520,
    "▁1.": 1521,
    "----": 1522,
    "▁एक्लिप्स्": 1523,
    "▁सप्त": 1524,
    "▁इत्येतान्": 1525,
    "▁उपयुञ्ज": 1526,
    "ामहे": 1527,
    "reate": 1528,
    "ir": 1529,
    "le": 1530,
    "▁and": 1531,
    "ll": 1532,
    "ipse": 1533,
    "▁टूल्": 1534,
    "-ब": 1535,
    "ोक्स्": 1536,
    "▁इत्यस्मात्": 1537,
    "▁चिनोतु": 1538,
    "▁विध": 1539,
    "वर्ग": 1540,
    "▁यस्य": 1541,
    "▁गण": 1542,
    "▁तया": 1543,
    "ष्टि": 1544,
    "भ्यो": 1545,
    "▁न्यून": 1546,
    "स्क": 1547,
    "ितव्यं": 1548,
    "▁अपरं": 1549,
    "▁पूर्व्व": 1550,
    "स्व": 1551,
    "▁भूत्वा": 1552,
    "▁FrontAccounting": 1553,
    "▁आवृत्तिः": 1554,
    "▁भवत्यां": 1555,
    "▁विश्वासं": 1556,
    "ib": 1557,
    "ff": 1558,
    "ice": 1559,
    "er": 1560,
    "रक्ष": 1561,
    "सञ्चिक": 1562,
    "▁अक्षराणि": 1563,
    "▁पोष": 1564,
    "त्व": 1565,
    "▁स्वास्थ्य": 1566,
    "कत": 1567,
    "▁उपस्थ": 1568,
    "▁कारण": 1569,
    "▁भोजनं": 1570,
    "▁निम्न": 1571,
    "लिख": 1572,
    "▁कार्याणि": 1573,
    "चित": 1574,
    "▁'अरे": 1575,
    "इत्य": 1576,
    "▁मूल": 1577,
    "ानु": 1578,
    "मं": 1579,
    "व्यं": 1580,
    "▁search": 1581,
    "ng": 1582,
    "ine": 1583,
    "▁स्थापयतु": 1584,
    "▁पङ्": 1585,
    "क्तिः": 1586,
    "▁वाक्यं": 1587,
    "▁रक्षितुं": 1588,
    "▁इत्यत्र": 1589,
    "▁इण्टर्": 1590,
    "नल": 1591,
    "▁गच्छतु": 1592,
    "▁यदा": 1593,
    "▁enter": 1594,
    "▁नुदामः": 1595,
    "▁कस्य": 1596,
    "▁निवेश": 1597,
    "put": 1598,
    "▁प्रती": 1599,
    "▁\"\"\"हे": 1600,
    "▁भ्रातरः,": 1601,
    "▁आह": 1602,
    "ूत": 1603,
    "गण": 1604,
    "ष्मा": 1605,
    "भि": 1606,
    "ाल": 1607,
    "्यतां": 1608,
    "▁तन्": 1609,
    "▁सां": 1610,
    "सार": 1611,
    "▁ज्ञान": 1612,
    "वन्तः": 1613,
    "▁पराक्र": 1614,
    "णो": 1615,
    "▁कु": 1616,
    "ली": 1617,
    "▁विद्यन्ते": 1618,
    "▁उत्त": 1619,
    "ण:": 1620,
    "▁तार": 1621,
    "▁\"\"\"इ": 1622,
    "त्थं": 1623,
    "▁लो": 1624,
    "टो": 1625,
    "▁वर्त्त": 1626,
    "▁लोका": 1627,
    "विक": 1628,
    "्र": 1629,
    "गृह": 1630,
    "र्म्": 1631,
    "कर्म्म": 1632,
    "र्त्त": 1633,
    "▁Shift": 1634,
    "▁मह्यं": 1635,
    "चित्रं": 1636,
    "▁इदानीम्": 1637,
    "ct": 1638,
    "ive": 1639,
    "▁ओब्जेक्ट्-": 1640,
    "द्व": 1641,
    "यमपि": 1642,
    "▁अन्य": 1643,
    "्ये": 1644,
    "▁प्राप्तवदस्ति": 1645,
    "▁पार": 1646,
    "त्य": 1647,
    "वाच": 1648,
    "▁हे": 1649,
    "▁प्रभो": 1650,
    "▁ज्ञातुं": 1651,
    "▁उत्स": 1652,
    "ुका": 1653,
    "▁अस्मिन": 1654,
    "▁बुद्ध": 1655,
    "▁मनुष्य": 1656,
    "▁सहस्र": 1657,
    "त्रस्य": 1658,
    "ित्य": 1659,
    "▁केन": 1660,
    "▁विधि": 1661,
    "▁पाठं": 1662,
    "▁सर": 1663,
    "▁भवेत": 1664,
    "▁Course": 1665,
    "▁category": 1666,
    "▁man": 1667,
    "age": 1668,
    "ment": 1669,
    "▁पृ": 1670,
    "ष्टं": 1671,
    "िताः": 1672,
    "ामः": 1673,
    "▁course": 1674,
    "▁कि": 1675,
    "मिति": 1676,
    "▁जानाम": 1677,
    "कः": 1678,
    "▁दूर": 1679,
    "दर्श": 1680,
    "▁अस्य": 1681,
    "कार": 1682,
    "कारण": 1683,
    "पदार्थ": 1684,
    "▁समान": 1685,
    "पं": 1686,
    "▁प्राप्नुवन्ति": 1687,
    "पट": 1688,
    "मिव": 1689,
    "irst": 1690,
    "▁is": 1691,
    "ue": 1692,
    "▁publ": 1693,
    "ication": 1694,
    "▁date": 1695,
    "मित्तम्": 1696,
    "201": 1697,
    "ण्टर्": 1698,
    "▁एतानि": 1699,
    "▁विवरणानि": 1700,
    "▁अग्रे": 1701,
    "▁अनुशिक्षणे": 1702,
    "नाश": 1703,
    "का:": 1704,
    "भो": 1705,
    "पदा": 1706,
    "र्था:": 1707,
    "▁जीवाण": 1708,
    "▁ना": 1709,
    "▁लौ": 1710,
    "त्त्व": 1711,
    "▁इदानीं": 1712,
    "▁वस्तु": 1713,
    "जीव": 1714,
    "▁शक्यते": 1715,
    "▁\"स्पोकन्": 1716,
    "▁ट्युटोरियल्": 1717,
    "▁प्रकल्प": 1718,
    "▁NMEICT": 1719,
    "▁MHRD": 1720,
    "▁भारतसर्वकारस्य": 1721,
    "ानं": 1722,
    "▁अधिकविवरणार्थं": 1723,
    "▁पर्च": 1724,
    "नीं": 1725,
    "लैन्": 1726,
    "ायाम्": 1727,
    "▁उत्तीर्ण": 1728,
    "▁प्रमाणपत्रमपि": 1729,
    "▁दीयते": 1730,
    "▁भागं": 1731,
    "तुम्": 1732,
    "▁अन्तर्जाल": 1733,
    "सम्प": 1734,
    "▁जाल": 1735,
    "ान्व": 1736,
    "eb": 1737,
    "row": 1738,
    "ser": 1739,
    "▁\"पाठेऽस्मिन्": 1740,
    "▁वयम्,": 1741,
    "न्स्": 1742,
    "▁वेरियेबल्": 1743,
    "▁रचना": 1744,
    "▁ओब्जेक्ट्": 1745,
    "▁इत्येतेभ्यः": 1746,
    "▁मे": 1747,
    "▁भवत्य": 1748,
    "▁शक्नुवन्ति": 1749,
    "▁युद्ध": 1750,
    "▁कार": 1751,
    "्त": 1752,
    "यू": 1753,
    "ोपरि": 1754,
    "कृत्वा": 1755,
    "▁\"\"\"ते": 1756,
    "▁केचन": 1757,
    "सं": 1758,
    "गत": 1759,
    "रा:": 1760,
    "▁हा": 1761,
    "ाह": 1762,
    "▁पशु": 1763,
    "नां": 1764,
    "ुर": 1765,
    "ची": 1766,
    "ध्व": 1767,
    "▁वृक्षाणां": 1768,
    "▁ध्व": 1769,
    "▁जल": 1770,
    "पात": 1771,
    "▁प्रयोगं": 1772,
    "▁\"वयं": 1773,
    "स्प": 1774,
    "्ल": 1775,
    "टि": 1776,
    "▁इत्य": 1777,
    "सो": 1778,
    "र्स्": 1779,
    "▁प्राप्तवन्तः": 1780,
    "▁स्मर": 1781,
    "▁मू": 1782,
    "▁चित्रं": 1783,
    "▁\"\"\"स": 1784,
    "भी": 1785,
    "▁श्वास": 1786,
    "▁से": 1787,
    "▁ही": 1788,
    "▁है": 1789,
    "▁और": 1790,
    "▁छोड": 1791,
    "▁है,": 1792,
    "▁में": 1793,
    "▁प्रयोग": 1794,
    "▁नहीं": 1795,
    "▁करना": 1796,
    "▁पठ": 1797,
    "ान्तरं": 1798,
    "▁भवन्त:": 1799,
    "▁सक्ष": 1800,
    "मा:": 1801,
    "▁भविष्यन्ति": 1802,
    "▁'s": 1803,
    "▁be": 1804,
    "am": 1805,
    "▁color": 1806,
    "▁al": 1807,
    "ed": 1808,
    "▁text": 1809,
    "▁आदेश": 1810,
    "▁सम्पाद": 1811,
    "▁एकः": 1812,
    "▁अव": 1813,
    "काश": 1814,
    "▁for": 1815,
    "ground": 1816,
    "▁equal": 1817,
    "▁रच": 1818,
    "ायाः": 1819,
    "▁डी": 1820,
    "से": 1821,
    "ले": 1822,
    "क्ट्": 1823,
    "▁करणाय": 1824,
    "RL": 1825,
    "▁कीलकानि": 1826,
    "▁पृष्ठस्य": 1827,
    "▁Sub": 1828,
    "our": 1829,
    "▁su": 1830,
    "gg": 1831,
    "estion": 1832,
    "ञ्ज": 1833,
    "यः": 1834,
    "▁\"यदि": 1835,
    "▁फलितं": 1836,
    "त्म": 1837,
    "▁भवेत्": 1838,
    "▁तर्हि": 1839,
    "imp": 1840,
    "▁नू": 1841,
    "सूच": 1842,
    "▁\"ए": 1843,
    "न्द": 1844,
    "्री": 1845,
    "दस्य": 1846,
    "विवरण": 1847,
    "▁निर्व": 1848,
    "cript": 1849,
    "let": 1850,
    "ag": 1851,
    "▁user": 1852,
    "▁type": 1853,
    "▁रचितवन्तः": 1854,
    "▁स्मः": 1855,
    "ेऽ": 1856,
    "▁प्रकृत": 1857,
    "▁परस्प": 1858,
    "रस": 1859,
    "म्बद्ध": 1860,
    "ाम:": 1861,
    "▁कण्डीशन्": 1862,
    "▁मूल्यं": 1863,
    "▁संयोजयाम": 1864,
    "▁उद्": 1865,
    "▁\"D": 1866,
    "isplay": 1867,
    "ettings": 1868,
    "ave": 1869,
    "en": 1870,
    "ate": 1871,
    "पे": 1872,
    "▁प्रत्येकं": 1873,
    "▁भिन्न": 1874,
    "र्ण": 1875,
    "▁tab": 1876,
    "▁त्र": 1877,
    "▁मैत्रीं": 1878,
    "ou": 1879,
    "nd": 1880,
    "ata": 1881,
    "-t": 1882,
    "ype": 1883,
    "▁\"\"\"त": 1884,
    "र्हि": 1885,
    "▁ब्र": 1886,
    "ीति": 1887,
    "▁तद्": 1888,
    "▁तव": 1889,
    "▁समीप": 1890,
    "▁मन": 1891,
    "सि": 1892,
    "▁चा": 1893,
    "▁तच्च": 1894,
    "▁वाक": 1895,
    "्यम्": 1896,
    "▁प्रचार": 1897,
    "्य्य": 1898,
    "माणं": 1899,
    "▁विश्वास": 1900,
    "▁वाक्य": 1901,
    "▁महर्ष": 1902,
    "िप": 1903,
    "दिश": 1904,
    "▁मन्यते": 1905,
    "▁सर्प": 1906,
    "▁आसीत": 1907,
    "▁भगवान": 1908,
    "राज": 1909,
    "▁द्वि": 1910,
    "नोद": 1911,
    "▁कृत्वा": 1912,
    "▁टङ्कयतु": 1913,
    "वर्त": 1914,
    "urn": 1915,
    "▁अस्मभ्यं": 1916,
    "▁अन्यानि": 1917,
    "▁कोड्": 1918,
    "ेव": 1919,
    "▁शिष्या": 1920,
    "▁यीशो": 1921,
    "ादृ": 1922,
    "देश": 1923,
    "▁तत्र": 1924,
    "▁निस्त": 1925,
    "मह": 1926,
    "▁वै": 1927,
    "सू": 1928,
    "तस्य": 1929,
    "▁सू": 1930,
    "त्राणि": 1931,
    "▁नाम्ना": 1932,
    "▁प्रसिद्ध": 1933,
    "++": 1934,
    "िं": 1935,
    "ितुं": 1936,
    "ज्यस्य": 1937,
    "▁(f": 1938,
    "unction": 1939,
    "▁क्लो": 1940,
    "सिं": 1941,
    "ट्-": 1942,
    "▁database": 1943,
    "▁सर्वर्": 1944,
    "▁उपयुञ्ज्महे": 1945,
    "मन्य": 1946,
    "▁उपयुक्त": 1947,
    "च्चित्र": 1948,
    "▁चित्रमिदं": 1949,
    "लेख": 1950,
    "▁पाठस्य": 1951,
    "▁अनु": 1952,
    "▁अनुम": 1953,
    "तिं": 1954,
    "▁प्राप्य": 1955,
    "वानस्मि": 1956,
    "▁सूक्ष्म": 1957,
    "ाया:": 1958,
    "▁दृष्ट": 1959,
    "ेत्": 1960,
    "ड्रो": 1961,
    "▁टङ्क": 1962,
    "कू": 1963,
    "शब्द": 1964,
    "दृश्य": 1965,
    "रूपेण": 1966,
    "ध्याय": 1967,
    "▁20": 1968,
    "मश": 1969,
    "पर्यन्तं": 1970,
    "▁ईश्वरस्य": 1971,
    "भूत": 1972,
    "▁उक्त": 1973,
    "▁पूज": 1974,
    "ष्ये": 1975,
    "▁नक्ष": 1976,
    "वर्ष": 1977,
    "त्वे": 1978,
    "च्यते": 1979,
    "र्था": 1980,
    "▁सूर्यस्य": 1981,
    "परि": 1982,
    "क्रम": 1983,
    "णे": 1984,
    "▁पृथिव्यां": 1985,
    "▁किय": 1986,
    "ोऽ": 1987,
    "पेक्ष": 1988,
    "ुक्त": 1989,
    "▁तद": 1990,
    "▁उच्यते": 1991,
    "▁पाठागता:": 1992,
    "▁प्रश्ना:": 1993,
    "any": 1994,
    "▁address": 1995,
    "▁अर्थात": 1996,
    "▁पक्ष": 1997,
    "▁वृ": 1998,
    "क्षे": 1999,
    "▁युगप": 2000,
    "▁पार्श्वे": 2001,
    "▁उपविश": 2002,
    "▁श्वस": 2003,
    "भ्यास": 2004,
    "▁भविष्यति": 2005,
    "▁एष:": 2006,
    "तरं": 2007,
    "द्धं": 2008,
    "▁एलिमेण्ट्स्": 2009,
    "▁इतीमानि": 2010,
    "ackage": 2011,
    "स्-": 2012,
    "केज्": 2013,
    "म्या": 2014,
    "▁लिखन्तु": 2015,
    "▁दो": 2016,
    "▁प्रकार": 2017,
    "▁की": 2018,
    "▁करण": 2019,
    "▁प्राक्": 2020,
    "▁यदि": 2021,
    "रित": 2022,
    "देशः": 2023,
    "ितः": 2024,
    "▁भवितुम्": 2025,
    "▁अर्": 2026,
    "हति": 2027,
    "▁Pro": 2028,
    "mpt": 2029,
    "ch": 2030,
    "▁space": 2031,
    "▁minus": 2032,
    "▁comm": 2033,
    "and": 2034,
    "▁single": 2035,
    "▁quot": 2036,
    "ack": 2037,
    "▁\"\"\"प": 2038,
    "श्चात्": 2039,
    "▁तम": 2040,
    "वादीत्": 2041,
    "▁एतद्": 2042,
    "भवं": 2043,
    "▁तु": 2044,
    "भ्यं": 2045,
    "▁दास्य": 2046,
    "▁मयि": 2047,
    "▁समर्प": 2048,
    "मास्ते": 2049,
    "▁यं": 2050,
    "मे": 2051,
    "▁जायते": 2052,
    "▁तस्मै": 2053,
    "▁शक्नोमि": 2054,
    "ृतीय": 2055,
    "म्,": 2056,
    "म्प": 2057,
    "ण्ड्": 2058,
    "▁ओपरेटर्": 2059,
    "नाः": 2060,
    "▁संयोज": 2061,
    "ितव": 2062,
    "स्माद्": 2063,
    "स्तेषां": 2064,
    "मुख": 2065,
    "▁सन्": 2066,
    "▁आकाश": 2067,
    "▁ज्योति": 2068,
    "र्ग": 2069,
    "▁तेभ्य": 2070,
    "▁दद": 2071,
    "▁यादृ": 2072,
    "▁भविष्यद्वादि": 2073,
    "▁ग्रन्थ": 2074,
    "▁लिखित": 2075,
    "▁यथा,": 2076,
    "▁इस्रायेल": 2077,
    "वं": 2078,
    "िंश": 2079,
    "▁मह": 2080,
    "ान्तरे": 2081,
    "▁संस्था": 2082,
    "▁यू": 2083,
    "▁यानि": 2084,
    "हो": 2085,
    "र्म्माणि": 2086,
    "स्तु": 2087,
    "▁तानि": 2088,
    "▁मां": 2089,
    "▁समु": 2090,
    "दिश्य": 2091,
    "▁युष्माभिः": 2092,
    "ानी": 2093,
    "▁नैव": 2094,
    "▁\"एतत्": 2095,
    "र्थ": 2096,
    "ीकरोति": 2097,
    "▁न्यू": 2098,
    "▁चर्च": 2099,
    "▁अग्रिम": 2100,
    "▁उपयोक्तुं": 2101,
    "सर्": 2102,
    "च्": 2103,
    "-बार्": 2104,
    "minal": 2105,
    "▁Terminal": 2106,
    "यितुं,": 2107,
    "▁ऐकान्": 2108,
    "▁br": 2109,
    "es": 2110,
    "▁उद्घाट्य": 2111,
    "▁पिदध": 2112,
    "ातु": 2113,
    "स्माकं": 2114,
    "▁यीशुख्रीष्ट": 2115,
    "▁तम्": 2116,
    "▁आत्मानं": 2117,
    "त्वेन": 2118,
    "▁योह": 2119,
    "्त्त": 2120,
    "▁प्राप": 2121,
    "गत्य": 2122,
    "▁श्मश": 2123,
    "ाने": 2124,
    "स्थाप": 2125,
    "यन्": 2126,
    "▁त्वं": 2127,
    "ानन्द": 2128,
    "र्ष": 2129,
    "▁भविष्य": 2130,
    "▁जन्म": 2131,
    "▁बह": 2132,
    "▁आन": 2133,
    "न्दि": 2134,
    "▁अपरम्": 2135,
    "▁एष": 2136,
    "▁यिहूदीयानां": 2137,
    "▁यीशु": 2138,
    "वाद": 2139,
    "पत्रं": 2140,
    "िर": 2141,
    "▁ऊर्": 2142,
    "▁योज": 2143,
    "▁\"\"": 2144,
    "cc": 2145,
    "alk": 2146,
    ".c": 2147,
    "▁hyphen": 2148,
    "out": 2149,
    "▁spoken": 2150,
    "▁tutorial": 2151,
    "▁org": 2152,
    "▁Intro": 2153,
    "▁अण": 2154,
    "ुना": 2155,
    "▁यद्व": 2156,
    "▁भवति,": 2157,
    "भव": 2158,
    "ति,": 2159,
    "▁तद्वत्": 2160,
    "▁ख्रीष्ट": 2161,
    "ame": 2162,
    "ocument": 2163,
    "▁उद्घटते": 2164,
    "▁सूर्य": 2165,
    "नमस्कार": 2166,
    "▁अधिक": 2167,
    "ला": 2168,
    "ताया:": 2169,
    "ऽपि": 2170,
    "▁शिक्ष": 2171,
    "▁एतत": 2172,
    "ित्वा": 2173,
    "▁भवान": 2174,
    "▁साम": 2175,
    "कर्ता": 2176,
    "▁(c": 2177,
    "▁prompt": 2178,
    "▁सर्वदा": 2179,
    "▁चयनं": 2180,
    "▁नव": 2181,
    "up": 2182,
    "▁रङ्ग": 2183,
    "सिक": 2184,
    "्रे": 2185,
    "▁बार": 2186,
    "▁स्पष्ट": 2187,
    "ूप": 2188,
    "स्मा": 2189,
    "▁सूत्र": 2190,
    "▁निष्कास": 2191,
    "▁सार": 2192,
    "▁भग": 2193,
    "▁योग": 2194,
    "▁प्रो": 2195,
    "▁\"अत्र": 2196,
    "प्रकारेण": 2197,
    "▁अहम्": 2198,
    "itle": 2199,
    "',": 2200,
    "-स": 2201,
    "विचार": 2202,
    "▁मुद्रापयामः": 2203,
    "तादृश": 2204,
    "▁क्रिया": 2205,
    "क्रिया": 2206,
    "-स्": 2207,
    "▁दुग्ध": 2208,
    "▁शीत": 2209,
    "▁ध्यानं": 2210,
    "ार्थं": 2211,
    "▁Ubuntu": 2212,
    "▁10": 2213,
    ".04": 2214,
    "▁Firefox": 2215,
    "▁संस्": 2216,
    "करणं": 2217,
    ".0": 2218,
    "▁set": 2219,
    "tt": 2220,
    "ribute": 2221,
    "▁मेथेड्": 2222,
    "▁उपयुज्य,": 2223,
    "▁vari": 2224,
    "able": 2225,
    "▁re": 2226,
    "quest": 2227,
    "op": 2228,
    "▁स्थापयामः": 2229,
    "योः": 2230,
    "▁किम": 2231,
    "▁नास्ति": 2232,
    "ो:": 2233,
    "ेच्छ": 2234,
    "▁उत्पन्न": 2235,
    "ample": 2236,
    "▁example": 2237,
    "▁test": 2238,
    "own": 2239,
    "▁रिक्त": 2240,
    "-सञ्चिक": 2241,
    "▁निर्माण": 2242,
    "▁पूर": 2243,
    "कता": 2244,
    "▁आद": 2245,
    "▁अद": 2246,
    "▁गर्": 2247,
    "त्प": 2248,
    "▁Be": 2249,
    "ier": 2250,
    "▁tool": 2251,
    "▁चित्वा": 2252,
    "चि": 2253,
    "▁रेख": 2254,
    "▁रचयन्तु": 2255,
    "▁शरीर": 2256,
    "▁पास": 2257,
    "▁रखें": 2258,
    "▁इन्": 2259,
    "ें": 2260,
    "▁बाहर": 2261,
    "▁अहमिदं": 2262,
    "▁सञ्च": 2263,
    "▁रक्ष": 2264,
    "पार्श्व": 2265,
    "▁open": 2266,
    "भ्य": 2267,
    "णम्": 2268,
    "कुर्व्व": 2269,
    "▁cur": 2270,
    "ve": 2271,
    "थं": 2272,
    "म्य": 2273,
    "▁गीत": 2274,
    "मू": 2275,
    "्यव": 2276,
    "ग्रन्": 2277,
    "थे": 2278,
    "▁शस्य": 2279,
    "द्द": 2280,
    "वृ": 2281,
    "स्यास्य": 2282,
    "त्स्य": 2283,
    "▁ईश्वरेण": 2284,
    "ीव": 2285,
    "?\"\"\"": 2286,
    "▁दक्षिणपार्श्वे": 2287,
    "▁En": 2288,
    "rol": 2289,
    "▁सभी": 2290,
    "▁उद्देश्य": 2291,
    "री": 2292,
    "▁करने": 2293,
    "▁मदद": 2294,
    "▁करता": 2295,
    "▁\"किन्तु,": 2296,
    "तम्": 2297,
    "▁गह": 2298,
    "▁साँस": 2299,
    "ेने": 2300,
    "क्सीजन": 2301,
    "▁साथ": 2302,
    "▁रक्त": 2303,
    "▁होता": 2304,
    "▁स्लैड्": 2305,
    "▁गच्छाम": 2306,
    "ेक्": 2307,
    "-ट": 2308,
    "ूल्": 2309,
    "▁इतीदमुपयुज्य": 2310,
    "▁आय": 2311,
    "▁रचयाम": 2312,
    "ानुसारेण": 2313,
    "▁categ": 2314,
    "ories": 2315,
    "▁नाना": 2316,
    "▁प्रणाल": 2317,
    "भ्यः,": 2318,
    "ours": 2319,
    "▁अकौण्ट्": 2320,
    "▁जग": 2321,
    "▁\"अनन्तरं,": 2322,
    "ME": 2323,
    "▁इत्याख": 2324,
    "▁ट्याब्": 2325,
    "▁गच्छन्तु": 2326,
    "▁गोशाल": 2327,
    "▁मिनट": 2328,
    "▁तक": 2329,
    "कालं": 2330,
    "ट्ट": 2331,
    "िकां": 2332,
    "▁द्र": 2333,
    "रुप": 2334,
    "▁तिष्ठति": 2335,
    "▁सञ्चिकां": 2336,
    "▁रक्षित्वा": 2337,
    "▁प्रोग्राम्": 2338,
    "▁रन्": 2339,
    "▁करोतु": 2340,
    "▁कर्": 2341,
    "▁कार्यं": 2342,
    "▁दत्तवान्": 2343,
    "▁स्थि": 2344,
    "स्तिष्ठ": 2345,
    "▁पुन": 2346,
    "▁र्न": 2347,
    "चे": 2348,
    "▁पर": 2349,
    "▁बना": 2350,
    "▁मास": 2351,
    "पेश": 2352,
    "▁आराम": 2353,
    "▁दें": 2354,
    "य:": 2355,
    "▁ज्ञानं": 2356,
    "▁भवितुं": 2357,
    "▁\"\"\"ततः": 2358,
    "▁प्रत्य": 2359,
    "वोच": 2360,
    "▁भूत": 2361,
    "िण": 2362,
    "रोग": 2363,
    "▁तृतीय": 2364,
    "ह्": 2365,
    "ामि,": 2366,
    "▁कथाम": 2367,
    "▁यूय": 2368,
    "मित": 2369,
    "▁भू": 2370,
    "दृ": 2371,
    "ीकु": 2372,
    "▁यत्,": 2373,
    "▁C++": 2374,
    "▁फ़ैल्": 2375,
    "pp": 2376,
    "▁एक्स्टेन्": 2377,
    "▁यु": 2378,
    "तानि": 2379,
    "▁\"\"\"इस": 2380,
    "▁प्राणायाम": 2381,
    "डी": 2382,
    "▁शुद्ध": 2383,
    "▁कह": 2384,
    "▁इसे": 2385,
    "लोम": 2386,
    "-वि": 2387,
    "▁कहा": 2388,
    "▁जाता": 2389,
    "▁अतः": 2390,
    "▁फल": 2391,
    "विषये": 2392,
    "▁मा": 2393,
    "▁टेक्स्ट्": 2394,
    "▁एडिटर्": 2395,
    "▁आगच्छन्तु": 2396,
    "▁In": 2397,
    "id": 2398,
    "ar": 2399,
    "ception": 2400,
    "▁लिङ्क्": 2401,
    "▁मध्यस्थं": 2402,
    "डियो": 2403,
    "▁वयमत्र": 2404,
    "at": 2405,
    "us": 2406,
    "▁प्रा": 2407,
    "त्रे": 2408,
    "▁आवश्यकता": 2409,
    "eturn": 2410,
    "टर्न्": 2411,
    "▁स्टेट्": 2412,
    "्ट्": 2413,
    "▁अस्मा": 2414,
    "नन्तरं": 2415,
    "▁स्टेट्मेण्ट्": 2416,
    "▁सम्भवति": 2417,
    "▁क्ष": 2418,
    "प्त": 2419,
    "वती": 2420,
    "िता:": 2421,
    "रु": 2422,
    "णा": 2423,
    "ध्": 2424,
    "▁अंग": 2425,
    "▁पी": 2426,
    "ों": 2427,
    "हा": 2428,
    "▁था": 2429,
    "मानं": 2430,
    "▁निय": 2431,
    "भा": 2432,
    "▁उत्थाय": 2433,
    "▁पील": 2434,
    "सम्": 2435,
    "▁नीत्वा": 2436,
    "प्रो": 2437,
    "▁वक्त": 2438,
    "ुमारे": 2439,
    "▁मात": 2440,
    "ामह": 2441,
    "▁अश्व": 2442,
    "▁धाव": 2443,
    "योग": 2444,
    "▁पुर": 2445,
    "स्कार": 2446,
    "▁वयमधुना": 2447,
    "▁marks": 2448,
    "▁वृद्ध": 2449,
    "▁रूप": 2450,
    "▁प्रिण्ट्": 2451,
    "▁कुर्व": 2452,
    "न्तः": 2453,
    "मानानि": 2454,
    "ार्थम्": 2455,
    "▁उत्तमं": 2456,
    "▁अवलोकयन्तु": 2457,
    "▁अनुशिक्षण": 2458,
    "▁Koha": 2459,
    "▁16": 2460,
    "ersion": 2461,
    "▁आसीत्": 2462,
    "pl": 2463,
    "▁रचयित्वा": 2464,
    "▁अग्रिमप": 2465,
    "ङ्क्तौ": 2466,
    "lse": 2467,
    "ोर्": 2468,
    "▁एतेन": 2469,
    "जेक्": 2470,
    "प्": 2471,
    "▁समं": 2472,
    "wk": 2473,
    "▁अह": 2474,
    "ैन्": 2475,
    "▁कर्त": 2476,
    "ॄणां": 2477,
    "▁ला": 2478,
    "▁डिक्लेर्": 2479,
    "▁ततो": 2480,
    "क्ष्य": 2481,
    "▁यो": 2482,
    "▁आगमिष्य": 2483,
    "▁मत्त": 2484,
    "▁मत्": 2485,
    "पूर्व": 2486,
    "▁यद": 2487,
    "र्थम्": 2488,
    "मिदम्": 2489,
    "▁एषः": 2490,
    "ales": 2491,
    "▁Sales": 2492,
    "rea": 2493,
    "▁ड्रोप्": 2494,
    "▁डौन्": 2495,
    "▁बोक्स्": 2496,
    "umb": 2497,
    "▁चिन्वन्तु": 2498,
    "▁भोज्य": 2499,
    "च्छाद": 2500,
    "ण्ड": 2501,
    "▁अंश": 2502,
    "▁पत्राणि": 2503,
    "ig": 2504,
    "ight": 2505,
    "▁इतीदं,": 2506,
    "ड्-": 2507,
    "▁स्थान": 2508,
    "▁Av": 2509,
    "ail": 2510,
    "ies": 2511,
    "▁सङ्ख्य": 2512,
    "▁योजयामः": 2513,
    "▁मृत": 2514,
    "घट": 2515,
    "व:": 2516,
    "▁जीवा:": 2517,
    "दिनं": 2518,
    "्रिय": 2519,
    "▁\"\"\"तदा": 2520,
    "ोच": 2521,
    "ासि": 2522,
    "स्मान्": 2523,
    "▁भ्राम": 2524,
    "▁अभ्यास": 2525,
    "▁करें": 2526,
    "▁अस्माभि:": 2527,
    "▁द्रष्ट": 2528,
    "वस्तु": 2529,
    "▁जीव": 2530,
    "जग": 2531,
    "▁संतुल": 2532,
    "▁सम्यग": 2533,
    "▁निर्देश": 2534,
    "▁\"अत्र,": 2535,
    "ce": 2536,
    "nter": 2537,
    "▁of": 2538,
    "\"\"": 2539,
    "ात्म": 2540,
    "▁बिन्द": 2541,
    "▁इमं": 2542,
    "▁परितः": 2543,
    "▁चित्रस्य": 2544,
    "भ्र": 2545,
    "ener": 2546,
    "ome": 2547,
    "▁Page": 2548,
    "ield": 2549,
    "ww": 2550,
    "hoo": 2551,
    ".com": 2552,
    "▁भवता": 2553,
    "र्णं": 2554,
    "▁|\"": 2555,
    "्याप": 2556,
    "▁क्विज़्": 2557,
    "-करण": 2558,
    "▁सर्वे": 2559,
    "▁छात्राः": 2560,
    "▁यीशुस्त": 2561,
    "▁यावत्": 2562,
    "▁वर": 2563,
    "▁तावत्": 2564,
    "▁कर्त्तुं": 2565,
    "▁शक्": 2566,
    "लु": 2567,
    "वन्ति": 2568,
    "यन्ति": 2569,
    "▁तादृश": 2570,
    "9.": 2571,
    "50": 2572,
    "यन्त्र": 2573,
    "बेस्": 2574,
    "-तः": 2575,
    "▁विवरण": 2576,
    "▁शोध": 2577,
    "प्राप्त": 2578,
    "ol": 2579,
    "▁सङ्": 2580,
    "क्षेपेण": 2581,
    "▁क्या": 2582,
    "टल": 2583,
    "ङ्": 2584,
    "▁साधन": 2585,
    "▁कण्": 2586,
    "▁उदाहरणार्थं": 2587,
    "▁cat": 2588,
    "▁file": 2589,
    "name": 2590,
    "▁,\"": 2591,
    "▁लूप्": 2592,
    "▁run": 2593,
    "▁from": 2594,
    "▁to": 2595,
    "▁Netbeans": 2596,
    "etbeans": 2597,
    ".org": 2598,
    "ेतुं": 2599,
    "▁शक": 2600,
    "ode": 2601,
    "▁क्र": 2602,
    "पूर्ण": 2603,
    "ाङ्क": 2604,
    "▁de": 2605,
    "युक्त:": 2606,
    "▁\"आ": 2607,
    "▁तन्म": 2608,
    "▁परिवर्त": 2609,
    "नीय": 2610,
    "▁पूर्वं": 2611,
    "▁कृतवान्": 2612,
    "▁(p": 2613,
    "refer": 2614,
    "ence": 2615,
    "▁प्रि": 2616,
    "▁Cont": 2617,
    "क्रिप्": 2618,
    "▁स्पोकन्": 2619,
    "▁द्वितीयं": 2620,
    "▁Add": 2621,
    "▁the": 2622,
    "ud": 2623,
    "io": 2624,
    "▁Pl": 2625,
    "ace": 2626,
    "▁Order": 2627,
    "im": 2628,
    "▁गम": 2629,
    "गमने": 2630,
    "▁हेतो": 2631,
    "िरूशाल": 2632,
    "▁बहिः": 2633,
    "▁भविष्यद्वा": 2634,
    "दी": 2635,
    "ष्यते": 2636,
    "▁वाम": 2637,
    "भाग": 2638,
    "▁Up": 2639,
    "load": 2640,
    "▁चितं": 2641,
    "▁तन्न": 2642,
    "▁\"अस्य": 2643,
    "▁window": 2644,
    "▁Next": 2645,
    "▁यह": 2646,
    "▁आपको": 2647,
    "▁रह": 2648,
    "▁समझ": 2649,
    "ाती": 2650,
    "▁सुसंवाद": 2651,
    "▁शृङ्ख": 2652,
    "बद्ध": 2653,
    "न्नि": 2654,
    "यितुम्": 2655,
    "▁अपरञ्च": 2656,
    "ीश": 2657,
    "▁बन्ध": 2658,
    "र्द्ध": 2659,
    "▁सन्तान": 2660,
    "ब्": 2661,
    "धार": 2662,
    "भूत्": 2663,
    "▁मध्य": 2664,
    "मौ": 2665,
    "टन्": 2666,
    "वस": 2667,
    "्यस्य": 2668,
    "कृते": 2669,
    "▁डैलाग्": 2670,
    "▁उद्घट्यते": 2671,
    "▁विकल्पान्": 2672,
    "em": 2673,
    "ile": 2674,
    "▁st": 2675,
    "art": 2676,
    "▁सन्देशः": 2677,
    "्येत": 2678,
    "▁ग्रन्थाल": 2679,
    "यात्": 2680,
    "▁पुस्तकं": 2681,
    "▁ग्र": 2682,
    "ही": 2683,
    "▁हि": 2684,
    "▁त्य": 2685,
    "▁पुण्य": 2686,
    "▁जीवन": 2687,
    "ामेव": 2688,
    "यिष्य": 2689,
    "▁भीष्": 2690,
    "▁सेना": 2691,
    "पतिः": 2692,
    "▁कस्यापि": 2693,
    "▁गृहं": 2694,
    "▁अग्नि": 2695,
    "्वल": 2696,
    "▁कोऽपि": 2697,
    "▁जले": 2698,
    "रणं": 2699,
    "त्थ": 2700,
    "▁वायु": 2701,
    "वे": 2702,
    "▁चक्र": 2703,
    "तेन": 2704,
    "भवति": 2705,
    "▁कश्चि": 2706,
    "दपि": 2707,
    "▁बु": 2708,
    "भु": 2709,
    "ित:": 2710,
    "▁शे": 2711,
    "▁उपकरण": 2712,
    "har": 2713,
    "ess": 2714,
    "मात्र": 2715,
    "विकल्प": 2716,
    "▁एतादृश": 2717,
    "▁पर्या": 2718,
    "वारं": 2719,
    "त्समी": 2720,
    "तोऽ": 2721,
    "▁युष्मान्": 2722,
    "ारा": 2723,
    "ान्त": 2724,
    "▁करिष्य": 2725,
    "▁युष्माकं": 2726,
    "▁सम्प": 2727,
    "▁युष्मान": 2728,
    "ित्र": 2729,
    "▁धन": 2730,
    "▁दृष्ट्वा": 2731,
    "▁अतएव": 2732,
    "क्षणं": 2733,
    "▁तैः": 2734,
    "प्य": 2735,
    "▁कथितवान्,": 2736,
    "▁\"एकं": 2737,
    "दिष्टं": 2738,
    "▁मो": 2739,
    "ST": 2740,
    "▁र्यीशुख्रीष्टस्य": 2741,
    "ानुग्रह": 2742,
    "▁युष्मासु": 2743,
    "तां": 2744,
    "▁नेम्": 2745,
    "demo": 2746,
    "तया,": 2747,
    "▁प्रदर्श": 2748,
    "▁भवतः": 2749,
    "विधे": 2750,
    "कानि": 2751,
    "▁मनु": 2752,
    "▁उत्प": 2753,
    "ेभ्यो": 2754,
    "▁नै": 2755,
    "भ्य:": 2756,
    "ेभ्य:": 2757,
    "-ए": 2758,
    "प्ल": 2759,
    "िकेशन्": 2760,
    "म्ब": 2761,
    "ang": 2762,
    "-मध्ये,": 2763,
    "ाल्": 2764,
    "▁एतावता": 2765,
    "▁चेत्,": 2766,
    "ish": 2767,
    "▁निमित्तं": 2768,
    "▁en": 2769,
    "▁इत्येतत्": 2770,
    "▁\"यदा": 2771,
    "▁गाढ": 2772,
    "▁तुल": 2773,
    "▁नौ": 2774,
    "स्तर": 2775,
    "माः": 2776,
    "▁स्तर": 2777,
    "ाम्": 2778,
    "▁उत्तम": 2779,
    "▁भावना": 2780,
    "▁समाप्त": 2781,
    "▁पश": 2782,
    "▁यीशुर": 2783,
    "वदत्,": 2784,
    "▁सिद्ध": 2785,
    "ञ्छ": 2786,
    "सर्व्व": 2787,
    "▁दरि": 2788,
    "▁वित": 2789,
    "▁स्वर्गे": 2790,
    "्तं": 2791,
    "▁लप्स्य": 2792,
    "▁आगच्छ": 2793,
    "ाद्व": 2794,
    "all": 2795,
    "ick": 2796,
    "▁Display": 2797,
    "▁Type": 2798,
    "▁चेक्-बोक्स्": 2799,
    "▁इतीदम्": 2800,
    "न्-": 2801,
    "ख्य": 2802,
    "▁\"अतः,": 2803,
    "▁नाम्नः": 2804,
    "▁विद्यार्थ": 2805,
    "▁संयोजन": 2806,
    "▁उत्पत्त": 2807,
    "cal": 2808,
    "▁\"भवतां": 2809,
    "▁home": 2810,
    "ोल्डर्": 2811,
    "▁फैल्": 2812,
    "▁अभिजानन्तु": 2813,
    "▁नोड्": 2814,
    "▁अग्रि": 2815,
    "▁ऐकान्स्": 2816,
    "▁कुरु": 2817,
    "▁प्रभु": 2818,
    "काः": 2819,
    "पात्र": 2820,
    "ाणां": 2821,
    "ाञ्च": 2822,
    "▁परिष्": 2823,
    "कुरु": 2824,
    "▁युष्मा": 2825,
    "कम": 2826,
    "ौर": 2827,
    "▁परिपूर्ण": 2828,
    "▁स्मरण": 2829,
    "▁स्थापयन्तु": 2830,
    "मूडल्": 2831,
    "▁इतीद": 2832,
    "▁इन्स्टाल्": 2833,
    "द्वारा": 2834,
    "▁गद": 2835,
    "रम": 2836,
    "सः": 2837,
    "▁समीपं": 2838,
    "▁व्रज": 2839,
    "काल": 2840,
    "स्त्व": 2841,
    "▁भो": 2842,
    "▁पुटे": 2843,
    "▁अनि": 2844,
    "-फील्ड्": 2845,
    "ज्जन": 2846,
    "मन": 2847,
    "नि:": 2848,
    "▁रेकार्ड्": 2849,
    "▁प्रत्ये": 2850,
    "▁गुण": 2851,
    "▁द्रष्टुं": 2852,
    "▁File": 2853,
    "▁उद्घाटितं": 2854,
    "ource": 2855,
    "▁Gener": 2856,
    "▁Con": 2857,
    "structor": 2858,
    "sing": 2859,
    "▁\"\"\"तत": 2860,
    "पर्य": 2861,
    "्यन्ते": 2862,
    "▁यिहूदा": 2863,
    "देशे": 2864,
    "▁सर्व्वा": 2865,
    "वृत्त": 2866,
    "▁ग्राह": 2867,
    "▁प्रदत्त": 2868,
    "पेटिक": 2869,
    "णी": 2870,
    "सङ्": 2871,
    "ख्यां": 2872,
    "यित": 2873,
    "त्यः": 2874,
    "▁\"\"\"\"": 2875,
    "▁गोप": 2876,
    "▁पृष्टवान्": 2877,
    "▁अरे": 2878,
    "▁इदानी": 2879,
    "क्तं": 2880,
    "र्यं": 2881,
    "▁चन्द्र": 2882,
    "▁पृथ्व": 2883,
    "वन्त:": 2884,
    "\"\"\"": 2885,
    "▁प्य": 2886,
    "ामीटर्": 2887,
    "युक्तं": 2888,
    "▁कन्स्ट्रक्टर्": 2889,
    "लम्ब": 2890,
    "▁तर्": 2891,
    "ीश्व": 2892,
    "रस्य": 2893,
    "र्म्म": 2894,
    "▁स्तम्भ": 2895,
    "मूल": 2896,
    "स्वरूप": 2897,
    "▁अम": 2898,
    "ेश्वरस्य": 2899,
    "▁त्वया": 2900,
    "▁कीदृश": 2901,
    "▁आचार": 2902,
    "स्तत्": 2903,
    "क्ष्यते": 2904,
    "ोकन": 2905,
    "▁प्रोजेक्ट्": 2906,
    "▁इत": 2907,
    "धिकं": 2908,
    "i.": 2909,
    "श्रु": 2910,
    "▁मध": 2911,
    "▁प्रस": 2912,
    "र्त": 2913,
    "योगं": 2914,
    "▁पञ्च": 2915,
    "क्स्": 2916,
    "योगः": 2917,
    "▁परिवर्तयन्तु": 2918,
    "▁plus": 2919,
    "▁New": 2920,
    "ency": 2921,
    "कार्यं": 2922,
    "तल": 2923,
    "ीकरणं": 2924,
    "▁चतुर": 2925,
    "स्र": 2926,
    "▁प्राप्तम्": 2927,
    "▁डे": 2928,
    "▁क्व": 2929,
    "▁तर": 2930,
    "निर्माण": 2931,
    "▁\"I": 2932,
    "▁कूर्च": 2933,
    "▁किन्तु,": 2934,
    "▁बहवः": 2935,
    "▁मन्दि": 2936,
    "▁अभवत्": 2937,
    "▁पृथ": 2938,
    "▁निर्मित": 2939,
    "▁\"\"\"अत": 2940,
    "एव": 2941,
    "▁स्थिर": 2942,
    "▁भवत": 2943,
    "थि": 2944,
    "▁साव": 2945,
    "िष्यते": 2946,
    "▁ईश्वरे": 2947,
    "▁विद्यते": 2948,
    "्लि": 2949,
    "▁Tool": 2950,
    "▁cont": 2951,
    "▁bar": 2952,
    "▁लभ": 2953,
    "क्य": 2954,
    "ub": 2955,
    "ateg": 2956,
    "▁इमानि": 2957,
    "▁ऐटम्": 2958,
    "el": 2959,
    "ast": 2960,
    "elect": 2961,
    "▁\"अधुना,": 2962,
    "▁इदमेव": 2963,
    "▁do": 2964,
    "while": 2965,
    "▁loop": 2966,
    "ीच": 2967,
    "ीन": 2968,
    "ज्": 2969,
    "▁बाक्स्": 2970,
    "▁तदनन्तरं": 2971,
    "▁मौस्": 2972,
    "एं": 2973,
    "▁लें": 2974,
    "▁पितर": 2975,
    "▁गच्छति": 2976,
    "▁अनन्त": 2977,
    "▁तेज": 2978,
    "भाव": 2979,
    "कारणात्": 2980,
    "▁मन्दिरं": 2981,
    "▁धू": 2982,
    "▁तस्मात्": 2983,
    "दूत": 2984,
    "दण्ड": 2985,
    "▁केनापि": 2986,
    "ष्टुं": 2987,
    "▁नाश": 2988,
    "▁\"अपि": 2989,
    "▁प्रयुक्त": 2990,
    "▁दृश्यन्ते": 2991,
    "कल": 2992,
    "्येन": 2993,
    "ड्डी": 2994,
    "▁क्रीड": 2995,
    "▁बृह": 2996,
    "▁आश्र": 2997,
    "▁वर्त": 2998,
    "कृत्य": 2999,
    "▁शि": 3000,
    "्युः": 3001,
    "▁वर्णनं": 3002,
    "ारो": 3003,
    "दाहरण": 3004,
    "▁\"तदर्थं": 3005,
    "▁आदेशं": 3006,
    "याम:": 3007,
    "▁files": 3008,
    "▁txt": 3009,
    "▁इदम्": 3010,
    "रेखां": 3011,
    "▁स्थापयति": 3012,
    "▁अन्तः": 3013,
    "▁अस्तीति": 3014,
    "▁निश्च": 3015,
    "न्व": 3016,
    "▁विविध": 3017,
    "मानु": 3018,
    "सारं": 3019,
    "▁यथार्थ": 3020,
    "▁वदामि": 3021,
    "▁जनो": 3022,
    "▁सो": 3023,
    "नन्त": 3024,
    "▁\"\"\"यतो": 3025,
    "▁योहन्": 3026,
    "▁मज्ज": 3027,
    "▁आगत्य": 3028,
    "▁पूप": 3029,
    "▁द्रा": 3030,
    "थ,": 3031,
    "ग्रस्त": 3032,
    "ines": 3033,
    "▁निष्क्रियं": 3034,
    "▁मह्यम्": 3035,
    "▁अतीव": 3036,
    "▁आश्चर्य": 3037,
    "▁प्राप्यन्ते": 3038,
    "▁यतोहि": 3039,
    "▁श्वेत": 3040,
    "पृष्ठ": 3041,
    "▁\"स": 3042,
    "▁एरर्": 3043,
    "▁ज्ञात": 3044,
    "▁Test": 3045,
    "mployee": 3046,
    "▁क्लास्": 3047,
    "ीः": 3048,
    "मेण्ट्": 3049,
    "ीयाः": 3050,
    "▁password": 3051,
    "▁फील्ड्": 3052,
    "▁पास्वर्ड्": 3053,
    "▁यच्छन्तु": 3054,
    "्-": 3055,
    "अप्": 3056,
    "ell": 3057,
    "▁La": 3058,
    "pt": 3059,
    "याम": 3060,
    "▁वे": 3061,
    "▁यद्": 3062,
    "▁मानवा": 3063,
    "▁इमे": 3064,
    "ट्-मध्ये": 3065,
    "▁वर्तमान": 3066,
    "-आ": 3067,
    "▁कल्प": 3068,
    "▁अन्ये": 3069,
    "स्तस्य": 3070,
    "▁धृत्वा": 3071,
    "▁व्यव": 3072,
    "ैव": 3073,
    "ल्य": 3074,
    "पाद": 3075,
    "▁पीड": 3076,
    "क्ते:": 3077,
    "▁परिणाम": 3078,
    "▁सक्रिय": 3079,
    "ंद्र": 3080,
    "▁पादप": 3081,
    "णस्य": 3082,
    "▁उच": 3083,
    "▁ज्ञास्य": 3084,
    "फल": 3085,
    "▁आम": 3086,
    "म्-": 3087,
    "▁सामान्यत:": 3088,
    "▁कार्यशाल": 3089,
    "योज": 3090,
    "▁सर्वा": 3091,
    "▁सञ्चिक": 3092,
    "ard": 3093,
    "ks": 3094,
    "▁अन्व": 3095,
    "▁शक्ति": 3096,
    "की": 3097,
    "▁मुक्त": 3098,
    "ोऽपि": 3099,
    "▁रङ्गसेचनं": 3100,
    "स्थानं": 3101,
    "opy": 3102,
    "▁वर्णं": 3103,
    "▁नी": 3104,
    "▁उभय": 3105,
    "▁नील": 3106,
    "वर्णः": 3107,
    "▁टङ्कयामः": 3108,
    "▁Student": 3109,
    "'s": 3110,
    "▁विश्वासेन": 3111,
    "▁याकू": 3112,
    "▁भा": 3113,
    "विषय": 3114,
    "षं": 3115,
    "ति:": 3116,
    "▁नास": 3117,
    "ाहं": 3118,
    "▁किञ्चित्": 3119,
    "▁दर्शयितुं": 3120,
    "▁sub": 3121,
    "ory": 3122,
    "▁कः": 3123,
    "ार्थ": 3124,
    "▁आदि": 3125,
    "▁ग्रन्": 3126,
    "यादेश": 3127,
    "फि": 3128,
    "▁स्": 3129,
    "▁सार्": 3130,
    "▁फि": 3131,
    "यां": 3132,
    "याञ्च": 3133,
    "ीत": 3134,
    "▁सार्द्धं": 3135,
    "▁भ्रातर": 3136,
    "▁युष्म": 3137,
    "स्ती": 3138,
    "▁किम्": 3139,
    "▁लब्ध": 3140,
    "▁एकस्मिन्": 3141,
    "▁भाव": 3142,
    "▁एकस्य": 3143,
    "▁पद": 3144,
    "चिह्": 3145,
    "▁चर": 3146,
    "न्तौ": 3147,
    "▁ID": 3148,
    "▁उपयु": 3149,
    "क्ति": 3150,
    "▁फ़ील्ड्": 3151,
    "▁मूडल्": 3152,
    "▁उपयोक्तृ": 3153,
    "▁सीत": 3154,
    "▁अन्वेष": 3155,
    "▁आगतवान्": 3156,
    "▁\"F": 3157,
    "her": 3158,
    "▁selection": 3159,
    "▁न्यूना": 3160,
    "ग्र": 3161,
    "▁सैनिक": 3162,
    "रोह": 3163,
    "▁प्रक्रिया": 3164,
    "▁प्रक्रिय": 3165,
    "गो": 3166,
    "जी": 3167,
    "▁उत्पाद": 3168,
    "▁\"उदाहरण": 3169,
    "▁\"f": 3170,
    "▁सम्मुख": 3171,
    "वाम": 3172,
    "▁तः": 3173,
    "▁आवश्यकानि": 3174,
    "▁डौन्लोड्": 3175,
    "वाच,": 3176,
    "थ?": 3177,
    "▁युष्मानहं": 3178,
    "▁सत्यं": 3179,
    "▁वदामि,": 3180,
    "▁पाषाण": 3181,
    "षाण": 3182,
    "▁स्था": 3183,
    "स्यति": 3184,
    "▁सर्व्वाणि": 3185,
    "▁कदा": 3186,
    "▁\"\"\"तदानीं": 3187,
    "▁दृष्टान्त": 3188,
    "स्तान्": 3189,
    "▁इत्थं": 3190,
    "दिष्ट": 3191,
    "▁कृष": 3192,
    "▁बीज": 3193,
    "▁\"न": 3194,
    "▁on": 3195,
    "▁ab": 3196,
    "nt": 3197,
    "pac": 3198,
    "he": 3199,
    "ad": 3200,
    "ning": 3201,
    "▁भवद्भिः": 3202,
    "▁संत्यजन": 3203,
    "▁नित": 3204,
    "येत": 3205,
    "▁अध:": 3206,
    "▁आनयेत": 3207,
    "नास": 3208,
    "▁Admin": 3209,
    "▁अभि": 3210,
    "cess": 3211,
    "▁\"इदानीं,": 3212,
    "pen": 3213,
    "▁स्तरं": 3214,
    "▁एकां": 3215,
    "▁mask": 3216,
    "▁इती": 3217,
    "मां": 3218,
    "ay": 3219,
    "▁copy": 3220,
    "ितमिति": 3221,
    "ayer": 3222,
    "▁mode": 3223,
    "orm": 3224,
    "▁इत्यस्ति": 3225,
    "पद": 3226,
    "▁पे": 3227,
    "▁स्युः": 3228,
    "ाधिप": 3229,
    "▁किन्त्वीश्व": 3230,
    "▁श्मशान": 3231,
    "▁सञ्चिकायां": 3232,
    "irect": 3233,
    "▁शक्नुम:": 3234,
    "▁bracket": 3235,
    "डि": 3236,
    "फै": 3237,
    "यर्": 3238,
    "riv": 3239,
    "ष्ट्र": 3240,
    "▁त्यक्त्वा": 3241,
    "▁विभू": 3242,
    "▁सूच": 3243,
    "िकायां": 3244,
    "त्रं": 3245,
    "▁स्थापयेत": 3246,
    "्य:": 3247,
    "▁स्वच्छ": 3248,
    "▁एतां": 3249,
    "▁ग्रे": 3250,
    "▁ड्रोप्-डौन्": 3251,
    "नोति": 3252,
    "द्घाट": 3253,
    "▁तान्": 3254,
    "▁पृच्छति": 3255,
    "▁समाप": 3256,
    "▁Qu": 3257,
    "avig": 3258,
    "▁block": 3259,
    "▁इत्यस्याधः": 3260,
    "▁Finish": 3261,
    "tem": 3262,
    "...": 3263,
    "▁नुदामि": 3264,
    "द्वि": 3265,
    "धान": 3266,
    "म्,\"": 3267,
    "ातो": 3268,
    "▁पृष्ठ": 3269,
    "▁एतस्य": 3270,
    "▁कं": 3271,
    "▁दोषं": 3272,
    "▁पू": 3273,
    "▁सिर": 3274,
    "▁इस": 3275,
    "▁महसूस": 3276,
    "ास्": 3277,
    "▁पौ": 3278,
    "▁इत्यादि": 3279,
    "▁\"\"\"व": 3280,
    "▁जानी": 3281,
    "▁मृत्त": 3282,
    "िकाया:": 3283,
    "मान्त": 3284,
    "▁तस्मिन": 3285,
    "▁समये": 3286,
    "▁प्ल": 3287,
    "टिक": 3288,
    "ुम": 3289,
    "ीनि": 3290,
    "▁एतेषां": 3291,
    "▁अभवत": 3292,
    "▁भवन्तौ": 3293,
    "▁ततस्त": 3294,
    "▁यावद्": 3295,
    "लोकान्": 3296,
    "▁उपा": 3297,
    "▁तस्मिन्": 3298,
    "िय": 3299,
    "▁प्रथमं": 3300,
    "नाम्ना": 3301,
    "ख्या": 3302,
    "▁अभवन्": 3303,
    "शो": 3304,
    "▁प्रक": 3305,
    "ृष्ट": 3306,
    "▁नार": 3307,
    "मात्": 3308,
    "Re": 3309,
    "cord": 3310,
    "▁र्व": 3311,
    "▁क्ल": 3312,
    "पुरुष": 3313,
    "▁यद्यपि": 3314,
    "▁पुरुष": 3315,
    "▁दिने": 3316,
    "▁नूत": 3317,
    "▁एकेन": 3318,
    "दान": 3319,
    "▁सोऽ": 3320,
    "▁लोकान्": 3321,
    "▁साध": 3322,
    "▁\"इदानीम्,": 3323,
    "▁विषयकस्य": 3324,
    "-ट्युटोरियल्": 3325,
    "▁मि": 3326,
    "सर": 3327,
    "देशीय": 3328,
    "भ्यः": 3329,
    "मित्त": 3330,
    "▁मेन": 3331,
    "▁हेतोः": 3332,
    "▁धनं": 3333,
    "▁प्रार्थ": 3334,
    "▁साक्षात्": 3335,
    "चारं": 3336,
    "▁कुर्": 3337,
    "ते:": 3338,
    "वा:": 3339,
    "रिया": 3340,
    "▁\"व": 3341,
    "les": 3342,
    "ाट": 3343,
    "▁पश्यन्ति": 3344,
    "स्,": 3345,
    "fig": 3346,
    "-फ": 3347,
    "र्-": 3348,
    "ाक्स्": 3349,
    "▁टर्मिनल्": 3350,
    "▁धन्य": 3351,
    "ेषां": 3352,
    "ण्डं": 3353,
    "टं": 3354,
    "▁प्रकाश": 3355,
    "श्ल": 3356,
    "▁कै": 3357,
    "▁याव": 3358,
    "▁इच्छति": 3359,
    "ङ्ख": 3360,
    "▁इत्यु": 3361,
    "सौ": 3362,
    "▁एकत्र": 3363,
    "▁द्व": 3364,
    "र्जन": 3365,
    "कूल": 3366,
    "णां": 3367,
    "▁साहाय्येन": 3368,
    "▁भवती": 3369,
    "कानां": 3370,
    "टी": 3371,
    "रोध": 3372,
    "त्वं": 3373,
    "▁विकास": 3374,
    "मम": 3375,
    "▁आरभ्य": 3376,
    "्वि": 3377,
    "ुक": 3378,
    "▁र्यु": 3379,
    "▁मन्त्र": 3380,
    "▁भद्र": 3381,
    "लभ": 3382,
    "▁कर्म्माणि": 3383,
    "▁प्रे": 3384,
    "▁निष्": 3385,
    "▁\"\"\"अप": 3386,
    "▁युष्मभ्यं": 3387,
    "▁तथ": 3388,
    "▁कथयामि": 3389,
    "▁प्राण": 3390,
    "ास्य": 3391,
    "्यात्": 3392,
    "▁वस": 3393,
    "नाञ्च": 3394,
    "षि": 3395,
    "▁श्रेष्ठ": 3396,
    "▁वृक्ष": 3397,
    "रचना": 3398,
    "▁कार्य": 3399,
    "गच्छति": 3400,
    "▁लेख": 3401,
    "▁प्रारभ": 3402,
    "▁\"\"\"किन्तु": 3403,
    "▁स्त": 3404,
    "▁दुर्ग": 3405,
    "भविष्य": 3406,
    "▁एता": 3407,
    "▁विष": 3408,
    "साम": 3409,
    "न्निमित्तं": 3410,
    "▁अथ": 3411,
    "▁अस्ति,": 3412,
    "▁ls": 3413,
    "▁लघु": 3414,
    "▁फलानि": 3415,
    "य्य": 3416,
    "ीकृत्य": 3417,
    "▁मृत्य": 3418,
    "▁बद्ध": 3419,
    "तीति": 3420,
    "▁मुख": 3421,
    "▁व्याहर": 3422,
    "▁पश्यतु": 3423,
    "योग:": 3424,
    "▁स्ने": 3425,
    "िको": 3426,
    "▁\"M": 3427,
    "DB": 3428,
    "▁वदति": 3429,
    "▁शून्य": 3430,
    "Name": 3431,
    "und": 3432,
    "DK": 3433,
    "▁Eclipse": 3434,
    "▁इमान्": 3435,
    "▁रचनां": 3436,
    "lock": 3437,
    "ब्ल": 3438,
    "▁अप्": 3439,
    "स्)": 3440,
    "▁विकल्पः": 3441,
    "▁उत्सर्ग": 3442,
    "▁एतद": 3443,
    "▁वान": 3444,
    "ूय": 3445,
    "ासु": 3446,
    "ान्य": 3447,
    "ages": 3448,
    "ितवानस्मि": 3449,
    "▁ट्र": 3450,
    "धा": 3451,
    "▁नेत्र": 3452,
    "▁नो": 3453,
    "पथ": 3454,
    "देशस्य": 3455,
    "▁यज्ञ": 3456,
    "▁मुद्र": 3457,
    "▁जना:": 3458,
    "▁कृष्ण": 3459,
    "▁कमाण्ड्": 3460,
    "▁awk": 3461,
    "demo.txt": 3462,
    "▁फोल्डर्": 3463,
    ".4": 3464,
    "▁विटामि": 3465,
    "▁आं": 3466,
    "यों": 3467,
    "▁प्रण": 3468,
    "ाली": 3469,
    "▁डाट्": 3470,
    "udent": 3471,
    "etail": 3472,
    "स्थित": 3473,
    "▁इमेज्": 3474,
    "▁जात": 3475,
    "▁हेत": 3476,
    "ाद्य": 3477,
    "हार": 3478,
    "▁\"किन्तु": 3479,
    "▁पेट": 3480,
    "▁निमित्तं,": 3481,
    "▁इत्युक्ते": 3482,
    "s.": 3483,
    "▁Re": 3484,
    "▁पर्": 3485,
    "शन्": 3486,
    "▁सेट्": 3487,
    "▁नगरे": 3488,
    "est": 3489,
    "ee": 3490,
    "ck": 3491,
    "स्ट": 3492,
    "ोक्": 3493,
    "ङ्क्षन्": 3494,
    "▁मनुज": 3495,
    "▁विरु": 3496,
    "▁कथां": 3497,
    "▁कथयति": 3498,
    "राध": 3499,
    "▁पवित्र": 3500,
    "▁\"p": 3501,
    "्यां": 3502,
    "▁दर्शयति": 3503,
    "चर": 3504,
    "▁रो": 3505,
    "▁दन्त": 3506,
    "र्द": 3507,
    "क्षिप": 3508,
    "लिखित": 3509,
    "▁हैं": 3510,
    "▁उचित": 3511,
    "▁व्यायाम": 3512,
    "न्ध": 3513,
    "▁औष": 3514,
    "ूह": 3515,
    "▁सुन्द": 3516,
    "▁स्वास्थ": 3517,
    "▁येषां": 3518,
    "▁विभिन्न": 3519,
    "र्व": 3520,
    "ेद": 3521,
    "▁भारत": 3522,
    "िकित्": 3523,
    "▁जो": 3524,
    "▁शारीरिक": 3525,
    "ओं": 3526,
    "▁शु": 3527,
    "▁उद्याने": 3528,
    "▁अने": 3529,
    "▁int": 3530,
    "▁वामपार्श्वे": 3531,
    "res": 3532,
    "ट्स्": 3533,
    "▁अन्वे": 3534,
    "केन": 3535,
    "▁तथैव": 3536,
    "▁धात": 3537,
    "▁लूप": 3538,
    "▁वस्त": 3539,
    "▁सीव": 3540,
    "▁हु": 3541,
    "▁एतं": 3542,
    "ितवन्त:": 3543,
    "▁श्री": 3544,
    "ास्ति": 3545,
    "क्लिक्": 3546,
    "▁रैट्-क्लिक्": 3547,
    "▁बहूनि": 3548,
    "▁कण्डीश": 3549,
    "▁चिनु": 3550,
    "ितानां": 3551,
    "▁श्लोक": 3552,
    "र्थं": 3553,
    "टिक्": 3554,
    "ith": 3555,
    "me": 3556,
    "ic": 3557,
    "▁सेव्": 3558,
    "येन": 3559,
    "▁रु": 3560,
    "AST": 3561,
    "▁फार्": 3562,
    "ा,": 3563,
    "a'": 3564,
    "ग्रन्थ": 3565,
    "पाल": 3566,
    "▁सरलतया": 3567,
    "▁पुस्त": 3568,
    "▁\"P": 3569,
    "urch": 3570,
    "ase": 3571,
    "▁Entry": 3572,
    "▁अस्यां": 3573,
    "▁पुट": 3574,
    "rop": 3575,
    "▁कोर्स्": 3576,
    "्यो": 3577,
    "▁उत्तिष्ठ": 3578,
    "▁स्थिति:": 3579,
    "▁इतः": 3580,
    "राग": 3581,
    "▁सम्बन्ध": 3582,
    "▁आर्": 3583,
    "▁ईक्वल्": 3584,
    "▁टु": 3585,
    "▁Book": 3586,
    "▁Check": 3587,
    "क्सिक्यू": 3588,
    "om": 3589,
    "सल": 3590,
    "▁वार": 3591,
    "▁method": 3592,
    "▁अति": 3593,
    "de": 3594,
    "▁अङ्ग": 3595,
    "▁पृष्ठे": 3596,
    "▁भवे": 3597,
    "यु:": 3598,
    "ैल्": 3599,
    "स्'": 3600,
    "▁प्राप्तुं": 3601,
    "ssignment": 3602,
    "▁प्रयत": 3603,
    "▁roll_n": 3604,
    "▁name": 3605,
    "▁एक्सेस्": 3606,
    "▁कृपां": 3607,
    "▁हस्त": 3608,
    "ष्टा": 3609,
    "स्मै": 3610,
    "ीशु": 3611,
    "ग्रह": 3612,
    "▁पट": 3613,
    "abel": 3614,
    "▁जातम्": 3615,
    "ैप्": 3616,
    "▁विषयं": 3617,
    "▁सी": 3618,
    "मम्": 3619,
    "दू": 3620,
    "▁श्रद्धां": 3621,
    "बो": 3622,
    "र्ड्": 3623,
    "▁गन्तुं": 3624,
    "ash": 3625,
    "board": 3626,
    "ृति": 3627,
    "▁महत्वपूर्ण": 3628,
    "▁कमपि": 3629,
    "ानस्य": 3630,
    "▁समक्षे": 3631,
    "नानां": 3632,
    "▁पाद": 3633,
    "शु": 3634,
    "▁धीरे-धीरे": 3635,
    "▁जब": 3636,
    "क्रिय": 3637,
    "▁जाती": 3638,
    "▁हैं,": 3639,
    "▁तो": 3640,
    "▁तरह": 3641,
    "▁ता": 3642,
    "▁\"प्र": 3643,
    "ist": 3644,
    "▁निर्मातुं": 3645,
    "र:": 3646,
    "▁धेनव": 3647,
    "▁दू": 3648,
    "ंद": 3649,
    "▁पह": 3650,
    "वण": 3651,
    "र्श": 3652,
    "▁सन्ति,": 3653,
    "▁My": 3654,
    "▁Project": 3655,
    "▁अप्ल": 3656,
    "▁निर्म": 3657,
    "▁पिता": 3658,
    "▁स्नेहं": 3659,
    "▁स्वयं": 3660,
    "▁पुत्रं": 3661,
    "ज्ञानं": 3662,
    "▁तदर्थम्": 3663,
    "यिष्यति": 3664,
    "gmail": 3665,
    "▁योजयामि": 3666,
    "▁यच्च": 3667,
    "▁दत्त": 3668,
    "▁\"पाठस्यास्य": 3669,
    "ाय,": 3670,
    "▁जानीयुः": 3671,
    "राः": 3672,
    "▁email": 3673,
    "▁id": 3674,
    "▁अध्य": 3675,
    "यन": 3676,
    "▁एक्स्": 3677,
    "ेषन्": 3678,
    "▁योजयितुं": 3679,
    "कर्तुं": 3680,
    "▁वृक्षस्य:": 3681,
    "▁पाठस्यास्य": 3682,
    "▁अभ्यासाय": 3683,
    "▁व्यवस्था": 3684,
    "▁Moodle": 3685,
    "ञ्चन": 3686,
    "▁इत्यस्योपरि": 3687,
    "▁User": 3688,
    "▁Account": 3689,
    "▁विभागस्य": 3690,
    "▁अस्माभि": 3691,
    "दार": 3692,
    "▁sed": 3693,
    "▁within": 3694,
    "▁quotes": 3695,
    "cl": 3696,
    "▁एवमेव": 3697,
    "▁दे": 3698,
    "▁चिह्": 3699,
    "चिह्नं": 3700,
    "ित्": 3701,
    "▁परिशील": 3702,
    "▁आवां": 3703,
    "▁विद्या": 3704,
    "ेष्य": 3705,
    "ाश्च": 3706,
    "भू": 3707,
    "घ्": 3708,
    "युः": 3709,
    "ुत्त": 3710,
    "▁\"क": 3711,
    "▁this": 3712,
    "▁semicolon": 3713,
    "ress": 3714,
    "ंश": 3715,
    "▁कृष्णः": 3716,
    "▁पाण्ड": 3717,
    "▁स्वं": 3718,
    "कथ": 3719,
    "▁नाग": 3720,
    "जु": 3721,
    "न:": 3722,
    "▁तदर्थं": 3723,
    "▁Manager": 3724,
    "▁इद": 3725,
    "▁योष": 3726,
    "▁तयो": 3727,
    "न्ना": 3728,
    "रूपे": 3729,
    "▁उच्चार": 3730,
    "▁कार्ब": 3731,
    "ाइ": 3732,
    "क्साइ": 3733,
    "▁सङ्कल": 3734,
    "▁आपरेटर्": 3735,
    "▁स्थाने": 3736,
    "पत्र": 3737,
    "▁शिर": 3738,
    "स्त्र": 3739,
    "▁परित्राण": 3740,
    "▁आत्म": 3741,
    "▁धार": 3742,
    "▁बा": 3743,
    "▁संगीत": 3744,
    "▁समूह": 3745,
    "▁कस्मिन्": 3746,
    "▁प्रेमं": 3747,
    "▁जाने": 3748,
    "▁तेना": 3749,
    "▁प्रेरित": 3750,
    "▁अग": 3751,
    "स्माभिः": 3752,
    "▁डेटाबेस्": 3753,
    "व्यम्": 3754,
    "वी": 3755,
    "ारी": 3756,
    "गी": 3757,
    "-क": 3758,
    "▁भार": 3759,
    "▁लभ्य": 3760,
    "जात": 3761,
    "▁मानुष": 3762,
    "▁भ्रम": 3763,
    "धू": 3764,
    "ताया": 3765,
    "श्": 3766,
    "▁जा": 3767,
    "माना": 3768,
    "स्तर्हि": 3769,
    "▁विश्वा": 3770,
    "तुं": 3771,
    "िनो": 3772,
    "▁गु": 3773,
    "शक्ति": 3774,
    "▁ताड": 3775,
    "ासनम्": 3776,
    "▁श्लोकं": 3777,
    "▁ज्ञायते": 3778,
    "▁अत": 3779,
    "▁भु": 3780,
    "▁सदा": 3781,
    "ाभ्यां": 3782,
    "दध": 3783,
    "▁मनांसि": 3784,
    "्याणि": 3785,
    "▁विश्वासि": 3786,
    "▁स्वीकृत": 3787,
    "▁धन्यवाद": 3788,
    "सह": 3789,
    "ेश्व": 3790,
    "रेण": 3791,
    "सृ": 3792,
    "▁सांस": 3793,
    "▁धी": 3794,
    "▁सङ्ख्यां": 3795,
    "▁Teacher": 3796,
    "tr": 3797,
    "rid": 3798,
    "▁अभ्य": 3799,
    "ुमर्हन्ति": 3800,
    "▁पै": 3801,
    "▁प्राप्स्य": 3802,
    "▁4.": 3803,
    "ोष": 3804,
    "भोजन": 3805,
    "▁शरीरे": 3806,
    "ित्व": 3807,
    "▁सहाय": 3808,
    "प्रकाश": 3809,
    "▁पोषकत": 3810,
    "▁सम्य": 3811,
    "गु": 3812,
    "ction": 3813,
    "thon": 3814,
    "▁इत्या": 3815,
    "शिक्षणं": 3816,
    "▁गतिविध": 3817,
    "क्ष:": 3818,
    "▁अयं": 3819,
    "▁पूर्ण": 3820,
    "▁विकस": 3821,
    "▁लम्ब": 3822,
    "ाई": 3823,
    "तर": 3824,
    "▁गृह्": 3825,
    "▁get": 3826,
    "Details()": 3827,
    "▁मेथड्": 3828,
    "ैड्": 3829,
    "मेत": 3830,
    "▁पुनर": 3831,
    "मिष्य": 3832,
    "▁रेकोर्ड्": 3833,
    "-इत्यस्य": 3834,
    "▁Sh": 3835,
    "ip": 3836,
    "ामे": 3837,
    "पुट्-": 3838,
    "▁गृहीत्वा": 3839,
    "▁तां": 3840,
    "▁फलिते": 3841,
    "यतु": 3842,
    "▁मेथड्स्": 3843,
    "▁वर्तन्ते": 3844,
    "▁विप": 3845,
    "▁\"पश्य": 3846,
    "▁आर": 3847,
    "श्य:": 3848,
    "▁\"ड": 3849,
    "ाप्-डौन्": 3850,
    "▁Spoken": 3851,
    "▁Tutorial": 3852,
    "▁Library": 3853,
    "रेख": 3854,
    "▁page": 3855,
    "▁log": 3856,
    "▁दद्मः": 3857,
    "▁अन्त": 3858,
    "▁शरीरस्य": 3859,
    "ोर्ट्": 3860,
    "▁टेबल्": 3861,
    "▁दक्षिणतः": 3862,
    "ownload": 3863,
    "▁table": 3864,
    "▁as": 3865,
    "▁प्रोग्र": 3866,
    "ङ्ग्": 3867,
    "ाणाम्": 3868,
    "▁अधिकं": 3869,
    "▁दिव": 3870,
    "मी": 3871,
    "▁पर्यन्तं": 3872,
    "ical": 3873,
    "▁कू": 3874,
    "▁आकृत": 3875,
    "▁तन्त्र": 3876,
    "ांश": 3877,
    "नार्थं": 3878,
    "▁Linux": 3879,
    "▁मस्तिष्": 3880,
    "िन": 3881,
    "▁राउंड": 3882,
    "cre": 3883,
    "▁भ्रात": 3884,
    "▁कुतो": 3885,
    "सि?": 3886,
    "▁कुत": 3887,
    "▁जान": 3888,
    "▁ख्रीष्टस्य": 3889,
    "▁विचार": 3890,
    "ासनस्य": 3891,
    "reak": 3892,
    "▁लोकसंगीत": 3893,
    "कृति": 3894,
    "चल": 3895,
    "▁करें,": 3896,
    "▁आप": 3897,
    "▁होने": 3898,
    "▁अपनी": 3899,
    "▁सकते": 3900,
    "▁एषा": 3901,
    "▁लघ": 3902,
    "▁वैशिष्ट": 3903,
    "▁सूची": 3904,
    "min": 3905,
    "▁यूसर्": 3906,
    "▁इण्टर्फ़ेस्": 3907,
    "▁साक्ष": 3908,
    "▁पापं": 3909,
    "▁किन्त्व": 3910,
    "्युटोरिय": 3911,
    "योजन": 3912,
    "▁भागः": 3913,
    "▁LaTeX": 3914,
    "ik": 3915,
    "TeX": 3916,
    "rib": 3917,
    "भ्यते": 3918,
    "▁करते": 3919,
    "▁बाय": 3920,
    "▁नासिका": 3921,
    "▁द्वार": 3922,
    "▁दा": 3923,
    "▁छोडते": 3924,
    "्या:": 3925,
    "म्भ": 3926,
    "क्षा": 3927,
    "क्षेत्र": 3928,
    "▁पात": 3929,
    "▁वयमि": 3930,
    "दानीं": 3931,
    "▁व्याख्या": 3932,
    "▁'F": 3933,
    "▁नुद": 3934,
    "▁OK": 3935,
    "▁समा": 3936,
    "ामहै": 3937,
    "▁प्रश्": 3938,
    "नार्थ": 3939,
    "▁रिक्तं": 3940,
    "भवत्": 3941,
    "ायै": 3942,
    "क्षाल": 3943,
    "▁करो": 3944,
    "कार्य": 3945,
    "भ्यां": 3946,
    "▁पल": 3947,
    "प्रे": 3948,
    "्रा": 3949,
    "▁कश्च": 3950,
    "▁जी": 3951,
    "विष्य": 3952,
    "atabase": 3953,
    "▁प्रशिक्षण": 3954,
    "▁भवद्भ्यः": 3955,
    "▁मांस": 3956,
    "दर्थं": 3957,
    "न्म": 3958,
    "▁भ्रातृ": 3959,
    "▁The": 3960,
    "▁डोट्": 3961,
    "▁roll": 3962,
    "▁not": 3963,
    "▁विनि": 3964,
    "▁मुख्य": 3965,
    "मिक": 3966,
    "qu": 3967,
    "lose": 3968,
    "▁परम्": 3969,
    "ायं": 3970,
    "▁बो": 3971,
    "▁शक्नु": 3972,
    "▁आनीय": 3973,
    "ग्री": 3974,
    "▁पार्श्व": 3975,
    "▁यन्त्रे": 3976,
    "▁XAMPP": 3977,
    "▁जातं": 3978,
    "▁भोजनस्य": 3979,
    "▁उद्य": 3980,
    "ोग": 3981,
    "▁रात्र": 3982,
    "स्टम्": 3983,
    "यिष्यामि": 3984,
    "▁शो": 3985,
    "▁महायाज": 3986,
    "वित्र": 3987,
    "न्तरं": 3988,
    "राद्": 3989,
    "ाग्": 3990,
    "नल्": 3991,
    "SS": 3992,
    "▁अर्जु": 3993,
    "▁गी": 3994,
    "▁चतुर्": 3995,
    "▁भि": 3996,
    "न्नं": 3997,
    "▁प्रददाति": 3998,
    "रेटर्": 3999,
    "EG": 4000,
    "तार": 4001,
    "वत": 4002,
    "स्टे": 4003,
    "▁कृतं": 4004,
    "▁कर्तुम": 4005,
    "▁12.04": 4006,
    "▁ओपरेटिङ्ग्": 4007,
    "▁सिस्टम्": 4008,
    "▁\"को": 4009,
    "▁प्रचल": 4010,
    "ातुं": 4011,
    "▁बृहत्": 4012,
    "ड्मि": 4013,
    "ेश्": 4014,
    "▁कुरुत": 4015,
    "▁कथ": 4016,
    "दोष": 4017,
    "▁\"तद": 4018,
    "नन्तरं,": 4019,
    "ab": 4020,
    "il": 4021,
    "ity": 4022,
    "▁Aut": 4023,
    "s,": 4024,
    "▁Item": 4025,
    "ics": 4026,
    "▁अधः,": 4027,
    "▁प्राप्नु": 4028,
    "▁स्पेस्": 4029,
    "्रह": 4030,
    "िष्ठ": 4031,
    "▁आवश्यकम्": 4032,
    "▁तथापि": 4033,
    "न्यू": 4034,
    "कौ": 4035,
    "शल": 4036,
    "▁कठ": 4037,
    "▁परिच": 4038,
    "क्सिक": 4039,
    "-प": 4040,
    "▁तेषु": 4041,
    "▁तस्मा": 4042,
    "ow": 4043,
    "▁पुटम्": 4044,
    "ायु": 4045,
    "▁आरभ": 4046,
    "▁वाक्यानि": 4047,
    "मुप": 4048,
    "▁Back": 4049,
    "▁आव": 4050,
    "acket": 4051,
    "ill": 4052,
    "ond": 4053,
    "स्तीति": 4054,
    "मेन्यु": 4055,
    "▁Settings": 4056,
    "ure": 4057,
    "▁KTouch": 4058,
    "▁प्रयत्": 4059,
    "ide": 4060,
    "हम्": 4061,
    "▁अवसर्पि": 4062,
    "ण्य": 4063,
    "▁येन": 4064,
    "▁प्राप्नोमि": 4065,
    "▁त्रि": 4066,
    "तेषु": 4067,
    "ितमस्ति": 4068,
    "umber": 4069,
    "▁num": 4070,
    "▁सञ्चिकाः": 4071,
    "ont": 4072,
    "▁अनुवाद": 4073,
    "▁प्रवाच": 4074,
    "▁वासुदेव": 4075,
    "istr": 4076,
    "▁निर्मा": 4077,
    "▁डीफ": 4078,
    "ोल्": 4079,
    "न्स्ट्रक्टर्": 4080,
    "▁पेरामीटर्": 4081,
    "रह": 4082,
    "राम": 4083,
    "ाले": 4084,
    "▁आगच्छति": 4085,
    "▁सञ्चिकाम्": 4086,
    "जेक्ट्": 4087,
    "AR": 4088,
    "▁\"अधुना": 4089,
    "▁वयं,": 4090,
    "तिष्ठ": 4091,
    "न्त:": 4092,
    "पाठे": 4093,
    "▁रामस्य": 4094,
    "गुण": 4095,
    "िकायाः": 4096,
    "भागः": 4097,
    "▁अस्माकम्": 4098,
    "dd": 4099,
    "rray": 4100,
    "qual": 4101,
    ".2": 4102,
    "▁तमा": 4103,
    "▁आवृत्त": 4104,
    "▁अनयो": 4105,
    "▁सुरक्ष": 4106,
    "▁स्वस्थ": 4107,
    "समा": 4108,
    "▁निर्माणं": 4109,
    "▁शक्ष्य": 4110,
    "धाना": 4111,
    "▁भ्राता": 4112,
    "▁मनः": 4113,
    "▁क्षम": 4114,
    "▁तेषाम्": 4115,
    "▁ईश्वरीय": 4116,
    "▁कृत्स्": 4117,
    "स्राय": 4118,
    "ेल": 4119,
    "▁शान्ति": 4120,
    "▁भूयात्": 4121,
    "▁\"पूर्व": 4122,
    "कृतिं": 4123,
    "▁उल्": 4124,
    "यितु": 4125,
    "मिच्छ": 4126,
    "▁आदेशस्य": 4127,
    "▁सञ्चिकायाः": 4128,
    "▁अन्तिम": 4129,
    "ङ्क्त": 4130,
    "ethod": 4131,
    "emo": 4132,
    "मेथ": 4133,
    "▁कश्चिद्": 4134,
    "ितो": 4135,
    "▁URL": 4136,
    "oogle": 4137,
    "▁Un": 4138,
    "uppl": 4139,
    "ss": 4140,
    "▁\"पाठ": 4141,
    "▁इतीमे": 4142,
    "▁सब्": 4143,
    "▁रूपेण": 4144,
    "▁चय": 4145,
    "नात्": 4146,
    "gin": 4147,
    "rame": 4148,
    "नेव": 4149,
    "▁शीर्ष": 4150,
    "▁आप्षन्": 4151,
    "-द्वयं": 4152,
    "▁MARC": 4153,
    "▁record": 4154,
    "▁Manage": 4155,
    ".\"": 4156,
    "▁राज": 4157,
    "िति": 4158,
    "▁शरीरं": 4159,
    "▁नान": 4160,
    "▁पर्य": 4161,
    "▁असैन्": 4162,
    "▁डै": 4163,
    "▁साकं": 4164,
    "▁पत": 4165,
    "▁\"\"\"यु": 4166,
    "▁च,": 4167,
    "ीया": 4168,
    "per": 4169,
    "▁स्वीकरोति": 4170,
    "▁श्वसन": 4171,
    "▁पाचन": 4172,
    "▁सुधार": 4173,
    "witch": 4174,
    "▁case": 4175,
    "▁सिण्टेक्स्": 4176,
    "dmin": 4177,
    "▁पेज्": 4178,
    "references": 4179,
    "▁एडिट्": 4180,
    "dir": 4181,
    "▁च\"": 4182,
    "▁सर्वेषु": 4183,
    "mo": 4184,
    "()": 4185,
    "▁by": 4186,
    "▁सर्वेषां": 4187,
    "if": 4188,
    "नीयम्": 4189,
    "▁राग": 4190,
    "यो:": 4191,
    "जनं": 4192,
    "दृश": 4193,
    "▁जनाः": 4194,
    "▁An": 4195,
    "▁कीलकं": 4196,
    "▁द्विवारं": 4197,
    "▁प्रीय": 4198,
    "▁उक्तवान्": 4199,
    "▁त्वयि": 4200,
    "▁लोकानां": 4201,
    "णार्थं": 4202,
    "रूप:": 4203,
    "नीक": 4204,
    "े:": 4205,
    "▁पितामह": 4206,
    "▁किया": 4207,
    "▁सकता": 4208,
    "योक्त": 4209,
    "▁संयोजितुं": 4210,
    "फ़ि": 4211,
    "लोकानां": 4212,
    "▁करिष्यति": 4213,
    "▁न्य": 4214,
    "थाप": 4215,
    "▁प्रमाणं": 4216,
    "दात्": 4217,
    "▁कम्प": 4218,
    "▁जाते": 4219,
    "▁ज्ञात्वा": 4220,
    "▁तत्स": 4221,
    "त्वा": 4222,
    "ान्तं": 4223,
    "▁कथयामास": 4224,
    "▁ईश्वरं": 4225,
    "▁जानन्ति": 4226,
    "▁विस्म": 4227,
    "▁कर्ण": 4228,
    "▁मोच": 4229,
    "धानं": 4230,
    "▁ती": 4231,
    "समीप": 4232,
    "▁युष्माक": 4233,
    "ूर्ण": 4234,
    "▁इत्याख्ये": 4235,
    "कम्प": 4236,
    "▁कृतम्": 4237,
    "mple": 4238,
    "▁साक्ष्यं": 4239,
    "▁इण्डेक्स्": 4240,
    "▁book": 4241,
    "▁सत्": 4242,
    "▁पदा": 4243,
    "▁लेट": 4244,
    "्लोड्": 4245,
    "os": 4246,
    "ाघ": 4247,
    "▁पूर्व्वपुरुष": 4248,
    "भविष्यद्वादि": 4249,
    "lo": 4250,
    "▁system": 4251,
    "▁पर्ण": 4252,
    "ृतं": 4253,
    "ीर्ण": 4254,
    "िनः": 4255,
    "▁सन्देश": 4256,
    "▁यश्च": 4257,
    "▁यीशुः": 4258,
    "नकाले": 4259,
    "ानाञ्च": 4260,
    "▁आज्ञाप": 4261,
    "▁खनिज": 4262,
    "▁दण्ड": 4263,
    "▁विलोक्य": 4264,
    "▁एनं": 4265,
    "▁चाहिए": 4266,
    "▁\"भव": 4267,
    "▁उद्घ": 4268,
    "व्याः": 4269,
    "िक्": 4270,
    "▁भूम": 4271,
    "▁अस्य:": 4272,
    "▁सरल": 4273,
    "▁मार्": 4274,
    "ून": 4275,
    "▁अस्म": 4276,
    "ष्प": 4277,
    "नाप्": 4278,
    "▁मेनेज": 4279,
    "▁कथमिति": 4280,
    "▁जागरू": 4281,
    "द्या": 4282,
    "▁स्थानं": 4283,
    "करो": 4284,
    "▁द्वित": 4285,
    "जो": 4286,
    "dit": 4287,
    "mount": 4288,
    "ext": 4289,
    "▁इच्छामि": 4290,
    "▁तौ": 4291,
    "▁सति": 4292,
    "यौ": 4293,
    "शक्त": 4294,
    "▁कप": 4295,
    "▁लिए": 4296,
    "▁नीचे": 4297,
    "▁कथितवान्": 4298,
    "यद्": 4299,
    "▁उन्मील": 4300,
    "▁विश्रामं": 4301,
    "▁कुर्यात्": 4302,
    "▁प्रविश": 4303,
    "▁समी": 4304,
    "चीन": 4305,
    "▁परिवर्त्य": 4306,
    "ाधः": 4307,
    "▁मांसपेश": 4308,
    "िनां": 4309,
    "स्य:": 4310,
    "ान्त्व": 4311,
    "▁प्रत्या": 4312,
    "स्माकम्": 4313,
    "▁लि": 4314,
    "िरे": 4315,
    "ुम्": 4316,
    "der": 4317,
    "ro": 4318,
    "ole": 4319,
    "▁Chan": 4320,
    "▁ताः": 4321,
    "▁छात्रः": 4322,
    "▁chan": 4323,
    "ges": 4324,
    "म्बन्ध": 4325,
    "▁स्ल": 4326,
    "▁भवतीति": 4327,
    "▁पत्र": 4328,
    "ोर्मेट्": 4329,
    ".txt": 4330,
    "▁गमिष्य": 4331,
    "▁\"\"\"अपरञ्च": 4332,
    "खण्ड": 4333,
    "▁हार": 4334,
    "▁प्रद": 4335,
    "ीप": 4336,
    "▁प्रज": 4337,
    "▁गवेष": 4338,
    "यति,": 4339,
    "▁भारतीय": 4340,
    "▁सब्-": 4341,
    "▁\"सङ्": 4342,
    "▁(s": 4343,
    "cription": 4344,
    "▁निवार": 4345,
    "▁जानीथ": 4346,
    "▁नृत्य": 4347,
    "दिष्य": 4348,
    "▁कार्": 4349,
    "ण्ट": 4350,
    "वर": 4351,
    "ग्ध": 4352,
    "दाता": 4353,
    "um": 4354,
    "▁प्रश्न": 4355,
    "▁वेद": 4356,
    "▁\"एव": 4357,
    "▁जालपुट": 4358,
    "stall": 4359,
    "▁शी": 4360,
    "▁\"य": 4361,
    "▁निवस": 4362,
    "स्मात्": 4363,
    "▁System": 4364,
    "▁add": 4365,
    "▁फ़ङ्क्षन्": 4366,
    "ीज": 4367,
    "र्'": 4368,
    "्यूमेण्ट्": 4369,
    "संगीत": 4370,
    "प्रदेश": 4371,
    "े,": 4372,
    "ाप्र": 4373,
    "▁भवतीषु": 4374,
    "▁गौरवं": 4375,
    "ोत्स": 4376,
    "वः": 4377,
    "कृष्ण": 4378,
    "चतु": 4379,
    "▁एप्ल": 4380,
    "▁\"N": 4381,
    "▁\"\"\"उ": 4382,
    "ुम्ब": 4383,
    "दृष्ट": 4384,
    "▁शाख": 4385,
    "▁जाय": 4386,
    "ल्ल": 4387,
    "▁र्नि": 4388,
    "धे": 4389,
    "ers": 4390,
    "▁public": 4391,
    "fault": 4392,
    "क्ते": 4393,
    "▁इत्यनयोः": 4394,
    "▁item": 4395,
    "▁\"वयमत्र": 4396,
    "स्थाने": 4397,
    "पिट": 4398,
    "फ़्": 4399,
    "▁परा": 4400,
    "पत": 4401,
    "▁'ए": 4402,
    "▁main": 4403,
    "स्तव": 4404,
    "▁कुछ": 4405,
    "▁इतोऽपि": 4406,
    "▁स्क्रोल्": 4407,
    "ग्-इ": 4408,
    "▁प्रश्नान्": 4409,
    "▁\"वयमधुना": 4410,
    "▁सम्बद्ध": 4411,
    "▁अवलोक": 4412,
    "--------": 4413,
    "uil": 4414,
    "In": 4415,
    "ables": 4416,
    "▁11": 4417,
    "▁श्वासग्रह": 4418,
    "▁लोक": 4419,
    "▁शू": 4420,
    "▁\"E": 4421,
    "xt": 4422,
    "ens": 4423,
    "ions": 4424,
    "▁Path": 4425,
    "▁नुत्वा,": 4426,
    "ect": 4427,
    "▁मार्क्स्": 4428,
    "▁फैर्": 4429,
    "▁फाक्स्": 4430,
    "प्रक्रिया": 4431,
    "यनं": 4432,
    "▁प्राप्तवान्": 4433,
    "▁Edit": 4434,
    "▁>>": 4435,
    "election": 4436,
    "▁क्रमशः": 4437,
    "▁इत्याद": 4438,
    "▁पाठस्यान्त": 4439,
    "▁क्षुद्र": 4440,
    "बाल": 4441,
    "▁नम": 4442,
    "▁सएव": 4443,
    "णम": 4444,
    "ातं": 4445,
    "सारेण": 4446,
    "▁अस्मासु": 4447,
    "▁क्रुशे": 4448,
    "▁शिथि": 4449,
    "रिष्यति": 4450,
    "▁ईश्वरो": 4451,
    "hen": 4452,
    "▁Mo": 4453,
    "zilla": 4454,
    "▁बि": 4455,
    "▁शृणो": 4456,
    "▁क्रिय": 4457,
    "▁सर्व्वान्": 4458,
    "वां": 4459,
    "िणो": 4460,
    "▁वृक्ष:": 4461,
    "▁कुत्र": 4462,
    "चिद्": 4463,
    "▁प्रवेश": 4464,
    "मप": 4465,
    "ank": 4466,
    "▁तः,": 4467,
    "▁पृथक्": 4468,
    "▁\"तत्": 4469,
    "▁मौल्यं": 4470,
    "▁यच्छति": 4471,
    "हाय": 4472,
    "्याम्": 4473,
    "▁उपलभ्यते": 4474,
    "द्वितीय": 4475,
    "▁चतु": 4476,
    "are": 4477,
    "s)": 4478,
    "▁ग्रह": 4479,
    "▁गति": 4480,
    "ew": 4481,
    "▁ar": 4482,
    "ument": 4483,
    "int": 4484,
    "ul": 4485,
    "स्थे": 4486,
    "▁उपरितन": 4487,
    "pacity": 4488,
    "▁परिवर्तयामि": 4489,
    "ेश्वर": 4490,
    "ैश्च": 4491,
    "▁र्ल": 4492,
    "ीत्": 4493,
    "ान्तः": 4494,
    "करणे": 4495,
    "कल्प": 4496,
    "मनु": 4497,
    "▁निकटे": 4498,
    "वाक्यं": 4499,
    "ब्र": 4500,
    "ाही": 4501,
    "▁बभूव": 4502,
    "▁सम्यक": 4503,
    "CT": 4504,
    "▁नुत्त्वा": 4505,
    "टर्मिनल्'": 4506,
    "▁प्रह": 4507,
    "▁चेष्ट": 4508,
    "▁अस्मान्": 4509,
    "र्क": 4510,
    "iew": 4511,
    "पर": 4512,
    "▁त्वक्": 4513,
    "छे": 4514,
    "▁क्रु": 4515,
    "ब्ब": 4516,
    "िनी": 4517,
    "▁विन": 4518,
    "ानुसार": 4519,
    "वर्णस्य": 4520,
    "▁परिवर्तयितुं": 4521,
    "मेण": 4522,
    "▁सीधा": 4523,
    "▁र्वि": 4524,
    "▁रचयतु": 4525,
    "erial": 4526,
    "ऐं": 4527,
    "▁पैर": 4528,
    "▁घुट": 4529,
    "▁सुख": 4530,
    "▁पुरात": 4531,
    "atch": 4532,
    "न्तु,": 4533,
    "▁स्थितौ": 4534,
    "मेष": 4535,
    "▁दीर्घ": 4536,
    "्वासं": 4537,
    "▁Drive": 4538,
    "▁डोक": 4539,
    "मेण्ट्स्": 4540,
    "ेशन्स्": 4541,
    "▁इयं": 4542,
    "▁प्राप्तवद": 4543,
    "▁यीशुं": 4544,
    "शील": 4545,
    "ेभ्य": 4546,
    "▁प्रभोः": 4547,
    "▁दै": 4548,
    "र्घ": 4549,
    "▁विस्त": 4550,
    "▁आयत": 4551,
    "ance": 4552,
    "▁static": 4553,
    "▁अनयोः": 4554,
    "hell": 4555,
    "प्रक्रिय": 4556,
    "▁यिहू": 4557,
    "▁कुर्व्व": 4558,
    "ध्वम्": 4559,
    "▁दाय": 4560,
    "▁विशेष": 4561,
    "▁ईश्व": 4562,
    "▁वाच": 4563,
    "▁स्थित": 4564,
    "स्थाय": 4565,
    "▁प्रभ": 4566,
    "▁अपश्य": 4567,
    "▁चिह्नं": 4568,
    "िह्": 4569,
    "▁विश्वस": 4570,
    "),": 4571,
    "rans": 4572,
    "ating": 4573,
    "▁रस": 4574,
    "रिक": 4575,
    "ेति": 4576,
    "ज्ञाय": 4577,
    "▁प्रथ": 4578,
    "▁शां": 4579,
    "विश": 4580,
    "गा": 4581,
    "▁वाले": 4582,
    "▁पदार्थ": 4583,
    "िश": 4584,
    "▁संयोजयन्तु": 4585,
    "ार्थं,": 4586,
    "▁जिस": 4587,
    "▁किसी": 4588,
    "कि": 4589,
    "▁स्थिति": 4590,
    "▁Select": 4591,
    "णेन": 4592,
    "-द्व": 4593,
    "▁\"प्रथ": 4594,
    "▁लेयर्": 4595,
    "ामपि": 4596,
    "▁आवश्य": 4597,
    "▁\"पश्चात्": 4598,
    "▁कर्लि": 4599,
    "▁und": 4600,
    "core": 4601,
    "▁General": 4602,
    "ger": 4603,
    "▁Class": 4604,
    "व्यव": 4605,
    "हेत": 4606,
    "▁हरित": 4607,
    "▁क्षे": 4608,
    "ult": 4609,
    "▁वस्त्रं": 4610,
    "▁क्री": 4611,
    "स्योपरि": 4612,
    "इती": 4613,
    "▁किञ्चि": 4614,
    "▁हेरो": 4615,
    "श्र": 4616,
    "▁आगच्छामः": 4617,
    "▁यिरूशाल": 4618,
    "▁प्रविष्ट": 4619,
    "▁String": 4620,
    "▁दोनों": 4621,
    "▁\"L": 4622,
    "भागस्य": 4623,
    "ना:": 4624,
    "▁दृश": 4625,
    "▁स्वस्य": 4626,
    "▁टङ्कनं": 4627,
    "▁स्वकीय": 4628,
    "▁स्मरन्तु": 4629,
    "ञ्ज्महे": 4630,
    "ानम्": 4631,
    "▁डेटा": 4632,
    "as": 4633,
    "sp": 4634,
    "th": 4635,
    "ap": 4636,
    "alue": 4637,
    "▁\"एवं": 4638,
    "ibrary": 4639,
    "▁अं": 4640,
    "▁विटामिन": 4641,
    "▁समीची": 4642,
    "▁जालपुटे": 4643,
    "▁array": 4644,
    "▁पूर्वतन": 4645,
    "▁Serial": 4646,
    "▁श्रो": 4647,
    "कथा": 4648,
    "▁पश्याम": 4649,
    "▁वर्ष": 4650,
    "▁नर": 4651,
    "▁वर्ध": 4652,
    "▁बुध्य": 4653,
    "▁व्यवस्थ": 4654,
    "▁इच्छन्ति": 4655,
    "▁class": 4656,
    "▁एकम्": 4657,
    "स्ट्": 4658,
    "▁स्पे": 4659,
    "फ़ै": 4660,
    "पुत्र": 4661,
    "▁यात": 4662,
    "यिष्यते": 4663,
    "दिने": 4664,
    "▁उत्": 4665,
    "ामिमां": 4666,
    "्म": 4667,
    "▁व्यक्ति": 4668,
    "▁गि": 4669,
    "▁OS": 4670,
    "▁Java": 4671,
    "▁De": 4672,
    "प्रश्": 4673,
    "10": 4674,
    "ele": 4675,
    "te": 4676,
    "▁परन्तु": 4677,
    "▁वह": 4678,
    "▁थे": 4679,
    "िह": 4680,
    "▁नाप": 4681,
    "ेक्ष": 4682,
    "वृक्ष": 4683,
    "न्तुम्": 4684,
    "च्छन्": 4685,
    "ेदं": 4686,
    "ook": 4687,
    "..": 4688,
    "▁स्क्री": 4689,
    "▁विभागं": 4690,
    "भार": 4691,
    "▁Ind": 4692,
    "ian": 4693,
    "ull": 4694,
    "▁\"T": 4695,
    "St": 4696,
    ".j": 4697,
    "ava": 4698,
    "▁अपने": 4699,
    "▁हाथों": 4700,
    "में": 4701,
    "▁हथेलियों": 4702,
    "▁जमीन": 4703,
    "▁तरफ": 4704,
    "erminal": 4705,
    "▁गवा": 4706,
    "irefox": 4707,
    "▁directory": 4708,
    "▁तदनु": 4709,
    "▁तै": 4710,
    "▁\"\"\"अनन्तरं": 4711,
    "▁तयोः": 4712,
    "▁र्यीशु": 4713,
    "▁जगाद,": 4714,
    "▁वृत्त": 4715,
    "▁पीत": 4716,
    "वर्णं": 4717,
    "ोर्स्": 4718,
    "मै": 4719,
    "▁पुन:": 4720,
    "नापि": 4721,
    "लिए": 4722,
    "▁भर": 4723,
    "▁दी": 4724,
    "▁भवित": 4725,
    "udo": 4726,
    "user": 4727,
    "स्य,": 4728,
    "▁स्थापयामि": 4729,
    "वादं": 4730,
    "भुज": 4731,
    "▁पो": 4732,
    "▁परीक्षितुं": 4733,
    "▁एक्से": 4734,
    "इति": 4735,
    "mail": 4736,
    "▁औत्सर्ग": 4737,
    "evel": 4738,
    "old": 4739,
    "चित्य": 4740,
    "▁आवलि": 4741,
    "वानां": 4742,
    "▁double": 4743,
    "▁col": 4744,
    "ho": 4745,
    "iv": 4746,
    "योजनं": 4747,
    "ँस": 4748,
    "▁छोड़": 4749,
    "▁ऊपर": 4750,
    "▁उठा": 4751,
    "ें,": 4752,
    "▁पीछे": 4753,
    "ड़ी": 4754,
    "▁पैरों": 4755,
    "▁बिना": 4756,
    "ाना": 4757,
    "▁उन्म": 4758,
    "▁वदिष्य": 4759,
    "न्ते,": 4760,
    "▁सन्निधौ": 4761,
    "द्वित": 4762,
    "▁उपयोक्त": 4763,
    "▁पश्च": 4764,
    "िम": 4765,
    "▁उत्तर": 4766,
    "नृत्य": 4767,
    "▁कश्चन": 4768,
    "▁र्म": 4769,
    "ण्": 4770,
    "मय": 4771,
    "भवन्ति": 4772,
    "▁नाय": 4773,
    "दाति": 4774,
    "ै:": 4775,
    "नै:": 4776,
    "▁तृ": 4777,
    "्यात": 4778,
    "ड्रे": 4779,
    "▁कापि": 4780,
    "▁Log": 4781,
    "▁OPAC": 4782,
    "▁औट्": 4783,
    "▁Me": 4784,
    "ort": 4785,
    "▁ध्वन्यङ्क": 4786,
    "▁error": 4787,
    "low": 4788,
    "ntry": 4789,
    "ey": 4790,
    "-ओ": 4791,
    "ift": 4792,
    "▁नोद": 4793,
    "▁यान्ति": 4794,
    "▁शिमो": 4795,
    "▁यीशोः": 4796,
    "▁स्कन्ध": 4797,
    "र्प": 4798,
    "bu": 4799,
    "▁धीरे": 4800,
    "▁हथेली": 4801,
    "▁हम": 4802,
    "▁परिवर्तनानि": 4803,
    "▁शक्यन्ते": 4804,
    "श्वरस्य": 4805,
    "▁ईश्वरः": 4806,
    "▁परित्र": 4807,
    "ाता": 4808,
    "ख्रीष्ट": 4809,
    "भ्यम्": 4810,
    "लोक्य": 4811,
    "कर्त": 4812,
    "▁युवां": 4813,
    "▁बोण्ड्": 4814,
    "दत्त": 4815,
    "▁री": 4816,
    "▁परम": 4817,
    "▁प्रभाव": 4818,
    "▁'G": 4819,
    "s'": 4820,
    "▁than": 4821,
    "न्)": 4822,
    "▁अधो": 4823,
    "ामः,": 4824,
    "ाल्ट्": 4825,
    "▁शीघ्रं": 4826,
    "▁अत:": 4827,
    "▁शीघ्र": 4828,
    "▁नदी": 4829,
    "ारे": 4830,
    "▁मदीय": 4831,
    "दाः": 4832,
    "▁Desktop": 4833,
    "▁उंग": 4834,
    "लिया": 4835,
    "परीक्ष": 4836,
    "▁terminal": 4837,
    "ोत्त": 4838,
    "स्तद्": 4839,
    "क्षि": 4840,
    "▁जानु": 4841,
    "▁गृह्ण": 4842,
    "▁परित्य": 4843,
    "▁रेखा": 4844,
    "▁निरूप": 4845,
    "▁दायू": 4846,
    "▁\"\"\"\"\"\"\"": 4847,
    "▁नूतन": 4848,
    "▁मुद्रा": 4849,
    "▁यस्मात्": 4850,
    "▁वंश": 4851,
    "▁स्वीय": 4852,
    "तवान्": 4853,
    "▁\"\"\"क": 4854,
    "▁विभ": 4855,
    "ांशं": 4856,
    "▁फलित": 4857,
    "▁यूयमपि": 4858,
    "▁सुसंवादं": 4859,
    "ज्ञा": 4860,
    "ात्मना": 4861,
    "▁ब्रेके": 4862,
    "▁stud": 4863,
    "ain": 4864,
    "ाभि": 4865,
    "च्य": 4866,
    "▁ताव": 4867,
    "▁रै": 4868,
    "▁स्म": 4869,
    "▁निरीक्ष": 4870,
    "ूढ": 4871,
    "▁करे": 4872,
    "क्ष्": 4873,
    "▁अवसर्पिणी": 4874,
    "▁सम्यक्": 4875,
    "▁अर्रे": 4876,
    "▁वर्ग": 4877,
    "▁दत्तांश": 4878,
    "▁इत्यादीनि": 4879,
    "ध्ये": 4880,
    "▁सक": 4881,
    "लै": 4882,
    "▁उच्च": 4883,
    "▁यिहूदीया": 4884,
    "निवासि": 4885,
    "▁\"एत": 4886,
    "▁username": 4887,
    "ign": 4888,
    "वाक": 4889,
    "मुपयुज्य": 4890,
    "▁account": 4891,
    "000": 4892,
    "▁इमां": 4893,
    "▁वार्त्तां": 4894,
    "rror": 4895,
    "▁सूचयति": 4896,
    "ान्,": 4897,
    "▁लिखतु": 4898,
    "▁अस": 4899,
    "▁पाने": 4900,
    "▁यतस्त": 4901,
    "▁दीप्त": 4902,
    "क्ल": 4903,
    "▁कौ": 4904,
    "द्यथा": 4905,
    "ager": 4906,
    "be": 4907,
    "pert": 4908,
    "हस्त": 4909,
    "ासन": 4910,
    "▁आया": 4911,
    "▁हाथ": 4912,
    "▁द्वेऽपि": 4913,
    "erv": 4914,
    "ण्डौ": 4915,
    "act": 4916,
    "िंग": 4917,
    "▁बढ": 4918,
    "▁उठ": 4919,
    "▁प्रयास": 4920,
    "▁तत्प": 4921,
    "ccess": 4922,
    "heck": 4923,
    "▁\"पश्चात्,": 4924,
    "▁par": 4925,
    "raph": 4926,
    "स्मासु": 4927,
    "▁निद्र": 4928,
    "ष्या": 4929,
    "▁ओर": 4930,
    "▁बैठ": 4931,
    "▁उपयोगः": 4932,
    "▁Windows": 4933,
    "▁विवृणो": 4934,
    "▁वाद": 4935,
    "▁क्": 4936,
    "▁विश": 4937,
    "▁चित्रे": 4938,
    "▁Cur": 4939,
    "▁Mar": 4940,
    ".x": 4941,
    "▁भगव": 4942,
    "▁सन्द": 4943,
    "▁एतौ": 4944,
    "न्या": 4945,
    "्यापि": 4946,
    "▁त्यजामि": 4947,
    "oodle": 4948,
    "▁टङ्कयामि": 4949,
    "▁परमेश्व": 4950,
    "▁जानीमः": 4951,
    "िहू": 4952,
    "दीय": 4953,
    "▁महि": 4954,
    "ज्ञां": 4955,
    "▁न्यूनं": 4956,
    "▁form": 4957,
    "▁उद्घाट्यते": 4958,
    "▁'C": 4959,
    "alcul": 4960,
    "ator": 4961,
    "▁\"\"\"ए": 4962,
    "▁आसन्": 4963,
    "या:": 4964,
    "▁प्राप्": 4965,
    "▁कतिचन": 4966,
    "▁प्रमुख": 4967,
    "▁कदाचित्": 4968,
    "oll": 4969,
    "▁Hello": 4970,
    "▁टे": 4971,
    "ङ्गानि": 4972,
    "▁भवतु": 4973,
    "▁grep": 4974,
    "ह्य": 4975,
    "ount": 4976,
    "Pro": 4977,
    "ject": 4978,
    "▁सदृश": 4979,
    "▁Create": 4980,
    "▁विन्या": 4981,
    "ax": 4982,
    "ितु": 4983,
    "▁ममा": 4984,
    "ital": 4985,
    "▁प्रयोग:": 4986,
    "▁प्राणि": 4987,
    "▁सिंह": 4988,
    "▁मनो": 4989,
    "▁माता": 4990,
    "▁फो": 4991,
    "ज़्": 4992,
    "▁\"अह": 4993,
    "▁Person": 4994,
    "त्ये": 4995,
    "▁तत्त": 4996,
    "ram": 4997,
    "▁'अ": 4998,
    "शिक्षण": 4999,
    "टिङ्ग्": 5000,
    "▁प्रत": 5001,
    "▁भवताम्": 5002,
    "▁अवश्य": 5003,
    "▁बुक्": 5004,
    "मागत": 5005,
    "भूय": 5006,
    "मल": 5007,
    "्च": 5008,
    "▁उर्वर": 5009,
    "तायां": 5010,
    "स्थितौ": 5011,
    "▁त्यज": 5012,
    "करोत्": 5013,
    "▁बै": 5014,
    "ानुसारं": 5015,
    "सिस्": 5016,
    "जेट्": 5017,
    "▁ध्वन्यङ्कनाय": 5018,
    "▁इत्येतानि": 5019,
    "▁मधु": 5020,
    "व्यमिति": 5021,
    "ांग": 5022,
    "▁ओब्जेक्ट्स्": 5023,
    "▁एकैक": 5024,
    "शः": 5025,
    "वस्त्र": 5026,
    "▁गृह्ल": 5027,
    "tern": 5028,
    "▁अक्षर": 5029,
    "▁स्वान्": 5030,
    "▁नहि": 5031,
    "ामी": 5032,
    "प्राण": 5033,
    "▁प्रेम": 5034,
    "वासि": 5035,
    "▁शङ्कां": 5036,
    "▁लैब्र": 5037,
    "▁कथम्": 5038,
    "दौ": 5039,
    "वर्ड्": 5040,
    "ाग्-": 5041,
    "तम": 5042,
    "▁अस्थ": 5043,
    "न्यां": 5044,
    "ांशः": 5045,
    "लोड्": 5046,
    "ore": 5047,
    "▁बॉक्स": 5048,
    "sert": 5049,
    "माण्ड्": 5050,
    "▁लैन्": 5051,
    "र्ग्युमेण्ट्": 5052,
    "▁स्टो": 5053,
    "▁मूल्यानि": 5054,
    "▁lo": 5055,
    "▁साहाय्यमाचर": 5056,
    "▁पठामः": 5057,
    "नों": 5058,
    "▁वारं": 5059,
    "▁कर्षयित्वा": 5060,
    "▁शिथिल": 5061,
    "▁इदानीमहं": 5062,
    "नौ": 5063,
    "▁धूसर": 5064,
    "▁तदानीं": 5065,
    "र्भ": 5066,
    "क्क": 5067,
    "▁कण्डीषन्": 5068,
    "ogadro": 5069,
    "▁DNA": 5070,
    "▁केन्वास्": 5071,
    "▁तद्यथा": 5072,
    "ल्यू": 5073,
    "▁ददामि": 5074,
    "▁वक्र": 5075,
    "▁सङ्गृह": 5076,
    "जन्": 5077,
    "ाद्वयं": 5078,
    "▁हर": 5079,
    "▁अग्रिमं": 5080,
    "▁Bl": 5081,
    "ur": 5082,
    "adi": 5083,
    "ापि": 5084,
    "▁कीवर्ड्": 5085,
    "▁काल्": 5086,
    "▁करणम्": 5087,
    "▁इन्वोक्": 5088,
    "्रेके": 5089,
    "▁25": 5090,
    "▁12": 5091,
    "▁सङ्क": 5092,
    "▁व्याल्यू": 5093,
    "▁कर्म": 5094,
    "▁प्राप्तं": 5095,
    "हू": 5096,
    "▁जगतो": 5097,
    "यिता": 5098,
    "▁अच्छ": 5099,
    "▁पप्रच्छ": 5100,
    "▁टेक्स्ट्-": 5101,
    "ील्ड्": 5102,
    "पति": 5103,
    "▁कतिपय": 5104,
    "बीज": 5105,
    "▁कानि": 5106,
    "▁सङ्गण": 5107,
    "लस्य": 5108,
    "▁द्वयोः": 5109,
    "▁प्रिय": 5110,
    "▁अन्वि": 5111,
    "▁वामभागे": 5112,
    "▁यदस्ति": 5113,
    "▁प्रार्थय": 5114,
    "नाव": 5115,
    "मुक्त": 5116,
    "▁निर": 5117,
    "▁खाद": 5118,
    "ान्ति": 5119,
    "ुप": 5120,
    "▁चल": 5121,
    "यस्य": 5122,
    "▁लोकाः": 5123,
    "युज्य": 5124,
    "erver": 5125,
    "ारम्भ": 5126,
    "▁अर्जुनः": 5127,
    "प्रकार": 5128,
    "▁कृ": 5129,
    "षिक": 5130,
    "▁आवश्यकं": 5131,
    "ुमर्हति": 5132,
    "धीरे": 5133,
    "-धीरे": 5134,
    "▁कम": 5135,
    "▁राम:": 5136,
    "सहस्र": 5137,
    "▁क्षेत्र": 5138,
    "ना,": 5139,
    "▁यन्त्र": 5140,
    "▁वत्स": 5141,
    "▁सन्तु": 5142,
    "▁गतवान्": 5143,
    "किन्तु": 5144,
    "र्भे": 5145,
    "▁गन्त": 5146,
    "▁संधार": 5147,
    "▁स्यात्": 5148,
    "▁डैलाग्-बोक्स्": 5149,
    "▁विकल्पाः": 5150,
    "▁दात": 5151,
    "ि:": 5152,
    "बल्": 5153,
    "▁करवाम": 5154,
    "ानन्त": 5155,
    "▁save": 5156,
    "▁मेथे": 5157,
    "▁sem": 5158,
    "olon": 5159,
    "ouble": 5160,
    "▁des": 5161,
    "▁अनेक": 5162,
    "▁करणीयमिति": 5163,
    "▁भित्त": 5164,
    "▁IDE": 5165,
    "जेक्ट्-": 5166,
    "▁उस": 5167,
    "▁गया": 5168,
    "▁सन्निध": 5169,
    "▁कीलफल": 5170,
    "▁आंखों": 5171,
    "▁घु": 5172,
    "▁Text": 5173,
    "ान्तर": 5174,
    "करणम्": 5175,
    "ड्यू": 5176,
    "cul": 5177,
    "▁check": 5178,
    "▁चेक्-ब": 5179,
    "प्स्य": 5180,
    "श्वर": 5181,
    "▁अल्प": 5182,
    "प्रत्य": 5183,
    "यि": 5184,
    "▁वयम": 5185,
    "form": 5186,
    "▁con": 5187,
    "गर": 5188,
    "▁आत्मा": 5189,
    "▁कारणात्": 5190,
    "पर्य्य": 5191,
    "र्च": 5192,
    "▁भक्तिं": 5193,
    "▁पुष्प": 5194,
    "▁Sy": 5195,
    "na": 5196,
    "▁Package": 5197,
    "▁पेकेज्": 5198,
    "ण्डो": 5199,
    "▁गच्छामः": 5200,
    "बह": 5201,
    "गे": 5202,
    "क्षेप": 5203,
    "भग": 5204,
    "क्टर्": 5205,
    "्राम": 5206,
    "दन्त": 5207,
    "ात्मा": 5208,
    "रच": 5209,
    "ोर्मे": 5210,
    "▁struct": 5211,
    "▁पीठ": 5212,
    "िकया": 5213,
    "▁अन्यत्": 5214,
    "वद्": 5215,
    "क्षेत्रे": 5216,
    "ायते": 5217,
    "▁\"\"\"प्र": 5218,
    "श्चन": 5219,
    "कारेण": 5220,
    "▁प्रस्तु": 5221,
    "▁लभ्यते": 5222,
    "पादप": 5223,
    "▁while": 5224,
    "▁\"अग्रि": 5225,
    "द्वा": 5226,
    "▁गीता": 5227,
    "▁पाठनियोजनम्": 5228,
    "क्सि": 5229,
    "▁विक": 5230,
    "▁Front": 5231,
    "▁सैट्": 5232,
    "मिमं": 5233,
    "ौल": 5234,
    "▁प्रविश्य": 5235,
    "▁नवीन": 5236,
    "▁प्लस्": 5237,
    "भ्याम्": 5238,
    "▁सार्द्धम्": 5239,
    "▁(अ": 5240,
    "▁धर्म": 5241,
    "▁सान्त्व": 5242,
    "क्लि": 5243,
    "▁विपरी": 5244,
    "▁कर्षयामि": 5245,
    "▁gradient": 5246,
    "▁पितरं": 5247,
    "▁प्रत्यु": 5248,
    "▁मित्र": 5249,
    ";\"\"\"": 5250,
    "न्त्व": 5251,
    "वाक्य": 5252,
    "▁श्रु": 5253,
    "वेद": 5254,
    "▁फिरू": 5255,
    "पार्श्वे": 5256,
    "▁भवामि": 5257,
    "▁धन्यं": 5258,
    "नाङ्क": 5259,
    "▁लिखामः": 5260,
    "▁उदाहरणं": 5261,
    "▁शक्ष्यन्ति": 5262,
    "▁with": 5263,
    "लियों": 5264,
    "▁गो": 5265,
    "णाति": 5266,
    "्रिङ्ग्": 5267,
    "▁अधोनिर्": 5268,
    "SP": 5269,
    "▁द्वा": 5270,
    "णीं": 5271,
    "वर्त्त": 5272,
    "ल्प": 5273,
    "ption": 5274,
    "▁पिञ्ज": 5275,
    "लम्": 5276,
    "▁शनै:": 5277,
    "ख्रीष्टस्य": 5278,
    "▁नाम्": 5279,
    "▁विश्वसि": 5280,
    "▁डैलाग्-": 5281,
    "▁तत्तु": 5282,
    "▁सौ": 5283,
    "▁दृष्टवान्": 5284,
    "▁श्रीकृष्ण": 5285,
    "▁फ़ील्ड्स्": 5286,
    "▁पलाय": 5287,
    "▁Ex": 5288,
    "▁इत्यस्योप": 5289,
    "▁सम्यग्": 5290,
    "▁डिस्प्ले": 5291,
    "▁यस्मिन्": 5292,
    "-इत्य": 5293,
    "▁संवादपेटिक": 5294,
    "▁उभ": 5295,
    "युक्ता": 5296,
    "▁pl": 5297,
    "▁नामानि": 5298,
    "▁Window": 5299,
    "ude": 5300,
    "▁वाय": 5301,
    "ry": 5302,
    "त्वात्": 5303,
    "▁विद": 5304,
    "ुमर्ह": 5305,
    "▁अभ्यास:": 5306,
    "टेन्": 5307,
    "षन्": 5308,
    "▁इम्पोर्ट्": 5309,
    "▁\"U": 5310,
    "▁पेर": 5311,
    "थिसिस्": 5312,
    "ज्यते": 5313,
    "ासीत्": 5314,
    "▁विना": 5315,
    "▁हरि": 5316,
    "▁टर्": 5317,
    "ण्डल": 5318,
    "तीय": 5319,
    "▁सन्धार": 5320,
    "रिये": 5321,
    "▁अंगूठ": 5322,
    "क्षिप्त": 5323,
    "ेशस्य": 5324,
    "बिन्द": 5325,
    "ूष": 5326,
    "ox": 5327,
    "▁देख": 5328,
    "ज्ञात": 5329,
    "▁वक्तुं": 5330,
    "▁पूर्व्वं": 5331,
    "un": 5332,
    "▁'को": 5333,
    "्यताम्": 5334,
    "▁सोफ़्ट्वेर्": 5335,
    "▁इन्पुट्": 5336,
    "▁युग": 5337,
    "▁यावत": 5338,
    "▁ग्री": 5339,
    "क्षन्": 5340,
    "▁नियम": 5341,
    "▁दूस": 5342,
    "▁रख": 5343,
    "ial": 5344,
    "फ़्ट": 5345,
    "्वेर्": 5346,
    "▁परिमाणं": 5347,
    "▁एड्मि": 5348,
    "स्ट्रे": 5349,
    "eacher": 5350,
    "▁16.04": 5351,
    "edit": 5352,
    "▁उपयुञ्जे": 5353,
    "▁Open": 5354,
    "poken": 5355,
    "▁स्थापयितुं": 5356,
    "▁दुर्": 5357,
    "परी": 5358,
    "▁हिस्": 5359,
    "न्त्रे": 5360,
    "▁पानी": 5361,
    "mport": 5362,
    "atron": 5363,
    "ke": 5364,
    "ord": 5365,
    "essage": 5366,
    "नयोः": 5367,
    "str": 5368,
    "▁लाभ": 5369,
    "दाय": 5370,
    "▁Editor": 5371,
    "▁पिधानं": 5372,
    "ङ्क्षन्स्": 5373,
    "▁स्वर्गीय": 5374,
    "विष्ट": 5375,
    "roup": 5376,
    "▁इत्येते": 5377,
    "ec": 5378,
    "ute": 5379,
    "दल": 5380,
    "कारस्य": 5381,
    "awk": 5382,
    "माग": 5383,
    "▁यूयम्": 5384,
    "▁आगे": 5385,
    "▁झुक": 5386,
    "▁जांघ": 5387,
    "▁फै": 5388,
    "हरा": 5389,
    "▁घुटनों": 5390,
    "ः,\"": 5391,
    "▁\"\"\"आ": 5392,
    "▁निवेद": 5393,
    "शरीरस्य": 5394,
    "न्त्र": 5395,
    "यमेव": 5396,
    "नोतु": 5397,
    ".t": 5398,
    "▁खि": 5399,
    "गें": 5400,
    "्वेन्स्": 5401,
    "▁इत्यतः": 5402,
    "las": 5403,
    "▁स्वच्छं": 5404,
    "त्मक": 5405,
    "-इ": 5406,
    "▁तेष": 5407,
    "▁जिह": 5408,
    "प्प": 5409,
    "▁Code": 5410,
    "▁Files": 5411,
    "ाश": 5412,
    "ोऽस्ति": 5413,
    "जानन्तु": 5414,
    "▁स्टेटिक्": 5415,
    ".p": 5416,
    "rint": 5417,
    "ln": 5418,
    "ार्म्मिक": 5419,
    "▁आचर": 5420,
    "ौसर्": 5421,
    "▁सिं": 5422,
    "▁लिं": 5423,
    "▁प्राय": 5424,
    "▁direct": 5425,
    "▁मांसपेशियों": 5426,
    "▁मजबूत": 5427,
    "▁एडि": 5428,
    "▁चि": 5429,
    "नोऽ": 5430,
    "▁अकौ": 5431,
    "han": 5432,
    "▁मेन्यु": 5433,
    "arks": 5434,
    "ोल्ट्": 5435,
    "▁प्रसार": 5436,
    "▁इण्टीज": 5437,
    "▁आह्व": 5438,
    "▁प्रकल्पस्य": 5439,
    "ड्रेस्": 5440,
    "▁फङ्क्षन्": 5441,
    "▁201": 5442,
    "▁कुर्वन्": 5443,
    "▁अस्मि": 5444,
    "▁शक्त": 5445,
    "▁कम्पैल्": 5446,
    "▁कृत्वा,": 5447,
    "▁Employee": 5448,
    "▁स्तः": 5449,
    "▁सर्वविध": 5450,
    "▁\"उत्सर्ग": 5451,
    "▁\"\"\"श": 5452,
    "▁तावत": 5453,
    "ते,": 5454,
    "टिका": 5455,
    "▁तस्याः": 5456,
    "सङ्ख्या": 5457,
    "▁संवाद": 5458,
    "▁अभव": 5459,
    "▁तादृशं": 5460,
    "ोध": 5461,
    "न्यं": 5462,
    "spoken-tutorial.org": 5463,
    "▁पूर्वमेव": 5464,
    "टेक्स्": 5465,
    "मुद्र": 5466,
    "▁कांश्चन": 5467,
    "▁बालिका": 5468,
    "बं": 5469,
    "ासनं": 5470,
    "ार्थ:": 5471,
    "▁.................": 5472,
    "....": 5473,
    "▁कति": 5474,
    "्रिया": 5475,
    "▁हस्तौ": 5476,
    "र्ग्यु": 5477,
    "▁आगामि": 5478,
    "▁Fin": 5479,
    "सेना": 5480,
    "dex": 5481,
    "▁सृष्ट": 5482,
    "▁मी": 5483,
    "थाय": 5484,
    "▁पितुः": 5485,
    "ारः": 5486,
    "ary": 5487,
    "▁\"\"\"कि": 5488,
    "▁एक्सिक्यू": 5489,
    "▁गण्डस्योपरि": 5490,
    "कृतिक": 5491,
    "विद्य": 5492,
    "▁पुत्रः": 5493,
    "▁If": 5494,
    "▁करणं": 5495,
    "▁विश्व": 5496,
    "▁\"यथा": 5497,
    "▁sh": 5498,
    "न्ना:": 5499,
    "▁अर्था": 5500,
    "क्रियं": 5501,
    "णाम": 5502,
    "युतं": 5503,
    "▁आगच्छेत": 5504,
    "▁अक्ष": 5505,
    "▁वदन्ति": 5506,
    "न्स्ट": 5507,
    "ालेशन्": 5508,
    "▁फलं": 5509,
    "पादं": 5510,
    "▁बाद": 5511,
    "स्तां": 5512,
    "▁प्रमाण": 5513,
    "ुः,": 5514,
    "▁एलि": 5515,
    "▁दर्शनं": 5516,
    "पुट्": 5517,
    "ीकरण": 5518,
    "▁युष्माकम्": 5519,
    "▁आज्ञ": 5520,
    "▁अपर": 5521,
    "ृत्वा": 5522,
    "▁गात्र": 5523,
    "▁स्वक": 5524,
    "▁यच्छ": 5525,
    "▁शिश": 5526,
    "नश्च": 5527,
    "क्षं": 5528,
    "▁सम्मिल": 5529,
    "▁सन्ध": 5530,
    "वेरियेबल्": 5531,
    "eve": 5532,
    "▁string": 5533,
    "▁प्रकारेण": 5534,
    "वर्तयेत": 5535,
    "पार्": 5536,
    "▁भजन": 5537,
    "▁Cl": 5538,
    "iology": 5539,
    "▁टण्कयन्तु": 5540,
    "लेट्": 5541,
    "▁यश": 5542,
    "▁पुत्रः,": 5543,
    "▁इब्राही": 5544,
    "▁उन": 5545,
    "▁दिया": 5546,
    "▁50": 5547,
    "▁ततस्ते": 5548,
    "दः": 5549,
    "▁शङ्क": 5550,
    "▁पाठान्": 5551,
    "▁कार्यशालां": 5552,
    "▁चालयति": 5553,
    "▁भूम्यां": 5554,
    "▁उवाच,": 5555,
    "ब्बल": 5556,
    "▁धर्म्म": 5557,
    "▁अग्": 5558,
    "▁वस्त्र": 5559,
    "▁सत": 5560,
    "▁दत्तं": 5561,
    "▁अर": 5562,
    "▁महान": 5563,
    "▁कर्तुम्,": 5564,
    "▁Start": 5565,
    "न्ती": 5566,
    "▁मरिय": 5567,
    "▁गुरो": 5568,
    "ूर्व": 5569,
    "▁निर्म्": 5570,
    "नग": 5571,
    "किमपि": 5572,
    "▁gre": 5573,
    "ग्रे": 5574,
    "मिल": 5575,
    "▁नाट": 5576,
    "ंड": 5577,
    "्रेष्ठ": 5578,
    "ly": 5579,
    "▁विद्यमानानि": 5580,
    "▁वास": 5581,
    "ातुम्": 5582,
    "श्वस": 5583,
    "▁आध": 5584,
    "yphen": 5585,
    "ीक्वेन्स्": 5586,
    "शास्त्र": 5587,
    "▁sudo": 5588,
    "नामा": 5589,
    "▁कृष्णं": 5590,
    "▁\"अव": 5591,
    "▁\"B": 5592,
    "rade": 5593,
    "र्श्यते": 5594,
    "ङ्क्": 5595,
    "केप्": 5596,
    "▁बहि:": 5597,
    "▁Home": 5598,
    "▁बभाष": 5599,
    "ब्द": 5600,
    "पी": 5601,
    "दानी": 5602,
    "▁मन्य": 5603,
    "▁गौ": 5604,
    "▁ट्रान्": 5605,
    "▁Setup": 5606,
    "कास": 5607,
    "हित": 5608,
    "▁द्वादश": 5609,
    "▁हुए": 5610,
    "▁क्रम": 5611,
    "ourse": 5612,
    "▁क्वि": 5613,
    "ज़": 5614,
    "▁केषाञ्च": 5615,
    "▁शृणु": 5616,
    "▁सद्यः": 5617,
    "ऽहं": 5618,
    "▁क्रमश": 5619,
    "▁दिवस": 5620,
    "▁डा": 5621,
    "▁इति,": 5622,
    "▁दृ": 5623,
    "ाणाम": 5624,
    "क्यं": 5625,
    "utorial": 5626,
    "▁इस्राय": 5627,
    "▁मनुष्या": 5628,
    "▁आवल": 5629,
    "ingle": 5630,
    "▁अन्यदेकं": 5631,
    "▁अन्त:": 5632,
    "▁Search": 5633,
    "▁हृद": 5634,
    "द्रा": 5635,
    "▁आपके": 5636,
    "▁वेरियेबल्स्": 5637,
    "ृह": 5638,
    "▁स्टे": 5639,
    "ील्": 5640,
    "▁अनुस": 5641,
    "▁डिलीट्": 5642,
    "▁उपयुज्यते": 5643,
    "ज्ञाप": 5644,
    "▁तेनैव": 5645,
    "▁तत्क्षण": 5646,
    "ायाम": 5647,
    "बण्टु": 5648,
    "▁नम्रतां": 5649,
    "-इतीदं": 5650,
    "▁इम्प": 5651,
    "िका:": 5652,
    "▁100": 5653,
    "त्या": 5654,
    "र्य्य": 5655,
    "▁आसनानि": 5656,
    "ृहं": 5657,
    "क्त्वा": 5658,
    "ूनि": 5659,
    "▁समर्थ": 5660,
    "inux": 5661,
    "▁सर्वाः": 5662,
    "मिद": 5663,
    "▁Per": 5664,
    "ेते": 5665,
    "▁प्रस्तुत": 5666,
    "▁ऊर्ज": 5667,
    "▁कोश": 5668,
    "ङ्कं": 5669,
    "▁बढ़": 5670,
    "▁सर्वान्": 5671,
    "तवन्तः": 5672,
    "मावश्य": 5673,
    "▁जानीय": 5674,
    "▁नियन्त्र": 5675,
    "▁शा": 5676,
    "महे": 5677,
    "file": 5678,
    "assword": 5679,
    "▁उपलब्ध": 5680,
    "ष्क": 5681,
    "etting": 5682,
    "तत्": 5683,
    "▁गा": 5684,
    "पुस्त": 5685,
    "▁चलच्चित्रं": 5686,
    "▁प्रतिकृतिं": 5687,
    "perties": 5688,
    "▁माम्": 5689,
    "▁उत्तरं": 5690,
    "▁यिहूदी": 5691,
    "दो": 5692,
    "▁कृतानि": 5693,
    "one": 5694,
    "▁कोष्ठ": 5695,
    "▁विवृणोमि": 5696,
    "AC": 5697,
    "▁आवर्तयेत": 5698,
    "ront": 5699,
    "Accounting": 5700,
    "▁परमाण": 5701,
    "प्रा": 5702,
    "चनं": 5703,
    "▁कुर्म:": 5704,
    "▁Inkscape": 5705,
    "come": 5706,
    "फ़ेस्": 5707,
    "गतम्": 5708,
    "▁मास्तु": 5709,
    "▁रिस": 5710,
    "▁तादृ": 5711,
    "▁कव": 5712,
    "▁बारे": 5713,
    "▁\"इदानी": 5714,
    "▁प्रशं": 5715,
    "▁लाभा:": 5716,
    "देश्य": 5717,
    "▁'S": 5718,
    "end": 5719,
    "rive": 5720,
    "▁खेल": 5721,
    "गीत": 5722,
    "▁colour": 5723,
    "▁कर्त्तुम्": 5724,
    "▁तदर्थ": 5725,
    "भ्रात": 5726,
    "▁अर्ध": 5727,
    "yst": 5728,
    "▁परिवर्तताम्": 5729,
    "ब्जेक्ट्-": 5730,
    "▁याच": 5731,
    "ासने": 5732,
    "▁प्रयोजन": 5733,
    "ush": 5734,
    "▁श्लाघ": 5735,
    "फु": 5736,
    "▁सर्वत्र": 5737,
    "ितवती": 5738,
    "▁वज्र": 5739,
    "▁रूपे": 5740,
    "▁वन": 5741,
    "वास": 5742,
    "▁अन्यं": 5743,
    "नोप": 5744,
    "म्बर्": 5745,
    "▁दोषः": 5746,
    "icolon": 5747,
    "▁सन्नि": 5748,
    "lash": 5749,
    "स्प्ले": 5750,
    "atic": 5751,
    "▁परिवर्तयामः": 5752,
    "▁पर्याय": 5753,
    "▁परमेश्वरस्य": 5754,
    "बे": 5755,
    "▁अष्ट": 5756,
    "ौन्": 5757,
    "▁नयति": 5758,
    "▁भवितव्य": 5759,
    "ans": 5760,
    "▁इत्यस्मै,": 5761,
    "▁कुतः": 5762,
    "▁if": 5763,
    "atement": 5764,
    "▁डेस्": 5765,
    "ाप्": 5766,
    "ktop": 5767,
    "▁ओपरे": 5768,
    "▁परी": 5769,
    "कारिण": 5770,
    "▁राष्ट्रिय": 5771,
    "▁ICT,": 5772,
    "▁भारतसर्व": 5773,
    "▁माध्यमेन": 5774,
    "▁कर्तुं,": 5775,
    "▁पेटर्न्": 5776,
    "▁पुनरावर्त": 5777,
    "▁गच्छामि": 5778,
    "▁मार्क्": 5779,
    "ree": 5780,
    "ft": 5781,
    "िद्र": 5782,
    "▁Sp": 5783,
    "▁साधनं": 5784,
    "▁इन्स्": 5785,
    "टेन्स्": 5786,
    "▁इनिशिय": 5787,
    "▁टैप्": 5788,
    "्लो": 5789,
    "▁स्वयमेव": 5790,
    "▁इनिशियलैस्": 5791,
    "ection": 5792,
    "ind": 5793,
    "▁15": 5794,
    "-सं": 5795,
    "वान्,": 5796,
    "ी,": 5797,
    "▁ति": 5798,
    "श्चर्य": 5799,
    "ream": 5800,
    "ader": 5801,
    "▁Des": 5802,
    "▁लग": 5803,
    "ervlet": 5804,
    "▁स्वर": 5805,
    "कोश": 5806,
    "द:": 5807,
    "कोणे": 5808,
    "▁मूल्य": 5809,
    "▁बालकः": 5810,
    "▁सन्त": 5811,
    "▁\"\"\"यह": 5812,
    "▁Se": 5813,
    "cri": 5814,
    "▁पौल": 5815,
    "नगर": 5816,
    "▁फु": 5817,
    "डल्": 5818,
    "▁मूस": 5819,
    "स्यापि": 5820,
    "▁\"एवमेव": 5821,
    "▁प्रयत्नं": 5822,
    "earch": 5823,
    "▁उपरित": 5824,
    "भूव": 5825,
    "व्याणि": 5826,
    "ello": 5827,
    "▁योजयन्तु": 5828,
    "▁square": 5829,
    "भोग": 5830,
    "▁भोज": 5831,
    "fer": 5832,
    "hile": 5833,
    "पृ": 5834,
    "▁मै": 5835,
    "▁श्ल": 5836,
    "▁एकाग्रता": 5837,
    "▁पाठनियोजन": 5838,
    "▁बे": 5839,
    "▁क्लेश": 5840,
    "▁छो": 5841,
    "▁विहाय": 5842,
    "▁ब्रह्": 5843,
    "▁प्रकट": 5844,
    "िकम्": 5845,
    "▁आस्ते": 5846,
    "og": 5847,
    "▁मिथ": 5848,
    "▁पृच्छ": 5849,
    "▁त्या": 5850,
    "▁इत्यस्याध": 5851,
    "▁अधिकविवरण": 5852,
    "▁contact": 5853,
    "ीन्": 5854,
    "▁समुप": 5855,
    "विश्य": 5856,
    "चिन्त": 5857,
    "हर": 5858,
    "▁\"अतः": 5859,
    "ask": 5860,
    "ves": 5861,
    "ार्म्": 5862,
    "▁ट्याग्": 5863,
    "▁निक": 5864,
    "▁जातः": 5865,
    "कारी": 5866,
    "शाव": 5867,
    "दायक": 5868,
    "ैत": 5869,
    "स्तात्": 5870,
    "▁आपकी": 5871,
    "क्रि": 5872,
    "▁भवन्ति,": 5873,
    "माने": 5874,
    "▁शान्त": 5875,
    "वर्": 5876,
    "▁सज्ज": 5877,
    "ep": 5878,
    "▁लिखत": 5879,
    "▁प्राणान्": 5880,
    "▁टि": 5881,
    "▁राष्ट": 5882,
    "spoken": 5883,
    "▁जि": 5884,
    "राह": 5885,
    "ुःख": 5886,
    "▁edit": 5887,
    "क्व": 5888,
    "▁श्वे": 5889,
    "ाः,": 5890,
    "▁मिन": 5891,
    "धः": 5892,
    "क्ष्म": 5893,
    "णः": 5894,
    "▁स्क": 5895,
    "फलं": 5896,
    "बोक्स्": 5897,
    "▁Calculus": 5898,
    "port": 5899,
    "ant": 5900,
    "▁तद्व": 5901,
    "ृत्त": 5902,
    "▁Name": 5903,
    "कारः": 5904,
    "▁अधिकविवरणं": 5905,
    "▁\"ट": 5906,
    "ट्रि": 5907,
    "▁औट्पुट्": 5908,
    "▁त्वम्": 5909,
    "▁यस्मिन": 5910,
    "क्रे": 5911,
    "▁गुप्त": 5912,
    "्युटोरियल्": 5913,
    "इत्यस्य": 5914,
    "▁पृष्टस्य": 5915,
    "▁अधस्त": 5916,
    "▁हृ": 5917,
    "तन": 5918,
    "IMP": 5919,
    "▁Journal": 5920,
    "▁अय": 5921,
    "न्ताम्": 5922,
    "विशिष्ट": 5923,
    "ron": 5924,
    "▁जाग": 5925,
    "▁बंद": 5926,
    "▁per": 5927,
    "त्वार": 5928,
    "वंश": 5929,
    "निज": 5930,
    "स्पोकन्": 5931,
    "▁अधोनिर्दिष्ट": 5932,
    "▁प्रेर": 5933,
    "ानाद्": 5934,
    "ितवन्त": 5935,
    "▁आवश्यकत": 5936,
    "▁min": 5937,
    "▁\"वाम": 5938,
    "mage": 5939,
    "enu": 5940,
    "▁Inter": 5941,
    "erson": 5942,
    "etails": 5943,
    "▁\"भवन्तः": 5944,
    "▁ददातु": 5945,
    "र्वर": 5946,
    "काणां": 5947,
    "मध": 5948,
    "्रियते": 5949,
    "सां": 5950,
    "andard": 5951,
    "ञ्चिक": 5952,
    "त्सर्ग": 5953,
    "काय": 5954,
    "▁पुनराव": 5955,
    "▁केवलम्": 5956,
    "ब्ध": 5957,
    "▁ओप": 5958,
    "▁टङ्कयित्वा,": 5959,
    "▁सर्व्वेषां": 5960,
    "volutes": 5961,
    "▁उन्ह": 5962,
    "ोंने": 5963,
    "▁or": 5964,
    "ld": 5965,
    "▁चत्वारि": 5966,
    "▁पार्": 5967,
    "av": 5968,
    "▁java": 5969,
    "▁कथयित्वा": 5970,
    "▁पश्चाद्वयं": 5971,
    "्ले": 5972,
    "▁ब्लोक्": 5973,
    "ाटक": 5974,
    "▁गौर": 5975,
    "डेट्": 5976,
    "oid": 5977,
    "जब": 5978,
    "▁आनन्द": 5979,
    "▁सौजन": 5980,
    "▁प्रार्थना": 5981,
    "गामि": 5982,
    "▁डिक्": 5983,
    "▁कुर्व्वन्ति": 5984,
    "org": 5985,
    "▁show": 5986,
    "▁प्रदृ": 5987,
    "▁Appl": 5988,
    "-tutorial.org": 5989,
    "MEICT": 5990,
    "ntro": 5991,
    "▁30": 5992,
    "▁रिक": 5993,
    "▁मैत्र": 5994,
    "सिद्ध": 5995,
    "▁str": 5996,
    "▁एतादृशं": 5997,
    "मत": 5998,
    "▁जनः": 5999,
    "▁squ": 6000,
    "▁इत्यपि": 6001,
    "▁all": 6002,
    "rom": 6003,
    "ोप्": 6004,
    "▁मानु": 6005,
    "जान": 6006,
    "lass": 6007,
    "्रज": 6008,
    "▁अल": 6009,
    "ञ्": 6010,
    "ubl": 6011,
    "रुष": 6012,
    "क्तस्य": 6013,
    "▁पृथि": 6014,
    "▁त्री": 6015,
    "▁gcc": 6016,
    "ियों": 6017,
    "▁मिश्र": 6018,
    "▁विस्तार": 6019,
    "दभी": 6020,
    "षिक्त": 6021,
    "ीरे": 6022,
    "वस्त": 6023,
    "nal": 6024,
    "▁Image": 6025,
    "▁निरी": 6026,
    "▁निच": 6027,
    "विश्वास": 6028,
    "दास": 6029,
    "▁प्रभुः": 6030,
    "नीत": 6031,
    "NA": 6032,
    "▁un": 6033,
    "ix": 6034,
    "स:": 6035,
    "सिङ्ग्": 6036,
    "तेषाम्": 6037,
    "▁अश": 6038,
    "नगरे": 6039,
    "क्सी": 6040,
    "कश्च": 6041,
    "▁करतल": 6042,
    "मनुस": 6043,
    "वो": 6044,
    "▁http://": 6045,
    "▁उपल": 6046,
    "wor": 6047,
    "▁मौ": 6048,
    "buntu": 6049,
    "▁जगाद": 6050,
    "▁जीवा": 6051,
    "▁तासु": 6052,
    "▁हों": 6053,
    "▁पाठार्थं": 6054,
    "रों": 6055,
    "ंस": 6056,
    "▁Al": 6057,
    "ost": 6058,
    "यात": 6059,
    "▁आत्": 6060,
    "नीयं": 6061,
    "त्सु": 6062,
    "▁गण्ड": 6063,
    "वाः": 6064,
    "▁Alt": 6065,
    "ire": 6066,
    "▁\"इदानीं": 6067,
    "सङ्क": 6068,
    "▁आंख": 6069,
    "▁सर्वं": 6070,
    "▁समुद्र": 6071,
    "▁अधि": 6072,
    "ml": 6073,
    "▁इन्स्टालेशन्": 6074,
    "▁इण्टीजर्": 6075,
    "कण": 6076,
    "▁यौ": 6077,
    "▁स्नाय": 6078,
    "rr": 6079,
    "▁टीच": 6080,
    "न्ह": 6081,
    "▁माप": 6082,
    "radient": 6083,
    "▁क्लि": 6084,
    "▁final": 6085,
    "ssign": 6086,
    "▁hand": 6087,
    "ल्स्": 6088,
    "atab": 6089,
    "eX": 6090,
    "▁छिद्र": 6091,
    "▁प्रया": 6092,
    "▁आप्": 6093,
    "व्यः": 6094,
    "ences": 6095,
    "ायाज": 6096,
    "▁ब्रह्म": 6097,
    "▁प्रदूष": 6098,
    "गोच": 6099,
    "▁आब्जेक्ट्": 6100,
    "▁स्ति": 6101,
    "पेटिका": 6102,
    "ैर्य": 6103,
    "भट्ट": 6104,
    "▁महान्": 6105,
    "▁श्": 6106,
    "▁तिष्ठन्ति": 6107,
    "QL": 6108,
    "indow": 6109,
    "▁पूरण": 6110,
    "▁टीचर्": 6111,
    "▁चेद": 6112,
    "▁अवशिष्ट": 6113,
    "▁\"वयम": 6114,
    "वादि": 6115,
    "dition": 6116,
    "क्लिप्": 6117,
    "नम्,": 6118,
    "नोमि": 6119,
    "ble": 6120,
    "ेज": 6121,
    "ानार्थं": 6122,
    "▁भज": 6123,
    "bject": 6124,
    "▁कथ्यन्ते": 6125,
    "मानः": 6126,
    "▁पापि": 6127,
    "▁जाना": 6128,
    "कार्ड्": 6129,
    "▁सामर्थ": 6130,
    "ज्र": 6131,
    "ष्णं": 6132,
    "ML": 6133,
    "▁after": 6134,
    "गन्ध": 6135,
    "ेषाञ्च": 6136,
    "▁सेट्टिङ्ग्": 6137,
    "clipse": 6138,
    "वरण": 6139,
    "्वास्": 6140,
    "▁कुर्या": 6141,
    "▁वह्नि": 6142,
    "80": 6143,
    "म्न": 6144,
    "व्यानि": 6145,
    "enc": 6146,
    "▁जीवनं": 6147,
    "oint": 6148,
    "ize": 6149,
    "▁सूच्य": 6150,
    "▁मद": 6151,
    "भिन्न": 6152,
    "▁याज": 6153,
    "▁विनयं": 6154,
    "▁डिली": 6155,
    "radi": 6156,
    "▁समस्त": 6157,
    "वेष": 6158,
    "मुत्त": 6159,
    "ustom": 6160,
    "टर्मिनल्": 6161,
    "ICT": 6162,
    "▁दत्त्वा": 6163,
    "ञ्ज्": 6164,
    "▁लै": 6165,
    "▁शृ": 6166,
    "▁मौल": 6167,
    "▁ट्या": 6168,
    "्लोक्": 6169,
    "▁काले": 6170,
    "ink": 6171,
    "िकाः": 6172,
    "▁fin": 6173,
    "▁sp": 6174,
    "▁वार्त्त": 6175,
    ":/": 6176,
    "▁6.": 6177,
    "▁an": 6178,
    "eight": 6179,
    "भविष्यद्वा": 6180,
    "inu": 6181,
    "▁इत्येतेषाम्": 6182,
    "fa": 6183,
    "▁विश्वस्य": 6184,
    "▁व्यभि": 6185,
    "▁चिन्व": 6186,
    "▁आरब्ध": 6187,
    "▁सार्द्ध": 6188,
    "क्ला": 6189,
    "▁पाठनि": 6190,
    "▁KT": 6191,
    "MP": 6192,
    "मेंट्": 6193,
    "ournal": 6194,
    "get": 6195,
    "utes": 6196,
    "ttp": 6197,
    "://": 6198,
    "assw": 6199,
    "▁यथार्थं": 6200,
    "loy": 6201,
    "घ्र": 6202,
    "▁Set": 6203,
    "▁प्रमाणपत्र": 6204,
    "्यमा": 6205,
    "भ्या": 6206,
    "▁इन्स्ट": 6207,
    "द्धि": 6208,
    "डौन्": 6209,
    "▁श्रद्ध": 6210,
    "oken": 6211,
    "Details": 6212,
    "▁एकै": 6213,
    "तेषां": 6214,
    "▁To": 6215,
    "_n": 6216,
    "कोर्ड्": 6217,
    "▁कतिप": 6218,
    "▁यीशुना": 6219,
    "▁अन्तर्ज": 6220,
    "........": 6221,
    "▁शरी": 6222,
    "▁कृप": 6223,
    "ust": 6224,
    "श्वे": 6225,
    "idth": 6226,
    "याज": 6227,
    "न्स्ट्र": 6228,
    "द्यः": 6229,
    "▁आरम्": 6230,
    "TML": 6231,
    "ccounting": 6232,
    "▁th": 6233,
    "▁भुक्त": 6234,
    "▁.........": 6235,
    "▁dollar": 6236,
    "▁परित:": 6237,
    "mploy": 6238,
    "ीत्वा": 6239,
    "क्ष्ण": 6240,
    "▁सुसं": 6241,
    "▁इब्र": 6242,
    "▁द्योत": 6243,
    "rou": 6244,
    "▁टेक्स्": 6245,
    "▁ड्र": 6246,
    "▁ददा": 6247,
    "▁चलच्चित्र": 6248,
    "▁डिक्ले": 6249,
    "▁मजब": 6250,
    "रोति": 6251,
    "ph": 6252,
    "▁नह": 6253,
    "▁\"\"\"अपर": 6254,
    "iles": 6255,
    "▁इनिशियलै": 6256,
    "▁संत्य": 6257,
    "ouch": 6258,
    "▁चाहि": 6259,
    "▁हथे": 6260,
    "ग्रि": 6261,
    "▁ध्य": 6262,
    "ुत्वा": 6263,
    "ूठ": 6264,
    "kt": 6265,
    "-tutorial": 6266,
    "▁Man": 6267,
    "भिला": 6268,
    "वादी": 6269,
    "cape": 6270,
    "ोकन्": 6271,
    "▁जां": 6272,
    "भ्यासं": 6273,
    "▁नम्र": 6274,
    "श्यते": 6275,
    "▁केव": 6276,
    "▁साहाय": 6277,
    "kscape": 6278,
    "eac": 6279,
    "▁डैल": 6280,
    "oha": 6281,
    "▁इण्ट": 6282,
    "पुटे": 6283,
    "struct": 6284,
    "▁प्रीति": 6285,
    "▁विट": 6286,
    "ARC": 6287,
    "ccount": 6288,
    "ुदेव": 6289,
    "▁कण्ड": 6290,
    "oard": 6291,
    "grou": 6292,
    "्-डौन्": 6293,
    "▁मनां": 6294,
    "▁वात्": 6295,
    "ood": 6296,
    "▁स्क्र": 6297,
    "▁MyS": 6298,
    "zill": 6299,
    "vol": 6300,
    "ollar": 6301,
    "रर्": 6302,
    "▁http": 6303,
    "▁ICT": 6304,
    "▁ज्यो": 6305,
    "▁Or": 6306,
    "▁एकाग्र": 6307,
    "हरण": 6308,
    "▁नीच": 6309,
    "निशिय": 6310,
    "ring": 6311,
    "▁महत्व": 6312,
    "fter": 6313,
    ".10": 6314,
    "eth": 6315,
    "▁इन्व": 6316,
    "मीन": 6317,
    "orial": 6318,
    "ॉक्स": 6319,
    "▁मेथ": 6320,
    "RD": 6321,
    "PAC": 6322,
    "्यमाचर": 6323,
    "▁कांश्च": 6324,
    "ण्डेक्स्": 6325,
    "शिय": 6326,
    "▁सोफ़्ट": 6327,
    "▁पृथिव्य": 6328,
    "न्यङ्क": 6329,
    "थाल": 6330,
    "cap": 6331,
    "▁कण्डी": 6332,
    "क्वल्": 6333,
    "ology": 6334,
    "िरू": 6335,
    "HRD": 6336,
    "uct": 6337,
    "▁सेमिकोल": 6338,
    "देकं": 6339,
    "ok": 6340,
    "ण्टेक्स्": 6341,
    "▁श्लो": 6342,
    "द्मः": 6343,
    "▁Calcul": 6344,
    "▁नुत्त": 6345,
    "ृणो": 6346,
    "त्स्": 6347,
    "▁ड्रोप": 6348,
    "▁सेमिक": 6349,
    "द्घ": 6350,
    "मित्तं": 6351,
    "ानीं": 6352,
    "▁मस्ति": 6353,
    "▁पाठाग": 6354,
    "▁अवसर्": 6355,
    "प्रच्छ": 6356,
    "▁द्यो": 6357
  },
  "merges": [
    [
      "्",
      "य"
    ],
    [
      "्",
      "त"
    ],
    [
      "्",
      "र"
    ],
    [
      "्",
      "व"
    ],
    [
      "ा",
      "न"
    ],
    [
      "त",
      "ि"
    ],
    [
      "र",
      "्"
    ],
    [
      "न",
      "्त"
    ],
    [
      "म",
      "्"
    ],
    [
      "स",
      "्"
    ],
    [
      "स",
      "्य"
    ],
    [
      "ि",
      "त"
    ],
    [
      "▁प",
      "्र"
    ],
    [
      "क",
      "्"
    ],
    [
      "त",
      "्"
    ],
    [
      "न",
      "्"
    ],
    [
      "ा",
      "ं"
    ],
    [
      "ा",
      "म"
    ],
    [
      "\"",
      "\""
    ],
    [
      "▁इ",
      "त"
    ],
    [
      "ा",
      "र"
    ],
    [
      "ष",
      "्"
    ],
    [
      "स",
      "्त"
    ],
    [
      "त",
      "े"
    ],
    [
      "▁भ",
      "व"
    ],
    [
      "▁\"",
      "\"\""
    ],
    [
      "म",
      "ा"
    ],
    [
      "न्त",
      "ु"
    ],
    [
      "▁व",
      "ि"
    ],
    [
      "्",
      "च"
    ],
    [
      "थ",
      "ा"
    ],
    [
      "्व",
      "ा"
    ],
    [
      "ा",
      "य"
    ],
    [
      "र",
      "ि"
    ],
    [
      "▁इत",
      "्य"
    ],
    [
      "प",
      "ि"
    ],
    [
      "त",
      "्र"
    ],
    [
      "ान",
      "्"
    ],
    [
      "क्",
      "ष"
    ],
    [
      "ि",
      "क"
    ],
    [
      "न",
      "ा"
    ],
    [
      "▁इ",
      "ति"
    ],
    [
      "द",
      "्"
    ],
    [
      "▁क",
      "र"
    ],
    [
      "म",
      "ि"
    ],
    [
      "ल",
      "्"
    ],
    [
      "ङ",
      "्"
    ],
    [
      "्य",
      "ा"
    ],
    [
      "य",
      "ं"
    ],
    [
      "र",
      "्व"
    ],
    [
      "ु",
      "ं"
    ],
    [
      "ट",
      "्"
    ],
    [
      "े",
      "न"
    ],
    [
      "ान",
      "ि"
    ],
    [
      "द",
      "ं"
    ],
    [
      "्य",
      "े"
    ],
    [
      "▁स",
      "्"
    ],
    [
      "य",
      "ा"
    ],
    [
      "न्त",
      "ि"
    ],
    [
      "▁उ",
      "प"
    ],
    [
      "▁क",
      "ि"
    ],
    [
      "e",
      "r"
    ],
    [
      "ृ",
      "त"
    ],
    [
      "ष्",
      "ट"
    ],
    [
      "क",
      "्त"
    ],
    [
      "य",
      "ो"
    ],
    [
      "स्त",
      "ि"
    ],
    [
      "▁न",
      "ि"
    ],
    [
      "ा",
      "ल"
    ],
    [
      "श",
      "्य"
    ],
    [
      "त",
      "ा"
    ],
    [
      "क",
      "ं"
    ],
    [
      "े",
      "ष"
    ],
    [
      "र",
      "्त"
    ],
    [
      "द",
      "ा"
    ],
    [
      "ञ",
      "्च"
    ],
    [
      "ु",
      "द"
    ],
    [
      "ा",
      "प"
    ],
    [
      "ण",
      "्"
    ],
    [
      "▁क",
      "ु"
    ],
    [
      "ध",
      "्ये"
    ],
    [
      "▁इत",
      "ी"
    ],
    [
      "n",
      "t"
    ],
    [
      "▁त",
      "था"
    ],
    [
      "न",
      "ु"
    ],
    [
      "े",
      "श"
    ],
    [
      "श",
      "्च"
    ],
    [
      "र्",
      "थ"
    ],
    [
      "व",
      "ा"
    ],
    [
      "न",
      "ं"
    ],
    [
      "च",
      "्"
    ],
    [
      "स्",
      "मा"
    ],
    [
      "त",
      "ः"
    ],
    [
      "त",
      "ु"
    ],
    [
      "च्",
      "छ"
    ],
    [
      "क",
      "ा"
    ],
    [
      "ह",
      "ं"
    ],
    [
      "▁अ",
      "ध"
    ],
    [
      "म",
      "े"
    ],
    [
      "i",
      "n"
    ],
    [
      "ड",
      "्"
    ],
    [
      "र",
      "ं"
    ],
    [
      "▁स",
      "्व"
    ],
    [
      "▁म",
      "ध्ये"
    ],
    [
      "▁इत्य",
      "स्य"
    ],
    [
      "्य",
      "ं"
    ],
    [
      "▁स",
      "म"
    ],
    [
      "व",
      "ि"
    ],
    [
      "द",
      "ि"
    ],
    [
      "▁अ",
      "पि"
    ],
    [
      "ी",
      "य"
    ],
    [
      "▁व",
      "यं"
    ],
    [
      "ष",
      "्य"
    ],
    [
      "▁क",
      "ो"
    ],
    [
      "▁न",
      "ुद"
    ],
    [
      "o",
      "r"
    ],
    [
      "स्",
      "मि"
    ],
    [
      "्",
      "ञ"
    ],
    [
      "े",
      "त"
    ],
    [
      "भ",
      "ि"
    ],
    [
      "▁इती",
      "दं"
    ],
    [
      "ा",
      "त"
    ],
    [
      "ाम",
      "ि"
    ],
    [
      "न",
      "ि"
    ],
    [
      "र",
      "ण"
    ],
    [
      "e",
      "s"
    ],
    [
      "य",
      "ित"
    ],
    [
      "न",
      "ो"
    ],
    [
      "प",
      "्र"
    ],
    [
      "▁य",
      "ु"
    ],
    [
      "▁प",
      "ा"
    ],
    [
      "▁\"",
      "अ"
    ],
    [
      "ा",
      "ः"
    ],
    [
      "ङ्",
      "क"
    ],
    [
      "▁प",
      "ु"
    ],
    [
      "्",
      "ल"
    ],
    [
      "a",
      "t"
    ],
    [
      "्र",
      "ि"
    ],
    [
      "▁प",
      "र"
    ],
    [
      "य",
      "ु"
    ],
    [
      "न",
      "े"
    ],
    [
      "▁भव",
      "ति"
    ],
    [
      "▁स",
      "र्व"
    ],
    [
      "भ",
      "्य"
    ],
    [
      "र्",
      "ण"
    ],
    [
      "o",
      "n"
    ],
    [
      "ह",
      "ि"
    ],
    [
      "▁स",
      "ं"
    ],
    [
      "▁कर",
      "ो"
    ],
    [
      "ु",
      "ना"
    ],
    [
      ".",
      "."
    ],
    [
      "र",
      "े"
    ],
    [
      "श",
      "्व"
    ],
    [
      "▁प",
      "रि"
    ],
    [
      "ाम",
      "ः"
    ],
    [
      "द",
      "्य"
    ],
    [
      "ान",
      "ां"
    ],
    [
      "ा",
      "ग"
    ],
    [
      "a",
      "l"
    ],
    [
      "▁अ",
      "स्ति"
    ],
    [
      "न्त",
      "ः"
    ],
    [
      "ा",
      "व"
    ],
    [
      "▁क",
      "े"
    ],
    [
      "त",
      "्त"
    ],
    [
      "l",
      "e"
    ],
    [
      "े",
      "ं"
    ],
    [
      "म",
      "ः"
    ],
    [
      "▁प्र",
      "ति"
    ],
    [
      "ा",
      "ण"
    ],
    [
      "म",
      "ान"
    ],
    [
      "य",
      "ति"
    ],
    [
      "य",
      "े"
    ],
    [
      "द्",
      "ध"
    ],
    [
      "▁क",
      "थ"
    ],
    [
      "ा",
      ":"
    ],
    [
      "व",
      "ान्"
    ],
    [
      "स्मि",
      "न्"
    ],
    [
      "▁अ",
      "न"
    ],
    [
      "▁नुद",
      "न्तु"
    ],
    [
      "▁प्र",
      "ाप"
    ],
    [
      "▁प",
      "श्य"
    ],
    [
      "▁श",
      "क्"
    ],
    [
      "▁कर",
      "्त"
    ],
    [
      "स्",
      "थ"
    ],
    [
      "ू",
      "प"
    ],
    [
      "▁स",
      "ा"
    ],
    [
      "ा",
      "त्"
    ],
    [
      "a",
      "r"
    ],
    [
      "ो",
      "क"
    ],
    [
      "▁ए",
      "त"
    ],
    [
      "ा",
      "स"
    ],
    [
      "त",
      "्य"
    ],
    [
      "क",
      "ार"
    ],
    [
      "▁द",
      "ृ"
    ],
    [
      "▁यु",
      "ष्"
    ],
    [
      "▁ए",
      "क"
    ],
    [
      "ा",
      "द"
    ],
    [
      "र",
      "ी"
    ],
    [
      "ित",
      "्र"
    ],
    [
      "त",
      "ो"
    ],
    [
      "▁क",
      "ृत"
    ],
    [
      "ण्",
      "ड"
    ],
    [
      "e",
      "n"
    ],
    [
      "a",
      "c"
    ],
    [
      "▁त",
      "स्य"
    ],
    [
      "ब",
      "्"
    ],
    [
      "द",
      "ेश"
    ],
    [
      "ि",
      "ष्य"
    ],
    [
      "त",
      "्वा"
    ],
    [
      "ो",
      "प"
    ],
    [
      "▁अ",
      "हं"
    ],
    [
      "▁अ",
      "प"
    ],
    [
      "ा",
      "म्"
    ],
    [
      "्य",
      "ते"
    ],
    [
      "ङ्",
      "ग"
    ],
    [
      "▁ह",
      "ै"
    ],
    [
      "ान",
      "ी"
    ],
    [
      "▁व",
      "र्त"
    ],
    [
      "▁स",
      "े"
    ],
    [
      "र्",
      "श"
    ],
    [
      "▁य",
      "ो"
    ],
    [
      "▁अ",
      "स्मा"
    ],
    [
      "ष्",
      "ठ"
    ],
    [
      "▁ट",
      "ङ्क"
    ],
    [
      "े",
      "ण"
    ],
    [
      "▁कु",
      "र्व"
    ],
    [
      "▁क",
      "ी"
    ],
    [
      "▁ज",
      "्ञ"
    ],
    [
      "ग",
      "्र"
    ],
    [
      "▁व",
      "ा"
    ],
    [
      "▁स",
      "ह"
    ],
    [
      "ित",
      "ं"
    ],
    [
      "व",
      "र्त"
    ],
    [
      "▁अ",
      "त्र"
    ],
    [
      "र्थ",
      "ं"
    ],
    [
      "स्",
      "म"
    ],
    [
      "▁ए",
      "व"
    ],
    [
      "▁प",
      "ू"
    ],
    [
      "ेष",
      "ु"
    ],
    [
      "ज",
      "न"
    ],
    [
      "▁ल",
      "ि"
    ],
    [
      "▁त",
      "द"
    ],
    [
      "a",
      "n"
    ],
    [
      "i",
      "on"
    ],
    [
      "m",
      "e"
    ],
    [
      "▁त",
      "त्"
    ],
    [
      "▁च",
      "ि"
    ],
    [
      "o",
      "u"
    ],
    [
      "य",
      "न्तु"
    ],
    [
      "▁स्",
      "थ"
    ],
    [
      "था",
      "प"
    ],
    [
      "्र",
      "ी"
    ],
    [
      "ल",
      "ि"
    ],
    [
      "र",
      "ो"
    ],
    [
      "्य",
      "ु"
    ],
    [
      "i",
      "t"
    ],
    [
      "ी",
      "श"
    ],
    [
      "▁क",
      "ृ"
    ],
    [
      "▁त",
      "े"
    ],
    [
      "▁करो",
      "ति"
    ],
    [
      "▁उप",
      "रि"
    ],
    [
      "▁इ",
      "दं"
    ],
    [
      "▁वर्त",
      "ते"
    ],
    [
      "a",
      "s"
    ],
    [
      "ी",
      "क"
    ],
    [
      "भ",
      "व"
    ],
    [
      "r",
      "o"
    ],
    [
      "r",
      "e"
    ],
    [
      "यो",
      "ग"
    ],
    [
      "ा",
      "र्"
    ],
    [
      "्व",
      "ं"
    ],
    [
      "▁शक्",
      "नु"
    ],
    [
      "in",
      "g"
    ],
    [
      "ण",
      "ं"
    ],
    [
      "▁द",
      "्व"
    ],
    [
      "स",
      "ि"
    ],
    [
      "▁अध",
      "ुना"
    ],
    [
      "▁य",
      "ू"
    ],
    [
      "प",
      "ु"
    ],
    [
      "▁कि",
      "न्तु"
    ],
    [
      "े",
      "त्"
    ],
    [
      "क्",
      "स्"
    ],
    [
      "ट",
      "र्"
    ],
    [
      "्य",
      "ू"
    ],
    [
      "स",
      "ं"
    ],
    [
      "न",
      "ः"
    ],
    [
      "▁व",
      "य"
    ],
    [
      "क",
      "े"
    ],
    [
      "▁क",
      "ार"
    ],
    [
      "▁क",
      "्ल"
    ],
    [
      "त",
      "ी"
    ],
    [
      "▁स",
      "न्ति"
    ],
    [
      "ल्",
      "प"
    ],
    [
      "र",
      "ु"
    ],
    [
      "e",
      "t"
    ],
    [
      "ज",
      "्ञ"
    ],
    [
      "▁म",
      "ह"
    ],
    [
      "त",
      "ां"
    ],
    [
      "▁पा",
      "ठ"
    ],
    [
      "न्त",
      "े"
    ],
    [
      "▁अ",
      "व"
    ],
    [
      "▁कर्त",
      "ुं"
    ],
    [
      "ान",
      "्त"
    ],
    [
      "▁नि",
      "र्"
    ],
    [
      "र",
      "स्य"
    ],
    [
      "र",
      "ूप"
    ],
    [
      "श",
      "ि"
    ],
    [
      "▁ब",
      "ाल"
    ],
    [
      "म्",
      ","
    ],
    [
      "▁परि",
      "वर्त"
    ],
    [
      "ू",
      "त"
    ],
    [
      "▁इ",
      "द"
    ],
    [
      "म्",
      "प"
    ],
    [
      "▁आ",
      "ग"
    ],
    [
      "▁सर्व",
      "्व"
    ],
    [
      "ृ",
      "ह"
    ],
    [
      "म",
      "पि"
    ],
    [
      "न्",
      "स्"
    ],
    [
      "ल",
      "ं"
    ],
    [
      "▁युष्",
      "मा"
    ],
    [
      "यित",
      "ुं"
    ],
    [
      "▁प्राप",
      "्त"
    ],
    [
      "s",
      "t"
    ],
    [
      "▁उप",
      "यु"
    ],
    [
      "\"\"",
      "\""
    ],
    [
      "ज",
      "्य"
    ],
    [
      "▁कुर्व",
      "न्तु"
    ],
    [
      "u",
      "t"
    ],
    [
      "व",
      "न्तः"
    ],
    [
      "▁ई",
      "श्व"
    ],
    [
      "ञ्च",
      "िक"
    ],
    [
      "▁वि",
      "द्य"
    ],
    [
      "ेष",
      "ां"
    ],
    [
      "▁स",
      "ू"
    ],
    [
      "ू",
      "ल"
    ],
    [
      "ः",
      ","
    ],
    [
      "▁र",
      "च"
    ],
    [
      "न्",
      "द"
    ],
    [
      "c",
      "t"
    ],
    [
      "ज",
      "्"
    ],
    [
      "र",
      "्य"
    ],
    [
      "न",
      "ां"
    ],
    [
      "ट",
      "े"
    ],
    [
      "द",
      "्व"
    ],
    [
      "▁त",
      "र्"
    ],
    [
      "्र",
      "े"
    ],
    [
      "▁य",
      "त्"
    ],
    [
      "▁अ",
      "स्य"
    ],
    [
      "▁य",
      "था"
    ],
    [
      "ण्",
      "ट्"
    ],
    [
      "▁य",
      "ीश"
    ],
    [
      "▁वि",
      "ष"
    ],
    [
      "व",
      "्य"
    ],
    [
      "▁त",
      "दा"
    ],
    [
      "भि",
      "ः"
    ],
    [
      "▁न",
      "ा"
    ],
    [
      "..",
      ".."
    ],
    [
      "▁प",
      "ृ"
    ],
    [
      "▁क",
      "ा"
    ],
    [
      "स",
      "े"
    ],
    [
      "र",
      "ा"
    ],
    [
      "प",
      "्"
    ],
    [
      "न्",
      "न"
    ],
    [
      "र्",
      "ग"
    ],
    [
      "ान",
      "ं"
    ],
    [
      "i",
      "c"
    ],
    [
      "ै",
      "व"
    ],
    [
      "▁व",
      "्य"
    ],
    [
      "ल",
      "े"
    ],
    [
      "▁उ",
      "द्"
    ],
    [
      "▁स",
      "ु"
    ],
    [
      "▁म",
      "म"
    ],
    [
      "▁आ",
      "व"
    ],
    [
      "▁औ",
      "र"
    ],
    [
      "द",
      "ृ"
    ],
    [
      "▁अ",
      "नु"
    ],
    [
      "यित",
      "्वा"
    ],
    [
      "▁स",
      "ञ्चिक"
    ],
    [
      "o",
      "l"
    ],
    [
      "न",
      "्य"
    ],
    [
      "▁तर्",
      "हि"
    ],
    [
      "▁प्र",
      "क"
    ],
    [
      "▁श",
      "ि"
    ],
    [
      "ी",
      "व"
    ],
    [
      "▁वि",
      "श"
    ],
    [
      "▁\"\"\"",
      "त"
    ],
    [
      "▁म",
      "ें"
    ],
    [
      "▁र",
      "्"
    ],
    [
      "म",
      "ं"
    ],
    [
      "▁च",
      "ित्र"
    ],
    [
      "ि",
      "ण"
    ],
    [
      "ी",
      "त"
    ],
    [
      "न्त",
      "रं"
    ],
    [
      "▁दृ",
      "ष्ट"
    ],
    [
      "ि",
      "क्"
    ],
    [
      "्रि",
      "य"
    ],
    [
      "ाय",
      "ां"
    ],
    [
      "य",
      "ामि"
    ],
    [
      "▁स्",
      "थाप"
    ],
    [
      "क",
      "ो"
    ],
    [
      "म",
      "ु"
    ],
    [
      "च",
      "ार"
    ],
    [
      "▁न",
      "ाम"
    ],
    [
      "ध",
      "ुना"
    ],
    [
      "▁कि",
      "ं"
    ],
    [
      "▁s",
      "p"
    ],
    [
      "▁म",
      "े"
    ],
    [
      "प",
      "ा"
    ],
    [
      "प",
      "े"
    ],
    [
      "म",
      "ित"
    ],
    [
      "स्म",
      "ै"
    ],
    [
      "ि",
      "ं"
    ],
    [
      "▁द",
      "र्श"
    ],
    [
      "ु",
      "म्"
    ],
    [
      "▁य",
      "दि"
    ],
    [
      "ु",
      "ः"
    ],
    [
      "ा",
      "ट"
    ],
    [
      "▁ब",
      "ह"
    ],
    [
      "ग",
      "्"
    ],
    [
      "▁लि",
      "ख"
    ],
    [
      "▁व",
      "े"
    ],
    [
      "भ",
      "ाग"
    ],
    [
      "▁यू",
      "यं"
    ],
    [
      "nt",
      "er"
    ],
    [
      "d",
      "e"
    ],
    [
      "▁कु",
      "र्"
    ],
    [
      "ह",
      "े"
    ],
    [
      "े",
      "व"
    ],
    [
      "भ्य",
      "ः"
    ],
    [
      "▁बाल",
      ":"
    ],
    [
      "▁आ",
      "स"
    ],
    [
      "▁पू",
      "र्व"
    ],
    [
      "त",
      ":"
    ],
    [
      "ण",
      "ि"
    ],
    [
      "र्",
      "ष"
    ],
    [
      "ानी",
      "ं"
    ],
    [
      "ac",
      "e"
    ],
    [
      "ते",
      "ष"
    ],
    [
      "न्",
      "ध"
    ],
    [
      "म",
      "स्ति"
    ],
    [
      "▁प्र",
      "ा"
    ],
    [
      "▁कृत",
      "्वा"
    ],
    [
      "न",
      "ी"
    ],
    [
      "▁अस्मा",
      "कं"
    ],
    [
      "ुद",
      "्र"
    ],
    [
      "मे",
      "व"
    ],
    [
      "ो",
      "ं"
    ],
    [
      "ाण",
      "ि"
    ],
    [
      "i",
      "l"
    ],
    [
      "▁प्र",
      "द"
    ],
    [
      "▁प्र",
      "ो"
    ],
    [
      "▁उद्",
      "घ"
    ],
    [
      "▁प्र",
      "भ"
    ],
    [
      "ल",
      "ोक"
    ],
    [
      "त्",
      "स"
    ],
    [
      "क",
      "्र"
    ],
    [
      "▁ग",
      "च्छ"
    ],
    [
      "ार",
      "ं"
    ],
    [
      "र्",
      "म्"
    ],
    [
      "▁कि",
      "ञ्च"
    ],
    [
      "य",
      "ाम"
    ],
    [
      "h",
      "e"
    ],
    [
      "▁भव",
      "िष्य"
    ],
    [
      "ो",
      "ऽ"
    ],
    [
      "ट्",
      "-"
    ],
    [
      "▁विद्य",
      "मान"
    ],
    [
      "ध",
      "्य"
    ],
    [
      "▁इत्य",
      "ेत"
    ],
    [
      "▁भव",
      "न्तः"
    ],
    [
      "ान",
      "ु"
    ],
    [
      "न",
      "ेन"
    ],
    [
      "ित",
      "्"
    ],
    [
      "रि",
      "य"
    ],
    [
      "ा",
      "स्य"
    ],
    [
      "▁त",
      "ं"
    ],
    [
      "o",
      "k"
    ],
    [
      "▁अन",
      "्य"
    ],
    [
      "ोप",
      "रि"
    ],
    [
      "▁अध",
      "िक"
    ],
    [
      "ब",
      "ल्"
    ],
    [
      "▁इत्य",
      "त्र"
    ],
    [
      "o",
      "t"
    ],
    [
      "a",
      "g"
    ],
    [
      "▁र",
      "ा"
    ],
    [
      "ान",
      "े"
    ],
    [
      "नो",
      "ति"
    ],
    [
      "व",
      "रण"
    ],
    [
      "प",
      "्त"
    ],
    [
      "ित",
      "वान्"
    ],
    [
      "▁द",
      "्र"
    ],
    [
      "▁श",
      "री"
    ],
    [
      "▁कुर्",
      "मः"
    ],
    [
      "च",
      "्च"
    ],
    [
      "ल",
      "ा"
    ],
    [
      "ान",
      "ा"
    ],
    [
      "भ",
      "्या"
    ],
    [
      "▁\"\"\"",
      "अ"
    ],
    [
      "त",
      "्व"
    ],
    [
      "्वा",
      "स"
    ],
    [
      "i",
      "al"
    ],
    [
      "ट",
      "ो"
    ],
    [
      "▁अ",
      "थ"
    ],
    [
      "▁अ",
      "ह"
    ],
    [
      "े",
      "क्"
    ],
    [
      "▁ए",
      "कं"
    ],
    [
      "▁ज",
      "ा"
    ],
    [
      "▁भव",
      "न्ति"
    ],
    [
      "स",
      "्व"
    ],
    [
      "▁स",
      "्त"
    ],
    [
      "▁वि",
      "क"
    ],
    [
      "म्",
      "ब"
    ],
    [
      "▁म",
      "ूल"
    ],
    [
      "▁sp",
      "ace"
    ],
    [
      "मे",
      "ण्ट्"
    ],
    [
      "क",
      "रण"
    ],
    [
      "at",
      "e"
    ],
    [
      "▁दृ",
      "श्य"
    ],
    [
      "मा",
      "ण"
    ],
    [
      "▁ह",
      "े"
    ],
    [
      "▁एत",
      "त्"
    ],
    [
      "▁भ",
      "ो"
    ],
    [
      "▁व",
      "द"
    ],
    [
      "न",
      "स्य"
    ],
    [
      "▁ग",
      "ृह"
    ],
    [
      "म",
      "ध्ये"
    ],
    [
      "▁च",
      "ेत्"
    ],
    [
      "a",
      "me"
    ],
    [
      "l",
      "o"
    ],
    [
      "ष्",
      "ण"
    ],
    [
      "ाय",
      "ा:"
    ],
    [
      "क",
      "ि"
    ],
    [
      "▁भव",
      "ान्"
    ],
    [
      "का",
      "श"
    ],
    [
      "ित",
      "ा"
    ],
    [
      "क्ष",
      "िण"
    ],
    [
      "य",
      "तु"
    ],
    [
      "च",
      "न"
    ],
    [
      "म",
      "ानि"
    ],
    [
      "▁म",
      "ा"
    ],
    [
      "r",
      "i"
    ],
    [
      "▁व",
      "ृ"
    ],
    [
      "▁भ",
      "ू"
    ],
    [
      "▁कर",
      "ण"
    ],
    [
      "▁ल",
      "ो"
    ],
    [
      "्व",
      "े"
    ],
    [
      "िक",
      "ा"
    ],
    [
      "v",
      "e"
    ],
    [
      "n",
      "d"
    ],
    [
      "▁युष्",
      "म"
    ],
    [
      "▁स",
      "ि"
    ],
    [
      "ा",
      "र्थं"
    ],
    [
      "क",
      "ृ"
    ],
    [
      "ित",
      "्वा"
    ],
    [
      "▁त",
      "्व"
    ],
    [
      "▁शक्नु",
      "मः"
    ],
    [
      "e",
      "m"
    ],
    [
      "ै",
      "ः"
    ],
    [
      "स्मा",
      "त्"
    ],
    [
      "वि",
      "ध"
    ],
    [
      "▁प",
      "श्च"
    ],
    [
      "ञ",
      "्"
    ],
    [
      "ो",
      "ष"
    ],
    [
      "ा",
      "ह"
    ],
    [
      "ित",
      "ुं"
    ],
    [
      "▁म",
      "ु"
    ],
    [
      "ख",
      "्य"
    ],
    [
      "ल",
      "ो"
    ],
    [
      "i",
      "le"
    ],
    [
      "▁उद्घ",
      "ाट"
    ],
    [
      "e",
      "d"
    ],
    [
      "स्",
      "था"
    ],
    [
      "▁ए",
      "ष"
    ],
    [
      "▁त",
      "ेषां"
    ],
    [
      "दृ",
      "श"
    ],
    [
      "▁प",
      "े"
    ],
    [
      "▁ल",
      "े"
    ],
    [
      "स",
      "ु"
    ],
    [
      "▁न",
      "ूत"
    ],
    [
      "त",
      "ं"
    ],
    [
      "▁फ",
      "़"
    ],
    [
      "▁विक",
      "ल्प"
    ],
    [
      "यो",
      "क्त"
    ],
    [
      "ि",
      "ह"
    ],
    [
      "▁श",
      "्र"
    ],
    [
      "यु",
      "क्त"
    ],
    [
      "न",
      "म्"
    ],
    [
      "▁प्राप",
      "्"
    ],
    [
      "ट",
      "ि"
    ],
    [
      "m",
      "p"
    ],
    [
      "▁पश्य",
      "ामः"
    ],
    [
      "▁र",
      "क्ष"
    ],
    [
      "s",
      "e"
    ],
    [
      "▁क्ल",
      "िक्"
    ],
    [
      "क",
      "स्य"
    ],
    [
      "टो",
      "रिय"
    ],
    [
      "य",
      "ेत"
    ],
    [
      "▁भ",
      "्र"
    ],
    [
      "यो",
      "ः"
    ],
    [
      "न",
      "्व"
    ],
    [
      "▁s",
      "t"
    ],
    [
      "क",
      "ाल"
    ],
    [
      "ाय",
      "ाः"
    ],
    [
      "▁म",
      "या"
    ],
    [
      "▁य",
      "ा"
    ],
    [
      "ता",
      "म्"
    ],
    [
      "▁फ",
      "ल"
    ],
    [
      "न्त",
      ":"
    ],
    [
      "क",
      "ृत"
    ],
    [
      "▁त",
      "त्र"
    ],
    [
      "्री",
      "ष्ट"
    ],
    [
      "▁अथ",
      "वा"
    ],
    [
      "▁स",
      "र"
    ],
    [
      ":",
      ","
    ],
    [
      "▁करो",
      "मि"
    ],
    [
      "क",
      "म्"
    ],
    [
      "▁एव",
      "ं"
    ],
    [
      "▁युष्मा",
      "कं"
    ],
    [
      "▁कृ",
      "ते"
    ],
    [
      "▁क",
      "्"
    ],
    [
      "्रि",
      "या"
    ],
    [
      "न्त",
      "्र"
    ],
    [
      "▁ए",
      "ता"
    ],
    [
      "ार",
      "ा"
    ],
    [
      "य",
      "ामः"
    ],
    [
      "▁द",
      "ि"
    ],
    [
      "व",
      "र्ण"
    ],
    [
      "ू",
      "र्ण"
    ],
    [
      "▁अ",
      "र्"
    ],
    [
      "व",
      "न्ति"
    ],
    [
      "▁इत्य",
      "े"
    ],
    [
      "्यु",
      "टोरिय"
    ],
    [
      "▁प्र",
      "त"
    ],
    [
      "▁त",
      "ेन"
    ],
    [
      "र",
      "म्"
    ],
    [
      "प",
      "रि"
    ],
    [
      "▁उपयु",
      "ज्य"
    ],
    [
      "▁प्र",
      "थ"
    ],
    [
      "▁क्",
      "ष"
    ],
    [
      "ङ्ग",
      "्"
    ],
    [
      "▁उ",
      "त्त"
    ],
    [
      "ा",
      "ध"
    ],
    [
      "ृत",
      "्त"
    ],
    [
      "▁म",
      "ुद्र"
    ],
    [
      "▁t",
      "o"
    ],
    [
      "▁ग",
      "त्वा"
    ],
    [
      "▁य",
      "त"
    ],
    [
      "i",
      "s"
    ],
    [
      "▁आग",
      "च्छ"
    ],
    [
      "व",
      "े"
    ],
    [
      "▁स",
      "्वा"
    ],
    [
      "ि",
      "र"
    ],
    [
      ",",
      "\""
    ],
    [
      "or",
      "ial"
    ],
    [
      "at",
      "ion"
    ],
    [
      "▁कथ",
      "ं"
    ],
    [
      "भ्या",
      "स"
    ],
    [
      "▁\"",
      "इ"
    ],
    [
      "वा",
      "द"
    ],
    [
      "ी",
      "ल्"
    ],
    [
      "्युटोरिय",
      "ल्"
    ],
    [
      "▁सम",
      "ी"
    ],
    [
      "▁य",
      "तो"
    ],
    [
      "▁पु",
      "न"
    ],
    [
      "ut",
      "orial"
    ],
    [
      "▁ग",
      "्र"
    ],
    [
      "क्",
      "स"
    ],
    [
      "▁पश्य",
      "न्तु"
    ],
    [
      "त",
      "या"
    ],
    [
      "र्म्",
      "म"
    ],
    [
      "स",
      "ार"
    ],
    [
      "ष्ट",
      "ुं"
    ],
    [
      "▁य",
      "े"
    ],
    [
      "▁आ",
      "प"
    ],
    [
      "▁य",
      "दा"
    ],
    [
      "ु",
      "त्वा"
    ],
    [
      "▁टङ्क",
      "यन्तु"
    ],
    [
      "▁इती",
      "द"
    ],
    [
      "▁सू",
      "च"
    ],
    [
      "मि",
      "ति"
    ],
    [
      "ी",
      "ं"
    ],
    [
      "स",
      "र्"
    ],
    [
      "ित",
      "व"
    ],
    [
      "▁स्",
      "म"
    ],
    [
      "ड",
      "ि"
    ],
    [
      "▁व्य",
      "व"
    ],
    [
      "▁स",
      "म्प"
    ],
    [
      "नो",
      "मि"
    ],
    [
      "ै",
      ":"
    ],
    [
      "u",
      "r"
    ],
    [
      "ी",
      "न"
    ],
    [
      "a",
      "b"
    ],
    [
      "a",
      "y"
    ],
    [
      "स",
      "म"
    ],
    [
      "▁दृश्य",
      "ते"
    ],
    [
      "▁व",
      "र्ण"
    ],
    [
      "s",
      "er"
    ],
    [
      "x",
      "t"
    ],
    [
      "ok",
      "en"
    ],
    [
      "▁स",
      "ाम"
    ],
    [
      "▁त",
      "्वं"
    ],
    [
      "ु",
      "म"
    ],
    [
      "c",
      "h"
    ],
    [
      "द",
      "्र"
    ],
    [
      "▁क",
      "्र"
    ],
    [
      "l",
      "as"
    ],
    [
      "▁\"",
      "ए"
    ],
    [
      "▁ट",
      "े"
    ],
    [
      "क्त",
      "ि"
    ],
    [
      "स्",
      "प"
    ],
    [
      "▁उ",
      "त्"
    ],
    [
      "▁र",
      "े"
    ],
    [
      "▁द",
      "क्षिण"
    ],
    [
      "▁वय",
      "म्"
    ],
    [
      "▁शक्",
      "नोति"
    ],
    [
      "क्ष",
      "्य"
    ],
    [
      "▁यीश",
      "ु"
    ],
    [
      "▁इत्य",
      "स्मै"
    ],
    [
      "भ",
      "ा"
    ],
    [
      ",",
      "\"\"\""
    ],
    [
      "्त",
      "ं"
    ],
    [
      "e",
      "l"
    ],
    [
      "भ",
      "ू"
    ],
    [
      "क्ष",
      "ण"
    ],
    [
      "▁त",
      "तः"
    ],
    [
      "ील्",
      "ड्"
    ],
    [
      "पा",
      "ठ"
    ],
    [
      "ध",
      "ार"
    ],
    [
      "ी",
      "त्"
    ],
    [
      "▁\"अ",
      "धुना"
    ],
    [
      "ी",
      "ल"
    ],
    [
      "u",
      "m"
    ],
    [
      "क्ष",
      "े"
    ],
    [
      "▁यो",
      "ज"
    ],
    [
      "▁E",
      "nter"
    ],
    [
      "▁ज्ञ",
      "ात"
    ],
    [
      "▁\"",
      "\""
    ],
    [
      "▁अ",
      "तः"
    ],
    [
      "ाण",
      "ां"
    ],
    [
      "▁श",
      "क"
    ],
    [
      "▁ग",
      "ु"
    ],
    [
      "स्त",
      "्र"
    ],
    [
      "▁ट",
      "्युटोरियल्"
    ],
    [
      "रि",
      "ये"
    ],
    [
      "र",
      "्या"
    ],
    [
      "स्त",
      "े"
    ],
    [
      "▁नुद",
      "तु"
    ],
    [
      "▁स",
      "मा"
    ],
    [
      "▁स्",
      "प"
    ],
    [
      "तेष",
      "ां"
    ],
    [
      "व",
      "द"
    ],
    [
      "फ",
      "़"
    ],
    [
      "▁भव",
      "तां"
    ],
    [
      "▁ज",
      "न"
    ],
    [
      "▁i",
      "n"
    ],
    [
      "y",
      "p"
    ],
    [
      "▁विष",
      "ये"
    ],
    [
      "▁\"\"\"",
      "य"
    ],
    [
      "ज",
      "ा"
    ],
    [
      "▁उप",
      "योक्त"
    ],
    [
      "▁प",
      "ित"
    ],
    [
      "ि",
      "ष्ठ"
    ],
    [
      "▁अ",
      "स्मिन्"
    ],
    [
      "रिये",
      "बल्"
    ],
    [
      "यो",
      "ज"
    ],
    [
      "े",
      "ऽ"
    ],
    [
      "▁स",
      "म्"
    ],
    [
      "▁स",
      "न्"
    ],
    [
      "▁प्रद",
      "र्श"
    ],
    [
      "▁मध्ये",
      ","
    ],
    [
      "र्",
      "ड्"
    ],
    [
      "ग",
      "त"
    ],
    [
      "क",
      "र"
    ],
    [
      "▁मे",
      "थ"
    ],
    [
      "▁शक्नु",
      "वन्ति"
    ],
    [
      "▁ज",
      "ीव"
    ],
    [
      "▁ल",
      "ोक"
    ],
    [
      "ज",
      "ेक्"
    ],
    [
      "ag",
      "e"
    ],
    [
      "me",
      "nt"
    ],
    [
      "ा",
      "स्"
    ],
    [
      "▁आव",
      "श्य"
    ],
    [
      "म",
      ":"
    ],
    [
      "▁पु",
      "नः"
    ],
    [
      "▁य",
      "स्य"
    ],
    [
      "▁इद",
      "ानीं"
    ],
    [
      "प",
      "र"
    ],
    [
      "क",
      "ः"
    ],
    [
      "थ",
      "ि"
    ],
    [
      "श",
      "्र"
    ],
    [
      "ान",
      "्य"
    ],
    [
      "o",
      "d"
    ],
    [
      "▁सम",
      "्य"
    ],
    [
      "▁व",
      "्या"
    ],
    [
      "▁\"अ",
      "त्र"
    ],
    [
      "▁ना",
      "स्ति"
    ],
    [
      "स्त",
      "ु"
    ],
    [
      "es",
      "t"
    ],
    [
      "रूप",
      "ेण"
    ],
    [
      "▁द",
      "त्त"
    ],
    [
      "▁चि",
      "न्व"
    ],
    [
      "c",
      "c"
    ],
    [
      "o",
      "g"
    ],
    [
      "▁द",
      "ू"
    ],
    [
      "u",
      "l"
    ],
    [
      "▁ह",
      "ो"
    ],
    [
      "▁पा",
      "द"
    ],
    [
      "ण्",
      "ड्"
    ],
    [
      "ै",
      "ल्"
    ],
    [
      "▁र",
      "ूप"
    ],
    [
      "ख",
      "्या"
    ],
    [
      "ो",
      "ध"
    ],
    [
      "▁अस्मा",
      "भिः"
    ],
    [
      "▁आ",
      "र"
    ],
    [
      "▁म",
      "ि"
    ],
    [
      "तः",
      ","
    ],
    [
      "ष",
      "ु"
    ],
    [
      "्",
      "-"
    ],
    [
      "य",
      "त"
    ],
    [
      "c",
      "e"
    ],
    [
      "o",
      "p"
    ],
    [
      "▁नि",
      "ष्"
    ],
    [
      "▁यो",
      "ग"
    ],
    [
      "▁अ",
      "भ्यास"
    ],
    [
      "a",
      "d"
    ],
    [
      "ou",
      "r"
    ],
    [
      "ा",
      "द्"
    ],
    [
      "▁आ",
      "देश"
    ],
    [
      "श",
      "्"
    ],
    [
      "का",
      "स"
    ],
    [
      "ो",
      "च"
    ],
    [
      "▁चिन्व",
      "न्तु"
    ],
    [
      "i",
      "g"
    ],
    [
      "▁द्र",
      "ष्टुं"
    ],
    [
      "श",
      "ाल"
    ],
    [
      "▁के",
      "व"
    ],
    [
      "▁उप",
      "योग"
    ],
    [
      "▁बह",
      "ु"
    ],
    [
      "▁य",
      "ाव"
    ],
    [
      "न्स्",
      "ट"
    ],
    [
      "ह",
      "रण"
    ],
    [
      "ou",
      "nt"
    ],
    [
      "▁वे",
      "रियेबल्"
    ],
    [
      "ृत",
      "्य"
    ],
    [
      "त्",
      "म"
    ],
    [
      "▁ईश्व",
      "र"
    ],
    [
      "ा",
      "र्थ"
    ],
    [
      "ाम",
      ":"
    ],
    [
      "▁वा",
      "क"
    ],
    [
      "न",
      "न्तरं"
    ],
    [
      "▁ज्ञ",
      "ास्य"
    ],
    [
      "▁व",
      "ाम"
    ],
    [
      "ि",
      "ति"
    ],
    [
      "ित",
      "म्"
    ],
    [
      "▁द",
      "ु"
    ],
    [
      "क",
      ":"
    ],
    [
      "ध",
      "िक"
    ],
    [
      "▁वय",
      "म"
    ],
    [
      "▁प्र",
      "त्य"
    ],
    [
      "ह",
      "्"
    ],
    [
      "▁\"",
      "त"
    ],
    [
      "e",
      "ct"
    ],
    [
      "न",
      "ाय"
    ],
    [
      "▁प",
      "ठ"
    ],
    [
      "त्र",
      "ं"
    ],
    [
      "▁टङ्क",
      "यित्वा"
    ],
    [
      "ौ",
      "न्"
    ],
    [
      "ण",
      "ां"
    ],
    [
      "▁प्र",
      "े"
    ],
    [
      "▁म",
      "ार्"
    ],
    [
      "य",
      "म्"
    ],
    [
      "e",
      "w"
    ],
    [
      "▁म",
      "नु"
    ],
    [
      "ो",
      "ल्"
    ],
    [
      "▁पश्च",
      "ात्"
    ],
    [
      "▁S",
      "t"
    ],
    [
      "▁भव",
      "द्"
    ],
    [
      "र्",
      "प"
    ],
    [
      "▁\"",
      "प"
    ],
    [
      "o",
      "w"
    ],
    [
      "▁युष्म",
      "ान्"
    ],
    [
      "▁वृ",
      "क्ष"
    ],
    [
      "▁भविष्य",
      "ति"
    ],
    [
      "ेश",
      "्व"
    ],
    [
      "▁मेथ",
      "ड्"
    ],
    [
      "दा",
      "हरण"
    ],
    [
      "p",
      "t"
    ],
    [
      "द",
      "ी"
    ],
    [
      "....",
      "...."
    ],
    [
      "ध",
      "ि"
    ],
    [
      "▁ख",
      "्रीष्ट"
    ],
    [
      "▁न",
      "े"
    ],
    [
      "य",
      "त्"
    ],
    [
      "▁क",
      "्रिय"
    ],
    [
      "▁\"",
      "व"
    ],
    [
      "स",
      "ू"
    ],
    [
      "स",
      "ा"
    ],
    [
      "य",
      "िष्य"
    ],
    [
      "▁प्र",
      "काश"
    ],
    [
      "▁ब",
      "हि"
    ],
    [
      "▁प",
      "ि"
    ],
    [
      "ो",
      "ग"
    ],
    [
      "▁कु",
      "र्या"
    ],
    [
      "▁भ",
      "ार"
    ],
    [
      "ी",
      "ति"
    ],
    [
      "▁इती",
      "मानि"
    ],
    [
      "ज्",
      "ज"
    ],
    [
      "▁ज",
      "ान"
    ],
    [
      "य",
      "म"
    ],
    [
      "न",
      "ल्"
    ],
    [
      "ो",
      "र्"
    ],
    [
      "▁क",
      "श्च"
    ],
    [
      "ञ्",
      "ज"
    ],
    [
      "▁कार",
      "्य"
    ],
    [
      "-",
      "-"
    ],
    [
      "er",
      "s"
    ],
    [
      "▁ए",
      "ते"
    ],
    [
      "क",
      "ान्"
    ],
    [
      "ेश",
      "न्"
    ],
    [
      "ल",
      "ै"
    ],
    [
      "▁भव",
      "ेत्"
    ],
    [
      "▁म",
      "ेन"
    ],
    [
      "▁अह",
      "म्"
    ],
    [
      "ङ्",
      "क्"
    ],
    [
      "▁क्ल",
      "ास्"
    ],
    [
      "▁न",
      "ुत्वा"
    ],
    [
      "व",
      "ित्र"
    ],
    [
      "न",
      "ानि"
    ],
    [
      "स्",
      "थाप"
    ],
    [
      "es",
      "s"
    ],
    [
      "द्ध",
      "ं"
    ],
    [
      "ा",
      "त्र"
    ],
    [
      "-",
      "मध्ये"
    ],
    [
      "▁श",
      "्व"
    ],
    [
      "d",
      "d"
    ],
    [
      "र",
      "ित"
    ],
    [
      "▁विद्यमान",
      "ं"
    ],
    [
      "▁है",
      "ं"
    ],
    [
      "न्त",
      "ं"
    ],
    [
      "▁ज",
      "ग"
    ],
    [
      "य",
      ":"
    ],
    [
      "ac",
      "k"
    ],
    [
      "u",
      "s"
    ],
    [
      "▁सर",
      "्वा"
    ],
    [
      "मित",
      "्तं"
    ],
    [
      "▁इत्येत",
      "त्"
    ],
    [
      "▁त",
      "थ"
    ],
    [
      "▁स",
      "ङ्"
    ],
    [
      "p",
      "oken"
    ],
    [
      "▁कर",
      "ें"
    ],
    [
      "▁वि",
      "वरण"
    ],
    [
      "द",
      "े"
    ],
    [
      "ह",
      "ा"
    ],
    [
      "स्",
      "ट"
    ],
    [
      "ो",
      "ल"
    ],
    [
      "ो",
      "ः"
    ],
    [
      "▁पु",
      "त्र"
    ],
    [
      "▁म",
      "ू"
    ],
    [
      "▁ब",
      "्र"
    ],
    [
      "▁श",
      "्वास"
    ],
    [
      "वि",
      "श"
    ],
    [
      "▁प्रो",
      "ग्र"
    ],
    [
      "▁करो",
      "तु"
    ],
    [
      "m",
      "in"
    ],
    [
      "ोक",
      "न्"
    ],
    [
      "▁त",
      "ु"
    ],
    [
      "च",
      "ि"
    ],
    [
      "्या",
      "ः"
    ],
    [
      "▁लो",
      "का"
    ],
    [
      "▁ईश्व",
      "रस्य"
    ],
    [
      "ां",
      "श"
    ],
    [
      "क",
      "ु"
    ],
    [
      "p",
      "l"
    ],
    [
      "▁श",
      "ु"
    ],
    [
      "t",
      "r"
    ],
    [
      "जेक्",
      "ट्"
    ],
    [
      "िह",
      "ू"
    ],
    [
      "ाय",
      "ा"
    ],
    [
      "य",
      "ः"
    ],
    [
      "ङ्",
      "क्त"
    ],
    [
      "र्",
      "ध"
    ],
    [
      "▁त",
      "िष्ठ"
    ],
    [
      "▁ब",
      "ु"
    ],
    [
      "▁त",
      "व"
    ],
    [
      "▁अ",
      "ग"
    ],
    [
      "▁आ",
      "न"
    ],
    [
      "▁स्",
      "टे"
    ],
    [
      "दा",
      "ति"
    ],
    [
      "े",
      ","
    ],
    [
      "▁शक",
      "्यते"
    ],
    [
      "स्मा",
      "कं"
    ],
    [
      "▁दृष्ट",
      "ुं"
    ],
    [
      "च",
      "ित"
    ],
    [
      "▁म",
      "ां"
    ],
    [
      "म",
      "ो"
    ],
    [
      "ण्ड",
      "ं"
    ],
    [
      "▁कार",
      "्यं"
    ],
    [
      "ष्ट",
      "ं"
    ],
    [
      "▁सा",
      "ध"
    ],
    [
      "ाद",
      "ृ"
    ],
    [
      "व",
      "ार"
    ],
    [
      "भि",
      ":"
    ],
    [
      "फ",
      "ल"
    ],
    [
      "रि",
      "ष्य"
    ],
    [
      "▁सं",
      "योज"
    ],
    [
      "▁इत्यस्य",
      "ोपरि"
    ],
    [
      "q",
      "u"
    ],
    [
      "▁त",
      "स्मिन्"
    ],
    [
      "▁ज्ञास्य",
      "ामः"
    ],
    [
      "य",
      "ि"
    ],
    [
      "a",
      "il"
    ],
    [
      "मि",
      "दं"
    ],
    [
      "o",
      "m"
    ],
    [
      "▁प्रथ",
      "म"
    ],
    [
      "ै",
      "ल"
    ],
    [
      "▁शरी",
      "र"
    ],
    [
      "i",
      "b"
    ],
    [
      "-",
      "ब"
    ],
    [
      "▁की",
      "ल"
    ],
    [
      "▁भ",
      "ाग"
    ],
    [
      "▁र",
      "ख"
    ],
    [
      "▁ज",
      "ाय"
    ],
    [
      "क",
      "ी"
    ],
    [
      "श",
      "ा"
    ],
    [
      "न",
      "म"
    ],
    [
      "▁न",
      "्यू"
    ],
    [
      "व",
      "ं"
    ],
    [
      "o",
      "nt"
    ],
    [
      "ौ",
      "ल"
    ],
    [
      "▁प्रदर्श",
      "यति"
    ],
    [
      "▁कृ",
      "ष्ण"
    ],
    [
      "▁म",
      "ान"
    ],
    [
      "▁को",
      "ड्"
    ],
    [
      "▁ज",
      "ात"
    ],
    [
      "▁प",
      "वित्र"
    ],
    [
      "▁इत्य",
      "नेन"
    ],
    [
      "च्छ",
      "ति"
    ],
    [
      "▁किञ्च",
      "न"
    ],
    [
      "▁प्र",
      "योग"
    ],
    [
      "▁स",
      "ी"
    ],
    [
      "▁क",
      "दा"
    ],
    [
      "▁a",
      "nd"
    ],
    [
      "र्",
      "स्"
    ],
    [
      "▁त",
      "द्"
    ],
    [
      "▁पर",
      "ी"
    ],
    [
      "न",
      "ाम"
    ],
    [
      "ो",
      "क्स्"
    ],
    [
      "स",
      "्र"
    ],
    [
      "्व",
      "ि"
    ],
    [
      "स्मि",
      "न"
    ],
    [
      "क्स",
      "िक"
    ],
    [
      "0",
      "0"
    ],
    [
      "▁प्रत",
      "्ये"
    ],
    [
      "▁ज",
      "ाल"
    ],
    [
      "▁अध",
      "ः"
    ],
    [
      "▁ध",
      "्य"
    ],
    [
      "ाय",
      "ाम"
    ],
    [
      "त्",
      ","
    ],
    [
      "▁प्रक",
      "ट"
    ],
    [
      "र",
      "ः"
    ],
    [
      "▁य",
      "ः"
    ],
    [
      "▁प्र",
      "ाण"
    ],
    [
      "▁द",
      "े"
    ],
    [
      "ड",
      "़"
    ],
    [
      "▁त",
      "ान्"
    ],
    [
      "▁कुर्या",
      "त"
    ],
    [
      "▁प",
      "ाप"
    ],
    [
      "▁ड",
      "ि"
    ],
    [
      "▁स्व",
      "ीक"
    ],
    [
      "a",
      "ve"
    ],
    [
      "ृ",
      "ण"
    ],
    [
      "▁य",
      "िहू"
    ],
    [
      "य",
      "न्ति"
    ],
    [
      "भ्य",
      ":"
    ],
    [
      "▁विष",
      "य"
    ],
    [
      "े",
      "स्"
    ],
    [
      "▁भव",
      "न्त:"
    ],
    [
      "▁न",
      "ो"
    ],
    [
      "ं",
      "ग"
    ],
    [
      "▁करण",
      "ीय"
    ],
    [
      "▁नूत",
      "नं"
    ],
    [
      "क्सिक",
      "्यू"
    ],
    [
      "कृ",
      "ति"
    ],
    [
      "▁पाठ",
      "े"
    ],
    [
      "ल",
      "ी"
    ],
    [
      "थ",
      "ं"
    ],
    [
      "वि",
      "वरण"
    ],
    [
      "▁ह",
      "स्त"
    ],
    [
      "r",
      "a"
    ],
    [
      "क",
      "र्त"
    ],
    [
      "▁प",
      "रं"
    ],
    [
      "i",
      "st"
    ],
    [
      "भा",
      "ष"
    ],
    [
      "ु",
      "क्त"
    ],
    [
      "cc",
      "ount"
    ],
    [
      "श्व",
      "े"
    ],
    [
      "ति",
      ","
    ],
    [
      "▁प्रोग्र",
      "ाम्"
    ],
    [
      "▁स्व",
      "र्ग"
    ],
    [
      "स्य",
      "ा"
    ],
    [
      "▁ज",
      "ल"
    ],
    [
      "ज",
      "नं"
    ],
    [
      "d",
      "it"
    ],
    [
      "क",
      "ानि"
    ],
    [
      "▁कु",
      "रु"
    ],
    [
      "▁स्थ",
      "िति"
    ],
    [
      "ह",
      "ाय"
    ],
    [
      "्र",
      "ाम"
    ],
    [
      "▁भ",
      "ी"
    ],
    [
      "▁भ",
      "ि"
    ],
    [
      "▁t",
      "he"
    ],
    [
      "▁ह",
      "ि"
    ],
    [
      "▁त",
      "ः"
    ],
    [
      "▁इत्ये",
      "तेषां"
    ],
    [
      "▁क",
      "र्ष"
    ],
    [
      "▁पृ",
      "ष्ठ"
    ],
    [
      "न्",
      "म"
    ],
    [
      "▁ड",
      "्र"
    ],
    [
      "मान",
      "ं"
    ],
    [
      "▁\"अ",
      "तः,"
    ],
    [
      "▁स्",
      "ट"
    ],
    [
      "▁प्रकट",
      "यति"
    ],
    [
      "▁स",
      "त्य"
    ],
    [
      "ित",
      "ानि"
    ],
    [
      "h",
      "a"
    ],
    [
      "ित",
      "ः"
    ],
    [
      "यो",
      "जन"
    ],
    [
      "i",
      "r"
    ],
    [
      "ar",
      "y"
    ],
    [
      "▁य",
      ":"
    ],
    [
      "▁प्राप्",
      "नु"
    ],
    [
      "ित",
      "े"
    ],
    [
      "ण्",
      "ट"
    ],
    [
      "-",
      "इ"
    ],
    [
      "▁मूल",
      "्यं"
    ],
    [
      "▁म",
      "न"
    ],
    [
      "▁o",
      "f"
    ],
    [
      "▁रा",
      "ज"
    ],
    [
      "म",
      "िक"
    ],
    [
      "ी",
      "या"
    ],
    [
      "द",
      "ानीं"
    ],
    [
      "▁सा",
      "क्ष"
    ],
    [
      "गत",
      "म्"
    ],
    [
      "िर",
      "ू"
    ],
    [
      "स्मा",
      "द्"
    ],
    [
      "▁d",
      "ot"
    ],
    [
      "▁\"",
      "य"
    ],
    [
      "▁प्रा",
      "र्थ"
    ],
    [
      "▁न",
      "म"
    ],
    [
      "थ",
      "े"
    ],
    [
      "▁य",
      "ह"
    ],
    [
      "▁इतीद",
      "म्"
    ],
    [
      "▁क",
      "्री"
    ],
    [
      "▁कि",
      "मपि"
    ],
    [
      "्य",
      "म्"
    ],
    [
      "▁लि",
      "ङ्क्"
    ],
    [
      "म",
      "ां"
    ],
    [
      "▁केव",
      "लं"
    ],
    [
      "▁\"",
      "पाठ"
    ],
    [
      "▁न",
      "ाम्"
    ],
    [
      "ी",
      "ज"
    ],
    [
      "▁परी",
      "क्ष"
    ],
    [
      "▁द",
      "दाति"
    ],
    [
      "द",
      "्वा"
    ],
    [
      "▁द",
      "ोष"
    ],
    [
      "e",
      "nt"
    ],
    [
      "▁सर्व्व",
      "े"
    ],
    [
      "यो",
      "ं"
    ],
    [
      "ध",
      "ान"
    ],
    [
      "ग",
      "ण"
    ],
    [
      "रे",
      "ण"
    ],
    [
      "▁स",
      "ो"
    ],
    [
      "प",
      "ाद"
    ],
    [
      "c",
      "k"
    ],
    [
      "▁तथ",
      "ैव"
    ],
    [
      "शि",
      "ष्ट"
    ],
    [
      "▁अन",
      "न्तरं"
    ],
    [
      "व",
      "ान"
    ],
    [
      "▁कर",
      "ने"
    ],
    [
      "▁त",
      "्य"
    ],
    [
      "्या",
      ":"
    ],
    [
      "▁भो",
      "जन"
    ],
    [
      "▁ए",
      "क्सिक्यू"
    ],
    [
      "वि",
      "ष"
    ],
    [
      "▁जा",
      "ता"
    ],
    [
      "▁आ",
      "द"
    ],
    [
      "▁समी",
      "प"
    ],
    [
      "▁टङ्क",
      "यतु"
    ],
    [
      "▁ल",
      "ा"
    ],
    [
      "▁स",
      "न्त"
    ],
    [
      "▁अ",
      "भि"
    ],
    [
      "े",
      "द"
    ],
    [
      "in",
      "u"
    ],
    [
      "े",
      "क्ष"
    ],
    [
      "▁अन",
      "ेन"
    ],
    [
      "शि",
      "क्षण"
    ],
    [
      "ग्र",
      "ह"
    ],
    [
      "▁कथ",
      "ां"
    ],
    [
      "▁तद",
      "र्थं"
    ],
    [
      "▁वि",
      "ना"
    ],
    [
      "▁स्वा",
      "गतम्"
    ],
    [
      "ब्",
      "जेक्ट्"
    ],
    [
      "स",
      "ी"
    ],
    [
      "क",
      "थ"
    ],
    [
      "ान",
      "ाम्"
    ],
    [
      "काल",
      "े"
    ],
    [
      "las",
      "h"
    ],
    [
      "मा",
      "णं"
    ],
    [
      "▁अ",
      "स्म"
    ],
    [
      "▁सू",
      "र्य"
    ],
    [
      "▁निष्",
      "कास"
    ],
    [
      "tr",
      "l"
    ],
    [
      "▁उ",
      "दाहरण"
    ],
    [
      "i",
      "re"
    ],
    [
      "▁ब",
      "ि"
    ],
    [
      "न",
      "ीय"
    ],
    [
      "्ल",
      "ो"
    ],
    [
      "ङ्",
      "क्ष"
    ],
    [
      "द",
      "ीय"
    ],
    [
      "ित",
      "वन्तः"
    ],
    [
      "▁ज",
      "ानी"
    ],
    [
      "▁कृ",
      "प"
    ],
    [
      "मे",
      "कं"
    ],
    [
      "ै",
      "र"
    ],
    [
      "▁सम्प",
      "ूर्ण"
    ],
    [
      "▁कर्त",
      "्त"
    ],
    [
      "▁प्र",
      "श्"
    ],
    [
      "▁अग",
      "्रि"
    ],
    [
      "▁द्व",
      "ित"
    ],
    [
      "▁प्रभ",
      "ो"
    ],
    [
      "▁f",
      "or"
    ],
    [
      "▁प",
      "ञ्च"
    ],
    [
      "स",
      "र"
    ],
    [
      "न",
      ":"
    ],
    [
      "▁कि",
      "न्त"
    ],
    [
      "देश",
      "ं"
    ],
    [
      "र्",
      "म"
    ],
    [
      "र्",
      "च"
    ],
    [
      "▁प्र",
      "कार"
    ],
    [
      "ट",
      "िक"
    ],
    [
      "्वा",
      "सं"
    ],
    [
      "▁अ",
      "ग्र"
    ],
    [
      "▁र",
      "्य"
    ],
    [
      "▁भार",
      "त"
    ],
    [
      "▁\"अ",
      "स्मिन्"
    ],
    [
      "u",
      "b"
    ],
    [
      "म",
      "श"
    ],
    [
      "ऽ",
      "पि"
    ],
    [
      "▁इत्य",
      "ा"
    ],
    [
      "भ",
      "ाव"
    ],
    [
      "ब्",
      "ध"
    ],
    [
      "ऐ",
      "ं"
    ],
    [
      "▁1",
      "."
    ],
    [
      "▁ग",
      "ण"
    ],
    [
      "भव",
      "त्"
    ],
    [
      "त",
      "्या"
    ],
    [
      "▁च",
      "ाल"
    ],
    [
      "▁स",
      "ङ्ग"
    ],
    [
      "w",
      "k"
    ],
    [
      "▁किञ्च",
      "ित्"
    ],
    [
      "व",
      "ेश"
    ],
    [
      "▁भ्र",
      "ात"
    ],
    [
      "▁साम",
      "ान्य"
    ],
    [
      "व",
      "त्"
    ],
    [
      "b",
      "u"
    ],
    [
      "्य",
      "ानि"
    ],
    [
      "▁विश",
      "्राम"
    ],
    [
      "▁द्व",
      "ारा"
    ],
    [
      "▁पर",
      "्य"
    ],
    [
      "▁सह",
      "ाय"
    ],
    [
      "याम",
      "ास"
    ],
    [
      "द",
      "ु"
    ],
    [
      "ib",
      "r"
    ],
    [
      "व्य",
      "म्"
    ],
    [
      "र्",
      "ज"
    ],
    [
      "मु",
      "ख"
    ],
    [
      "क्",
      "टर्"
    ],
    [
      "▁च",
      "ेत"
    ],
    [
      "श",
      "ं"
    ],
    [
      "▁वि",
      "भाग"
    ],
    [
      "▁चि",
      "न्त"
    ],
    [
      "कि",
      "न्तु"
    ],
    [
      "▁आस",
      "ीत्"
    ],
    [
      "रु",
      "ष"
    ],
    [
      "र्",
      "ह"
    ],
    [
      "ी",
      "यं"
    ],
    [
      "▁ए",
      "का"
    ],
    [
      "▁प्र",
      "ेष"
    ],
    [
      "तेष",
      "ु"
    ],
    [
      "ए",
      "व"
    ],
    [
      "म्,",
      "\""
    ],
    [
      "ष्",
      "प"
    ],
    [
      "क्",
      "लि"
    ],
    [
      "क्ष",
      "र"
    ],
    [
      "▁ग",
      "ण्डं"
    ],
    [
      "▁अप",
      "रं"
    ],
    [
      ".",
      "0"
    ],
    [
      "ै",
      "न्"
    ],
    [
      "▁\"\"\"त",
      "दा"
    ],
    [
      "ान",
      "ाम"
    ],
    [
      "▁नि",
      "ज"
    ],
    [
      "मु",
      "प"
    ],
    [
      "▁सञ्चिक",
      "ां"
    ],
    [
      "a",
      "v"
    ],
    [
      "▁दर्श",
      "यति"
    ],
    [
      "▁य",
      "ेन"
    ],
    [
      "▁स",
      "ः"
    ],
    [
      "क्त",
      "ं"
    ],
    [
      "▁3",
      "."
    ],
    [
      "▁इद",
      "ानी"
    ],
    [
      "▁स्टे",
      "ट्"
    ],
    [
      "▁स्प",
      "ोकन्"
    ],
    [
      "▁सा",
      "र्"
    ],
    [
      "or",
      "t"
    ],
    [
      "um",
      "b"
    ],
    [
      "u",
      "p"
    ],
    [
      "प",
      "र्य"
    ],
    [
      "▁पा",
      "र्"
    ],
    [
      "▁टे",
      "क्स्"
    ],
    [
      "द",
      "्या"
    ],
    [
      "▁इ",
      "च्छ"
    ],
    [
      "ार",
      "ी"
    ],
    [
      "e",
      "xt"
    ],
    [
      "an",
      "d"
    ],
    [
      "य",
      "न्"
    ],
    [
      "▁वयम",
      "धुना"
    ],
    [
      "▁प्र",
      "ि"
    ],
    [
      "▁एता",
      "दृश"
    ],
    [
      "e",
      "le"
    ],
    [
      "र्त",
      "्त"
    ],
    [
      "▁ह",
      "ा"
    ],
    [
      "inu",
      "x"
    ],
    [
      "▁पश्य",
      "ाम"
    ],
    [
      "ना",
      ":"
    ],
    [
      "यित",
      "ुम्"
    ],
    [
      "ाम",
      "ी"
    ],
    [
      "▁\"अधुना",
      ","
    ],
    [
      "्य",
      "ां"
    ],
    [
      "▁छ",
      "ात्र"
    ],
    [
      "पु",
      "ट"
    ],
    [
      "म्",
      "भ"
    ],
    [
      "ण्ड",
      "ो"
    ],
    [
      "▁क्रिय",
      "ते"
    ],
    [
      "▁त",
      "्र"
    ],
    [
      "▁त",
      "ानि"
    ],
    [
      "▁च",
      "तु"
    ],
    [
      "▁ले",
      "ख"
    ],
    [
      "ास",
      "न"
    ],
    [
      "▁त",
      "त"
    ],
    [
      "▁च",
      "ित्वा"
    ],
    [
      "▁त",
      "ादृ"
    ],
    [
      "म",
      "ी"
    ],
    [
      "मि",
      "नल्"
    ],
    [
      "व",
      "ारं"
    ],
    [
      "▁मुद्र",
      "ाप"
    ],
    [
      "स",
      "र्व"
    ],
    [
      "स्त",
      "ं"
    ],
    [
      "e",
      "ar"
    ],
    [
      "▁ऐ",
      "कान्"
    ],
    [
      "h",
      "en"
    ],
    [
      "▁त",
      "तो"
    ],
    [
      "प",
      "्य"
    ],
    [
      "▁स",
      "ङ्क"
    ],
    [
      "▁वि",
      "चार"
    ],
    [
      "▁द",
      "ी"
    ],
    [
      "पु",
      "ट्"
    ],
    [
      "▁एक्सिक्यू",
      "ट्"
    ],
    [
      "▁s",
      "lash"
    ],
    [
      "▁चि",
      "नोमि"
    ],
    [
      "▁2",
      "."
    ],
    [
      "ग",
      "म"
    ],
    [
      "ात",
      "ुं"
    ],
    [
      "व",
      ":"
    ],
    [
      "ी",
      "रे"
    ],
    [
      "ट",
      "न्"
    ],
    [
      "▁क",
      "ाल"
    ],
    [
      "ाम",
      "हे"
    ],
    [
      "प",
      "ार्"
    ],
    [
      "ण",
      "ा"
    ],
    [
      "▁चेत्",
      ","
    ],
    [
      "▁नि",
      "मित्तं"
    ],
    [
      "▁त",
      "स्मात्"
    ],
    [
      "▁य",
      "द्"
    ],
    [
      "▁आवश्य",
      "क"
    ],
    [
      "दि",
      "ष्ट"
    ],
    [
      "▁ध्य",
      "ान"
    ],
    [
      "i",
      "p"
    ],
    [
      "ण",
      "े"
    ],
    [
      "स्त",
      "स्य"
    ],
    [
      "र",
      ":"
    ],
    [
      "▁अर्",
      "था"
    ],
    [
      "▁I",
      "n"
    ],
    [
      "स्य",
      "ोपरि"
    ],
    [
      "▁कुर्व",
      "न्ति"
    ],
    [
      "▁स",
      ":"
    ],
    [
      "▁r",
      "e"
    ],
    [
      "▁प",
      "ी"
    ],
    [
      "क",
      "्रिय"
    ],
    [
      "ct",
      "ion"
    ],
    [
      "▁त",
      "ाव"
    ],
    [
      "▁म",
      "ो"
    ],
    [
      "ष",
      "ि"
    ],
    [
      "▁आ",
      "ं"
    ],
    [
      "भि",
      "न्न"
    ],
    [
      "▁त",
      "ा"
    ],
    [
      "▁वि",
      "न"
    ],
    [
      "las",
      "s"
    ],
    [
      "t",
      "er"
    ],
    [
      "ट",
      "ा"
    ],
    [
      "ड",
      "ौन्"
    ],
    [
      "▁स्थ",
      "ान"
    ],
    [
      "का",
      "ः"
    ],
    [
      "▁इ",
      "स"
    ],
    [
      "▁n",
      "ame"
    ],
    [
      "▁अध",
      "ो"
    ],
    [
      "ेऽ",
      "स्मिन्"
    ],
    [
      "▁भ",
      "ा"
    ],
    [
      "▁क",
      "था"
    ],
    [
      "▁q",
      "u"
    ],
    [
      "ग",
      "ु"
    ],
    [
      "▁श",
      "ी"
    ],
    [
      "▁वि",
      "व"
    ],
    [
      "▁पृ",
      "ष्ट"
    ],
    [
      "▁य",
      "तः"
    ],
    [
      "ज्ञ",
      "ान"
    ],
    [
      "y",
      "st"
    ],
    [
      "▁श",
      "ा"
    ],
    [
      "▁प",
      "श"
    ],
    [
      "▁व",
      "ै"
    ],
    [
      "?",
      "\"\"\""
    ],
    [
      "व",
      "स"
    ],
    [
      "▁नूत",
      "न"
    ],
    [
      "▁सर्वा",
      "णि"
    ],
    [
      "्रे",
      "के"
    ],
    [
      "▁प्रक",
      "ल्प"
    ],
    [
      "न्",
      "दि"
    ],
    [
      "▁स्टेट्",
      "मेण्ट्"
    ],
    [
      "▁म",
      "ृत"
    ],
    [
      "o",
      "ok"
    ],
    [
      "ब",
      "्र"
    ],
    [
      "▁पर",
      "स्प"
    ],
    [
      "च",
      "ित्र"
    ],
    [
      "▁उप",
      "ल"
    ],
    [
      "ब्",
      "द"
    ],
    [
      "व",
      "्यं"
    ],
    [
      "▁फल",
      "ितं"
    ],
    [
      "as",
      "e"
    ],
    [
      "i",
      "es"
    ],
    [
      "ार",
      "े"
    ],
    [
      "ित",
      ":"
    ],
    [
      "ा",
      "क्स्"
    ],
    [
      "▁ल",
      "घ"
    ],
    [
      "▁स्थ",
      "ाने"
    ],
    [
      "d",
      "min"
    ],
    [
      "भव",
      "ति"
    ],
    [
      "व",
      "ां"
    ],
    [
      "ट्",
      "स्"
    ],
    [
      "▁क",
      "र्म्म"
    ],
    [
      "yp",
      "hen"
    ],
    [
      "प",
      "ूर्ण"
    ],
    [
      "ज",
      "ु"
    ],
    [
      "▁त",
      "ौ"
    ],
    [
      "वा",
      "च"
    ],
    [
      "▁भ",
      "ग"
    ],
    [
      "bu",
      "nt"
    ],
    [
      "bunt",
      "u"
    ],
    [
      "ा",
      "ल्"
    ],
    [
      "्य",
      "न्ते"
    ],
    [
      "भ्य",
      "ां"
    ],
    [
      "▁मार्",
      "ग"
    ],
    [
      "▁C",
      "trl"
    ],
    [
      "्य",
      "ो"
    ],
    [
      "▁फ",
      "ील्ड्"
    ],
    [
      "द",
      "श"
    ],
    [
      "व",
      "िक"
    ],
    [
      "or",
      "y"
    ],
    [
      "ष",
      "्या"
    ],
    [
      "-",
      "स"
    ],
    [
      "▁पू",
      "र"
    ],
    [
      "न्स्ट",
      "्र"
    ],
    [
      "ती",
      "ति"
    ],
    [
      "ग",
      "ीत"
    ],
    [
      "▁S",
      "ave"
    ],
    [
      "▁जाय",
      "ते"
    ],
    [
      "ा",
      "तु"
    ],
    [
      "▁इ",
      "न्"
    ],
    [
      "▁म",
      "ध्य"
    ],
    [
      "▁विश",
      "ेष"
    ],
    [
      "▁सम",
      "य"
    ],
    [
      "yst",
      "em"
    ],
    [
      "भ्य",
      "ो"
    ],
    [
      "▁एत",
      "ानि"
    ],
    [
      "▁अ",
      "न्त"
    ],
    [
      "▁u",
      "ser"
    ],
    [
      "▁शक्",
      "नोमि"
    ],
    [
      "o",
      "de"
    ],
    [
      "▁कृत",
      "वान्"
    ],
    [
      "▁अप",
      "र"
    ],
    [
      "▁पृ",
      "थ"
    ],
    [
      "ह",
      "म्"
    ],
    [
      "ु",
      "प"
    ],
    [
      "नि",
      "र्"
    ],
    [
      "क्",
      "ष्"
    ],
    [
      "o",
      "me"
    ],
    [
      "▁वि",
      "श्व"
    ],
    [
      "म",
      "हं"
    ],
    [
      "्र",
      "ो"
    ],
    [
      "्-",
      "डौन्"
    ],
    [
      "▁विश",
      "्वास"
    ],
    [
      "▁शि",
      "क्ष"
    ],
    [
      "▁से",
      "ट्"
    ],
    [
      "▁पू",
      "र्ण"
    ],
    [
      "▁प्रत",
      "्या"
    ],
    [
      "▁\"",
      "'"
    ],
    [
      "or",
      "g"
    ],
    [
      "सम",
      "ये"
    ],
    [
      "j",
      "ect"
    ],
    [
      "▁ज्ञ",
      "ान"
    ],
    [
      "pt",
      "ion"
    ],
    [
      "▁पु",
      "स्त"
    ],
    [
      "or",
      "d"
    ],
    [
      "च",
      "र"
    ],
    [
      "it",
      "h"
    ],
    [
      "▁ध",
      "ार"
    ],
    [
      "▁L",
      "inux"
    ],
    [
      "भ",
      "ी"
    ],
    [
      "न",
      "ग"
    ],
    [
      "▁य",
      "त्र"
    ],
    [
      "ro",
      "nt"
    ],
    [
      "▁ग",
      "ो"
    ],
    [
      "ड",
      "ी"
    ],
    [
      "ौ",
      "र"
    ],
    [
      "्या",
      "त्"
    ],
    [
      "▁क",
      "ानि"
    ],
    [
      "ू",
      "ल्"
    ],
    [
      "▁रख",
      "ें"
    ],
    [
      "i",
      "d"
    ],
    [
      "▁क",
      "रिष्य"
    ],
    [
      "न्स्ट्र",
      "क्टर्"
    ],
    [
      "▁आ",
      "ह"
    ],
    [
      "प्र",
      "कार"
    ],
    [
      "▁A",
      "dd"
    ],
    [
      "▁क",
      "ति"
    ],
    [
      ".",
      "org"
    ],
    [
      "▁द",
      "ेव"
    ],
    [
      "▁वि",
      "ण्डो"
    ],
    [
      "k",
      "s"
    ],
    [
      "ibr",
      "ary"
    ],
    [
      "▁एष",
      "ा"
    ],
    [
      "ग",
      "च्छ"
    ],
    [
      "▁य",
      "द्य"
    ],
    [
      "ज",
      "्यते"
    ],
    [
      "▁ज",
      "ी"
    ],
    [
      "▁कथ",
      "ितवान्"
    ],
    [
      "र",
      "ू"
    ],
    [
      "i",
      "f"
    ],
    [
      "श्च",
      "ात्"
    ],
    [
      "▁अ",
      "ं"
    ],
    [
      "▁क",
      "म्प"
    ],
    [
      "ि",
      ":"
    ],
    [
      "▁से",
      "व"
    ],
    [
      "▁अध",
      "स्त"
    ],
    [
      "्वे",
      "न्स्"
    ],
    [
      "▁म",
      "ृ"
    ],
    [
      "umb",
      "er"
    ],
    [
      "▁द",
      "श"
    ],
    [
      "नो",
      "तु"
    ],
    [
      "ण्",
      "टर्"
    ],
    [
      "ि",
      "प"
    ],
    [
      "▁सा",
      "थ"
    ],
    [
      "▁कि",
      "म्"
    ],
    [
      "t",
      "em"
    ],
    [
      "त",
      "ुं"
    ],
    [
      "स्य",
      ":"
    ],
    [
      "य",
      "स्य"
    ],
    [
      "in",
      "e"
    ],
    [
      "▁अप",
      "ेक्ष"
    ],
    [
      "▁अ",
      "र्थ"
    ],
    [
      "▁च",
      "य"
    ],
    [
      "▁र",
      "िक"
    ],
    [
      "यु",
      "ज्य"
    ],
    [
      "▁र",
      "न्"
    ],
    [
      "ए",
      "ं"
    ],
    [
      "ित",
      "ो"
    ],
    [
      "▁स",
      "ति"
    ],
    [
      "▁इत्य",
      "ाद"
    ],
    [
      "ना",
      "म्"
    ],
    [
      "न्तु",
      "ं"
    ],
    [
      "▁ब",
      "टन्"
    ],
    [
      "ग",
      "ृह"
    ],
    [
      "▁क",
      "्रिया"
    ],
    [
      "▁1",
      "0"
    ],
    [
      "o",
      "ha"
    ],
    [
      "▁किन्त",
      "्व"
    ],
    [
      "ृ",
      "ष्ट"
    ],
    [
      "▁भवद्",
      "भ्यः"
    ],
    [
      "स्थ",
      "ान"
    ],
    [
      "▁सं",
      "स्"
    ],
    [
      "o",
      "x"
    ],
    [
      "त्र",
      "े"
    ],
    [
      "▁F",
      "ile"
    ],
    [
      "u",
      "de"
    ],
    [
      "श",
      "न्"
    ],
    [
      "▁अ",
      "ने"
    ],
    [
      "▁अ",
      "स"
    ],
    [
      "▁भव",
      "ित"
    ],
    [
      "ुम",
      "र्ह"
    ],
    [
      "ri",
      "nt"
    ],
    [
      "M",
      "P"
    ],
    [
      "▁भू",
      "त्वा"
    ],
    [
      "▁e",
      "nter"
    ],
    [
      "ख",
      "्रीष्ट"
    ],
    [
      "▁f",
      "ile"
    ],
    [
      "▁ह",
      "ेत"
    ],
    [
      "▁इ",
      "न्स्ट"
    ],
    [
      "▁ह",
      "ु"
    ],
    [
      "▁व",
      "ार"
    ],
    [
      "▁हा",
      "थ"
    ],
    [
      "ध",
      "्वं"
    ],
    [
      "▁भ",
      "क्त"
    ],
    [
      "ज",
      "ीव"
    ],
    [
      "▁यत्",
      ","
    ],
    [
      "ात्",
      "म"
    ],
    [
      "▁इद",
      "म्"
    ],
    [
      "▁a",
      "wk"
    ],
    [
      "ac",
      "t"
    ],
    [
      "व",
      "्या"
    ],
    [
      "▁द्व",
      "े"
    ],
    [
      "▁अनु",
      "शिक्षण"
    ],
    [
      "a",
      "m"
    ],
    [
      "▁h",
      "yphen"
    ],
    [
      "n",
      "ame"
    ],
    [
      "यो",
      ":"
    ],
    [
      "▁\"इ",
      "दं"
    ],
    [
      "▁च",
      "े"
    ],
    [
      "भाग",
      "े"
    ],
    [
      "▁सञ्चिक",
      "ा"
    ],
    [
      "▁स",
      "प्त"
    ],
    [
      "l",
      "l"
    ],
    [
      "▁स्",
      "मः"
    ],
    [
      "म",
      "त्र"
    ],
    [
      "ज",
      "ात"
    ],
    [
      "▁इ",
      "व"
    ],
    [
      "ड",
      "र्"
    ],
    [
      ".",
      "1"
    ],
    [
      "ीक",
      "्वेन्स्"
    ],
    [
      "v",
      "er"
    ],
    [
      "द",
      "र्श"
    ],
    [
      "▁च",
      "ा"
    ],
    [
      "क",
      "्रि"
    ],
    [
      "व",
      "ः"
    ],
    [
      "▁विद्य",
      "ते"
    ],
    [
      "▁\"",
      "स"
    ],
    [
      "▁च",
      "ल"
    ],
    [
      "▁सा",
      "हाय"
    ],
    [
      "े",
      "भ्यः"
    ],
    [
      "ू",
      "नां"
    ],
    [
      "▁इत्य",
      "स्मात्"
    ],
    [
      "▁ओ",
      "ब्जेक्ट्"
    ],
    [
      "▁U",
      "buntu"
    ],
    [
      "भ्य",
      "ते"
    ],
    [
      "▁अ",
      "ङ्ग"
    ],
    [
      "ण",
      "स्य"
    ],
    [
      "वि",
      "ष्य"
    ],
    [
      "▁वि",
      "भिन्न"
    ],
    [
      "▁कृप",
      "या"
    ],
    [
      "▁i",
      "s"
    ],
    [
      "u",
      "n"
    ],
    [
      "▁श्व",
      "स"
    ],
    [
      "▁ग्र",
      "न्"
    ],
    [
      "त",
      "त्"
    ],
    [
      "ामि",
      ","
    ],
    [
      "स्व",
      "रूप"
    ],
    [
      "▁ड",
      "े"
    ],
    [
      "▁इ",
      "मे"
    ],
    [
      "ा",
      "ता"
    ],
    [
      "▁व",
      "स्त्र"
    ],
    [
      "ीक",
      "ृत"
    ],
    [
      "-",
      "t"
    ],
    [
      "ड",
      "े"
    ],
    [
      "▁क",
      "ेन"
    ],
    [
      "भ",
      "ो"
    ],
    [
      "▁लिख",
      "न्तु"
    ],
    [
      "ङ्क्ष",
      "न्"
    ],
    [
      "▁व",
      "र्ध"
    ],
    [
      "द्व",
      "यं"
    ],
    [
      "▁ज्ञात",
      "वन्तः"
    ],
    [
      "मि",
      "ष्य"
    ],
    [
      "▁क",
      "ू"
    ],
    [
      "्य",
      "ेन"
    ],
    [
      "ude",
      "nt"
    ],
    [
      "▁ओ",
      "र"
    ],
    [
      "▁मह",
      "ा"
    ],
    [
      "म्ब",
      "द्ध"
    ],
    [
      "च",
      "ित्"
    ],
    [
      "▁पुन",
      "र"
    ],
    [
      "▁को",
      "पि"
    ],
    [
      "ि",
      "ः"
    ],
    [
      "म",
      "प"
    ],
    [
      "▁क्री",
      "ड"
    ],
    [
      "त",
      "्वं"
    ],
    [
      "▁t",
      "h"
    ],
    [
      "▁अ",
      "यं"
    ],
    [
      "नो",
      "ं"
    ],
    [
      "ौ",
      "सर्"
    ],
    [
      "▁ब",
      "्रेके"
    ],
    [
      "र्थ",
      "म्"
    ],
    [
      "र्",
      "घ"
    ],
    [
      "a",
      "p"
    ],
    [
      "▁चि",
      "नोतु"
    ],
    [
      "▁उ",
      "त्स"
    ],
    [
      "C",
      "T"
    ],
    [
      "▁भि",
      "न्न"
    ],
    [
      "भ",
      "्यं"
    ],
    [
      "▁एष",
      ":"
    ],
    [
      "▁सम",
      "र्प"
    ],
    [
      "ी",
      "च"
    ],
    [
      "▁स्व",
      "च्छ"
    ],
    [
      "▁T",
      "utorial"
    ],
    [
      "▁विकल्प",
      "ं"
    ],
    [
      "म",
      "ान्"
    ],
    [
      "▁दृ",
      "ढ"
    ],
    [
      "▁समी",
      "पे"
    ],
    [
      "▁\"\"\"",
      "हे"
    ],
    [
      "▁अग्र",
      "े"
    ],
    [
      "▁ड",
      "ी"
    ],
    [
      "म",
      "हे"
    ],
    [
      "▁र",
      "क्त"
    ],
    [
      "स्थ",
      "ित"
    ],
    [
      "▁लि",
      "ए"
    ],
    [
      "न",
      "ै:"
    ],
    [
      "▁आं",
      "ख"
    ],
    [
      "▁प्र",
      "ार"
    ],
    [
      "म",
      "ेन"
    ],
    [
      "▁स",
      "ै"
    ],
    [
      "श",
      "ी"
    ],
    [
      "▁कार",
      "ण"
    ],
    [
      "ना",
      "ः"
    ],
    [
      "क",
      "्रिया"
    ],
    [
      "▁\"अत्र",
      ","
    ],
    [
      "▁याव",
      "त्"
    ],
    [
      "u",
      "d"
    ],
    [
      "ते",
      "न"
    ],
    [
      "▁क",
      "न्स्ट्रक्टर्"
    ],
    [
      "▁व्यव",
      "स्था"
    ],
    [
      "(",
      ")"
    ],
    [
      "▁शरी",
      "रस्य"
    ],
    [
      "▁प",
      "ो"
    ],
    [
      "▁आस",
      "न"
    ],
    [
      "▁\"",
      "S"
    ],
    [
      "▁अधिक",
      "विवरण"
    ],
    [
      "भ",
      "ूत"
    ],
    [
      "▁उत्",
      "प"
    ],
    [
      "▁ट",
      "्या"
    ],
    [
      "▁गच्छ",
      "न्तु"
    ],
    [
      "▁नि",
      "य"
    ],
    [
      "ोऽ",
      "पि"
    ],
    [
      "▁प्राप्त",
      "ुं"
    ],
    [
      "▁आ",
      "त्म"
    ],
    [
      "▁सम्य",
      "क्"
    ],
    [
      "भ",
      "े"
    ],
    [
      "प",
      "ू"
    ],
    [
      "ु",
      ":"
    ],
    [
      "न्द",
      "्र"
    ],
    [
      "▁प्राप्त",
      "वन्तः"
    ],
    [
      "▁रे",
      "ख"
    ],
    [
      "िक",
      "ां"
    ],
    [
      "▁ड्र",
      "ोप"
    ],
    [
      "▁ड",
      "ौन्"
    ],
    [
      "▁पाद",
      "प"
    ],
    [
      "▁फ़",
      "ील्ड्"
    ],
    [
      "▁ट",
      "र्"
    ],
    [
      "▁श",
      "्री"
    ],
    [
      "o",
      "od"
    ],
    [
      "ष",
      "न्"
    ],
    [
      "▁यीश",
      "ुः"
    ],
    [
      "av",
      "a"
    ],
    [
      "न",
      "्या"
    ],
    [
      "वा",
      "स"
    ],
    [
      "▁p",
      "ro"
    ],
    [
      "या",
      "ः"
    ],
    [
      "▁र",
      "ोग"
    ],
    [
      "ीय",
      "ते"
    ],
    [
      "▁मेन",
      "्यू"
    ],
    [
      "▁भो",
      "जनं"
    ],
    [
      "लि",
      "ख"
    ],
    [
      "▁द्व",
      "ि"
    ],
    [
      "ति",
      "ं"
    ],
    [
      "▁ए",
      "डि"
    ],
    [
      "ी",
      "त्वा"
    ],
    [
      "ीक",
      "रण"
    ],
    [
      "▁स्व",
      "यं"
    ],
    [
      "▁पर",
      "म"
    ],
    [
      "ब",
      "ि"
    ],
    [
      "▁टे",
      "ब्"
    ],
    [
      "ब",
      "ल"
    ],
    [
      "▁श",
      "िष्य"
    ],
    [
      "प्र",
      "ाप"
    ],
    [
      "▁b",
      "r"
    ],
    [
      "▁नुद",
      "ामि"
    ],
    [
      "मा",
      "ण्ड्"
    ],
    [
      ".",
      "t"
    ],
    [
      "▁चि",
      "ह्"
    ],
    [
      "टि",
      "ङ्ग्"
    ],
    [
      "▁रूप",
      "ेण"
    ],
    [
      "▁उपयोग",
      "ं"
    ],
    [
      "▁भव",
      "ेत"
    ],
    [
      "ञ्",
      "ज्"
    ],
    [
      "▁पाठ",
      "स्य"
    ],
    [
      "▁P",
      "ro"
    ],
    [
      "▁कि",
      "म"
    ],
    [
      "▁प",
      "त्र"
    ],
    [
      "▁प्रभ",
      "ु"
    ],
    [
      "h",
      "er"
    ],
    [
      "▁उ",
      "द्य"
    ],
    [
      "▁st",
      "r"
    ],
    [
      "▁श",
      "्वासं"
    ],
    [
      "द्व",
      "ारा"
    ],
    [
      "ाध",
      "ः"
    ],
    [
      "ास",
      "ु"
    ],
    [
      "ध",
      "ा"
    ],
    [
      "▁न",
      "िक"
    ],
    [
      "▁औ",
      "ट्"
    ],
    [
      "▁त्य",
      "ज"
    ],
    [
      "▁पु",
      "ष्प"
    ],
    [
      "क",
      "रो"
    ],
    [
      "प्र",
      "ति"
    ],
    [
      "▁पु",
      "ट"
    ],
    [
      "▁कथ",
      "्यते"
    ],
    [
      "▁त",
      "ेष"
    ],
    [
      "▁वि",
      "ध"
    ],
    [
      "▁चित्र",
      "ं"
    ],
    [
      "ou",
      "t"
    ],
    [
      "▁t",
      "utorial"
    ],
    [
      "mp",
      "le"
    ],
    [
      "▁I",
      "D"
    ],
    [
      "▁मु",
      "ख"
    ],
    [
      "▁द",
      "ण्ड"
    ],
    [
      "▁भू",
      "म"
    ],
    [
      "▁परस्प",
      "रं"
    ],
    [
      "ै",
      "क"
    ],
    [
      "ता",
      ":"
    ],
    [
      "i",
      "z"
    ],
    [
      "▁आव",
      "ृत्त"
    ],
    [
      "ण",
      "ी"
    ],
    [
      "▁भव",
      "त"
    ],
    [
      "▁नि",
      "श्च"
    ],
    [
      "▁स्थाप",
      "येत"
    ],
    [
      "ood",
      "le"
    ],
    [
      "श",
      "ील"
    ],
    [
      "ना",
      "र्थं"
    ],
    [
      "▁कानि",
      "चन"
    ],
    [
      "▁प",
      "ङ्क्त"
    ],
    [
      "स्",
      "कार"
    ],
    [
      "▁उद्घ",
      "ट"
    ],
    [
      "o",
      "c"
    ],
    [
      "ar",
      "i"
    ],
    [
      "त्",
      "थं"
    ],
    [
      "ञ्ज्",
      "महे"
    ],
    [
      "▁उ",
      "क्त"
    ],
    [
      "ab",
      "le"
    ],
    [
      "▁K",
      "oha"
    ],
    [
      "▁व",
      "ाय"
    ],
    [
      "भ",
      "ु"
    ],
    [
      "▁भ",
      "ाव"
    ],
    [
      "स",
      "ारं"
    ],
    [
      "▁सम",
      "ये"
    ],
    [
      "ह",
      "ार"
    ],
    [
      "▁निर्",
      "मा"
    ],
    [
      "व",
      "त"
    ],
    [
      ")",
      ","
    ],
    [
      "▁श",
      "नै:"
    ],
    [
      "▁प्राप्",
      "नोति"
    ],
    [
      "▁मि",
      "ल"
    ],
    [
      "स्थ",
      "ं"
    ],
    [
      "ी",
      "नां"
    ],
    [
      "ध",
      "्वे"
    ],
    [
      "▁युष्मा",
      "भि"
    ],
    [
      "▁तद",
      "्व"
    ],
    [
      "न्त",
      "ो"
    ],
    [
      "▁वाक",
      "्यं"
    ],
    [
      "ate",
      "g"
    ],
    [
      "का",
      ":"
    ],
    [
      "▁\"व",
      "यं"
    ],
    [
      "▁\"\"\"त",
      "तः"
    ],
    [
      "▁भव",
      "तः"
    ],
    [
      "▁सि",
      "द्ध"
    ],
    [
      "▁लघ",
      "ु"
    ],
    [
      "िरू",
      "शाल"
    ],
    [
      "्या",
      "प"
    ],
    [
      "ता",
      "ः"
    ],
    [
      "ब",
      "न्ध"
    ],
    [
      "व",
      "श्य"
    ],
    [
      "▁o",
      "r"
    ],
    [
      "f",
      "er"
    ],
    [
      "▁\"",
      "भव"
    ],
    [
      "ख्य",
      "ां"
    ],
    [
      "▁\"\"\"",
      "किन्तु"
    ],
    [
      "द",
      "ाय"
    ],
    [
      "i",
      "nt"
    ],
    [
      "▁पृ",
      "थि"
    ],
    [
      "▁स",
      "ीक्वेन्स्"
    ],
    [
      "▁ज",
      "लं"
    ],
    [
      "▁\"",
      "उ"
    ],
    [
      "▁क",
      "स्य"
    ],
    [
      "▁कर",
      "ता"
    ],
    [
      "en",
      "c"
    ],
    [
      "▁इ",
      "मानि"
    ],
    [
      "▁i",
      "nt"
    ],
    [
      "ू",
      "नि"
    ],
    [
      "▁उ",
      "च्च"
    ],
    [
      "▁अधिक",
      "ं"
    ],
    [
      "et",
      "t"
    ],
    [
      "▁न",
      "ग"
    ],
    [
      "ay",
      "er"
    ],
    [
      "▁इत्य",
      "स्मिन्"
    ],
    [
      "▁मनु",
      "ष्य"
    ],
    [
      "दि",
      "श"
    ],
    [
      "ाम",
      "ह"
    ],
    [
      "ार्थ",
      "म्"
    ],
    [
      "▁अव",
      "लोक"
    ],
    [
      "▁कृत",
      "वन्तः"
    ],
    [
      "▁क",
      "र्"
    ],
    [
      "▁र",
      "ि"
    ],
    [
      "ान",
      "न्तरं"
    ],
    [
      "▁श",
      "्"
    ],
    [
      "व",
      "ृ"
    ],
    [
      "सार",
      "ेण"
    ],
    [
      "त",
      "ानि"
    ],
    [
      "▁अ",
      "त"
    ],
    [
      "▁वि",
      "विध"
    ],
    [
      "▁सार्",
      "द्धं"
    ],
    [
      "य",
      "र्"
    ],
    [
      "▁क",
      "ं"
    ],
    [
      "▁तथा",
      "पि"
    ],
    [
      "▁न",
      "हि"
    ],
    [
      "s",
      "poken"
    ],
    [
      "ो",
      "ट्"
    ],
    [
      "क",
      "र्म्म"
    ],
    [
      "▁टेक्स्",
      "ट्"
    ],
    [
      "▁टर्",
      "मिनल्"
    ],
    [
      "▁L",
      "ibrary"
    ],
    [
      "▁द्वित",
      "ीय"
    ],
    [
      "न",
      "िक"
    ],
    [
      "ान्त",
      "ः"
    ],
    [
      "▁ट",
      "ूल्"
    ],
    [
      "▁विवरण",
      "ानि"
    ],
    [
      "p",
      "en"
    ],
    [
      "▁ब",
      "ृह"
    ],
    [
      "ि",
      "द्"
    ],
    [
      "h",
      "ar"
    ],
    [
      "▁प्र",
      "ाय"
    ],
    [
      "t",
      "t"
    ],
    [
      "▁त",
      "स्माद्"
    ],
    [
      "र",
      "ाग"
    ],
    [
      "▁र",
      "ाम"
    ],
    [
      "न्त",
      "ौ"
    ],
    [
      "ाय",
      "ाम्"
    ],
    [
      "yp",
      "e"
    ],
    [
      "च",
      "्यते"
    ],
    [
      "▁न",
      "ाना"
    ],
    [
      "▁प्र",
      "ण"
    ],
    [
      "an",
      "s"
    ],
    [
      "प",
      "ृ"
    ],
    [
      "▁न",
      "ास"
    ],
    [
      "ह",
      "र"
    ],
    [
      ".t",
      "xt"
    ],
    [
      "▁श",
      "्ल"
    ],
    [
      "ाल",
      "े"
    ],
    [
      "यित",
      "ु"
    ],
    [
      "ul",
      "t"
    ],
    [
      "a",
      "in"
    ],
    [
      "▁\"\"\"",
      "ए"
    ],
    [
      "▁यिहू",
      "दीय"
    ],
    [
      "व",
      "ी"
    ],
    [
      "क",
      "ू"
    ],
    [
      "िक",
      "े"
    ],
    [
      "च",
      "ी"
    ],
    [
      "▁द",
      "द"
    ],
    [
      "▁स",
      "ञ्च"
    ],
    [
      "भ",
      "्र"
    ],
    [
      "न्",
      "नि"
    ],
    [
      "▁सर्व",
      "्वा"
    ],
    [
      "व",
      "ृत्त"
    ],
    [
      "▁को",
      "र्स्"
    ],
    [
      "▁w",
      "ith"
    ],
    [
      "ना",
      "त्"
    ],
    [
      "▁वि",
      "स्त"
    ],
    [
      "▁ला",
      "भ"
    ],
    [
      "ccount",
      "ing"
    ],
    [
      "ित",
      "ाः"
    ],
    [
      "▁क",
      "ण्ड"
    ],
    [
      "▁पार्",
      "श्वे"
    ],
    [
      "देश",
      "ः"
    ],
    [
      ".",
      "c"
    ],
    [
      "त",
      "वान्"
    ],
    [
      "▁भवद्",
      "भिः"
    ],
    [
      "u",
      "re"
    ],
    [
      "▁S",
      "ystem"
    ],
    [
      "▁स",
      "्यात्"
    ],
    [
      "▁सङ्",
      "ख्या"
    ],
    [
      "-t",
      "utorial"
    ],
    [
      "▁च",
      "ेक्"
    ],
    [
      "▁सम",
      "ान"
    ],
    [
      "▁आ",
      "त्"
    ],
    [
      "i",
      "m"
    ],
    [
      "in",
      "d"
    ],
    [
      "ेश्व",
      "रस्य"
    ],
    [
      "द",
      "र्थं"
    ],
    [
      "▁R",
      "e"
    ],
    [
      "▁त",
      "ेषु"
    ],
    [
      "त",
      "न"
    ],
    [
      "▁अ",
      "तो"
    ],
    [
      "g",
      "e"
    ],
    [
      "-tutorial",
      ".org"
    ],
    [
      "at",
      "h"
    ],
    [
      "▁व्यव",
      "स्थाप"
    ],
    [
      "▁उपयु",
      "ञ्ज्महे"
    ],
    [
      "्त",
      "्त"
    ],
    [
      "▁ब",
      "ोक्स्"
    ],
    [
      "▁पूर्व",
      "ं"
    ],
    [
      "िह",
      "्"
    ],
    [
      "▁प्रक",
      "्रिया"
    ],
    [
      "▁\"",
      "प्र"
    ],
    [
      "▁भ",
      "ु"
    ],
    [
      "▁मु",
      "ख्य"
    ],
    [
      "▁अर्",
      "जु"
    ],
    [
      "r",
      "r"
    ],
    [
      "▁प",
      "ौल"
    ],
    [
      "▁य",
      "िरूशाल"
    ],
    [
      "▁\"\"\"अ",
      "प"
    ],
    [
      "▁घ",
      "ट"
    ],
    [
      "▁प",
      "ाल"
    ],
    [
      "र्",
      "था"
    ],
    [
      "M",
      "E"
    ],
    [
      "▁म",
      "यि"
    ],
    [
      "रे",
      "टर्"
    ],
    [
      "ire",
      "f"
    ],
    [
      "iref",
      "ox"
    ],
    [
      "▁इतीदं",
      ","
    ],
    [
      "▁आग",
      "त्य"
    ],
    [
      "m",
      "ail"
    ],
    [
      "ो",
      "र"
    ],
    [
      "▁से",
      "मिक"
    ],
    [
      "ज",
      "े"
    ],
    [
      "r",
      "ou"
    ],
    [
      "▁ओ",
      "प"
    ],
    [
      "▁दृष्ट",
      "्वा"
    ],
    [
      "म",
      "न"
    ],
    [
      "t",
      "h"
    ],
    [
      "▁ए",
      "लि"
    ],
    [
      "▁सं",
      "स्थाप"
    ],
    [
      "▁ज",
      "ाना"
    ],
    [
      "▁ब",
      "ल"
    ],
    [
      "ित",
      "्य"
    ],
    [
      "▁|",
      "\""
    ],
    [
      "प",
      "ति"
    ],
    [
      "▁स्त",
      "र"
    ],
    [
      "▁त",
      "र"
    ],
    [
      "▁म",
      "न्दि"
    ],
    [
      "▁ज",
      "नो"
    ],
    [
      "च",
      "िह्"
    ],
    [
      "at",
      "ic"
    ],
    [
      "▁स्",
      "क"
    ],
    [
      "▁मुद्र",
      "ा"
    ],
    [
      "▁जा",
      "वा"
    ],
    [
      "त्र",
      "ा"
    ],
    [
      "▁F",
      "ront"
    ],
    [
      "▁छ",
      "ो"
    ],
    [
      "▁श्",
      "मश"
    ],
    [
      "▁t",
      "est"
    ],
    [
      "▁ध",
      "न्य"
    ],
    [
      "▁क",
      "माण्ड्"
    ],
    [
      "▁4",
      "."
    ],
    [
      "▁स्",
      "पे"
    ],
    [
      "▁E",
      "dit"
    ],
    [
      "▁अप",
      "ने"
    ],
    [
      "त्व",
      "ार"
    ],
    [
      "र्व",
      "्व"
    ],
    [
      "▁अर्था",
      "त्"
    ],
    [
      "र्म्",
      "मा"
    ],
    [
      "▁e",
      "x"
    ],
    [
      "▁श्र",
      "ुत्वा"
    ],
    [
      "▁प्र",
      "माण"
    ],
    [
      "▁sp",
      "oken"
    ],
    [
      "▁निर्",
      "माण"
    ],
    [
      "▁त",
      "क"
    ],
    [
      "▁फ़",
      "ैल्"
    ],
    [
      "▁हु",
      "ए"
    ],
    [
      "▁उ",
      "द"
    ],
    [
      "▁ज्ञ",
      "ाप"
    ],
    [
      "▁दर्श",
      "ितं"
    ],
    [
      "▁प्राप्नु",
      "मः"
    ],
    [
      "ितव",
      "ान"
    ],
    [
      "▁सेमिक",
      "ोल"
    ],
    [
      "प",
      "दा"
    ],
    [
      "▁उपयोक्त",
      "ुं"
    ],
    [
      ".0",
      "4"
    ],
    [
      "▁पु",
      "र"
    ],
    [
      "▁वृ",
      "द्ध"
    ],
    [
      "क",
      "म"
    ],
    [
      "ी",
      "श्व"
    ],
    [
      "क",
      "ानां"
    ],
    [
      "▁सङ्क",
      "ल"
    ],
    [
      "स",
      "ह"
    ],
    [
      "्रि",
      "ङ्ग्"
    ],
    [
      "ां",
      "श्च"
    ],
    [
      "s",
      "w"
    ],
    [
      "▁व",
      "ी"
    ],
    [
      "▁पूर्व",
      "्व"
    ],
    [
      "A",
      "ccounting"
    ],
    [
      "▁\"\"\"",
      "इ"
    ],
    [
      "▁रच",
      "ना"
    ],
    [
      "ले",
      "ख"
    ],
    [
      "▁यो",
      "ह"
    ],
    [
      "▁आगच्छ",
      "न्तु"
    ],
    [
      "▁सर्व",
      "े"
    ],
    [
      "al",
      "l"
    ],
    [
      "ar",
      "d"
    ],
    [
      "त",
      "र"
    ],
    [
      "▁त",
      "्रि"
    ],
    [
      "▁द",
      "्वा"
    ],
    [
      "त",
      ","
    ],
    [
      "द",
      "ेव"
    ],
    [
      "▁सेमिकोल",
      "न्"
    ],
    [
      "▁संस्",
      "कृत"
    ],
    [
      "▁ध",
      "ेन"
    ],
    [
      "त",
      "स्य"
    ],
    [
      "▁स",
      "ार"
    ],
    [
      "▁गु",
      "ण"
    ],
    [
      "▁सम्य",
      "क"
    ],
    [
      "▁द",
      "ेश"
    ],
    [
      "लो",
      "का"
    ],
    [
      "▁अ",
      "न्ति"
    ],
    [
      "▁र",
      "ङ्ग"
    ],
    [
      "र",
      "क्ष"
    ],
    [
      "▁अ",
      "क्षर"
    ],
    [
      "ित",
      "ा:"
    ],
    [
      "▁त",
      "न्न"
    ],
    [
      "ar",
      "t"
    ],
    [
      "▁\"अ",
      "पि"
    ],
    [
      "▁प",
      "्ल"
    ],
    [
      "भ",
      "विष्य"
    ],
    [
      "▁अ",
      "ति"
    ],
    [
      "ig",
      "n"
    ],
    [
      "▁प",
      "िता"
    ],
    [
      "ु",
      "त्त"
    ],
    [
      "▁ड",
      "ोट्"
    ],
    [
      "ान्त",
      "ि"
    ],
    [
      "ृण",
      "ो"
    ],
    [
      "वा",
      "क"
    ],
    [
      "▁यु",
      "वां"
    ],
    [
      "▁केव",
      "ल"
    ],
    [
      "च",
      "ीन"
    ],
    [
      "▁c",
      "ol"
    ],
    [
      "▁,",
      "\""
    ],
    [
      "प",
      "्ल"
    ],
    [
      "ति",
      ":"
    ],
    [
      "▁इ",
      "त्थं"
    ],
    [
      "▁र",
      "ै"
    ],
    [
      "▁S",
      "poken"
    ],
    [
      "▁स",
      "क"
    ],
    [
      "ये",
      "त्"
    ],
    [
      "▁जाल",
      "पुट"
    ],
    [
      "h",
      "t"
    ],
    [
      "▁कदा",
      "पि"
    ],
    [
      "▁द",
      "ातुं"
    ],
    [
      "▁न्यू",
      "न"
    ],
    [
      "▁qu",
      "ot"
    ],
    [
      "▁सु",
      "सं"
    ],
    [
      "न्",
      "-"
    ],
    [
      "रे",
      "ख"
    ],
    [
      "▁ब",
      "ीज"
    ],
    [
      "▁ए",
      "तेषां"
    ],
    [
      "▁प्रथ",
      "मं"
    ],
    [
      "▁क",
      "ै"
    ],
    [
      "▁ज",
      "ो"
    ],
    [
      "et",
      "h"
    ],
    [
      "it",
      "y"
    ],
    [
      "▁पे",
      "र"
    ],
    [
      ".",
      "\""
    ],
    [
      "ध",
      "े"
    ],
    [
      "▁\"प",
      "श्चात्"
    ],
    [
      "▁क्ष",
      "े"
    ],
    [
      "▁व",
      "ह"
    ],
    [
      "ष",
      "ा"
    ],
    [
      "▁ब",
      "ाह"
    ],
    [
      "▁द",
      "ास"
    ],
    [
      "▁मह",
      "्यं"
    ],
    [
      "▁भविष्य",
      "द्वा"
    ],
    [
      "▁आर",
      "ाम"
    ],
    [
      "▁तद",
      "नन्तरं"
    ],
    [
      "▁एत",
      "स्य"
    ],
    [
      "ा",
      "इ"
    ],
    [
      "लि",
      "यों"
    ],
    [
      "▁कर्तुं",
      ","
    ],
    [
      "द",
      "म्"
    ],
    [
      "▁कर्त",
      "ुम्"
    ],
    [
      "▁श",
      "ब्द"
    ],
    [
      "0",
      "1"
    ],
    [
      "▁के",
      "चन"
    ],
    [
      "क्ष्",
      "म"
    ],
    [
      "े",
      "ल"
    ],
    [
      "क्षे",
      "प"
    ],
    [
      "ण",
      "ाम"
    ],
    [
      "▁o",
      "n"
    ],
    [
      "▁अ",
      "भव"
    ],
    [
      "▁अप",
      "्"
    ],
    [
      "▁प",
      "ै"
    ],
    [
      "p",
      "er"
    ],
    [
      "▁ज",
      "ि"
    ],
    [
      "वि",
      "ष्ट"
    ],
    [
      "▁ब",
      "ै"
    ],
    [
      "▁भव",
      "तु"
    ],
    [
      "u",
      "e"
    ],
    [
      "ी",
      "र्ण"
    ],
    [
      "▁\"\"\"",
      "प"
    ],
    [
      "▁to",
      "ol"
    ],
    [
      "क",
      "ौ"
    ],
    [
      "▁अपर",
      "ञ्च"
    ],
    [
      "या",
      "त्"
    ],
    [
      "िष्य",
      "ते"
    ],
    [
      "क",
      "ेन"
    ],
    [
      "eth",
      "od"
    ],
    [
      "▁आव",
      "ां"
    ],
    [
      "▁कृष्ण",
      "ः"
    ],
    [
      "▁M",
      "an"
    ],
    [
      "▁द",
      "ाय"
    ],
    [
      "▁चित्र",
      "े"
    ],
    [
      "▁c",
      "on"
    ],
    [
      "▁E",
      "x"
    ],
    [
      "▁अधस्त",
      "न"
    ],
    [
      "ं",
      ","
    ],
    [
      "क्",
      "से"
    ],
    [
      "▁A",
      "p"
    ],
    [
      "▁इदानी",
      "म्"
    ],
    [
      "▁प्र",
      "चार"
    ],
    [
      "ण",
      "म्"
    ],
    [
      "मुप",
      "युज्य"
    ],
    [
      "ीश",
      "ु"
    ],
    [
      "क्त",
      "े"
    ],
    [
      "▁आ",
      "दि"
    ],
    [
      "रि",
      "क"
    ],
    [
      "ट",
      "िक्"
    ],
    [
      "▁स्थ",
      "ानं"
    ],
    [
      "प",
      "री"
    ],
    [
      "▁प्रे",
      "म"
    ],
    [
      "▁ID",
      "E"
    ],
    [
      "▁s",
      "h"
    ],
    [
      "▁कश्च",
      "ित्"
    ],
    [
      "▁व",
      "स्तु"
    ],
    [
      "le",
      "t"
    ],
    [
      "स्",
      "-"
    ],
    [
      "il",
      "es"
    ],
    [
      "स्त",
      "ीति"
    ],
    [
      "▁श",
      "क्ति"
    ],
    [
[...]
